#version: 0.2 - Trained by `huggingface/tokenizers`
à ¤
á ĥ
Ð °
à ¸
à ´
Ð ¾
Ð ½
Ð µ
Ð ¸
à °
Ñ Ģ
Ñ Ĥ
á Ģ
à ²
à ®
e n
à ¦
Ñ ģ
e r
Ø §
a n
Ð »
à ¥
à ¶
Ð ²
à ·
à ª
i n
ã ģ
Ð º
Ð ´
á ŀ
à ¬
a r
à µ
à º
s t
Ñ ĥ
Ð ¿
à ¨
Ð ¼
a t
a l
o n
r e
Ø ±
Ù Ħ
à ¹
à ±
à ¯
e l
o r
Ñ ĸ
Ð ³
Ù Ĩ
i t
Õ ¡
à¤ ¾
Ð ·
Ù ħ
Ù Ī
Ñ ĭ
àµ į
à ³
Ð ±
i s
e s
Ø ª
e t
à¥ į
r a
i l
á Ī
Ñ ı
áĥ Ĳ
Ã ¡
Õ¡ Õ
a s
Û Į
c h
Ù Ĭ
Ñģ ÑĤ
ã Ĥ
u n
Ã ©
áĥ ĺ
à §
o l
× Ļ
Ø ¯
a d
à¤ °
r i
a m
Ã ¤
ÑĢ Ð°
r o
Î ±
Ñ ĩ
c i
× ķ
t i
É Ļ
d i
e m
à¯ į
Ä ±
l i
áĥĲ áĥ
Î ¿
Ðµ Ð½
Ø ³
Ø ¨
á Ł
à «
Î µ
o m
Ñ Ĩ
Ø§ ÙĦ
Ð ¶
Ñ Į
áĥ Ķ
Ð ¹
a k
en t
Î ¹
Ð½ Ð°
à Ń
×ķ ×
á ī
s i
Ñ ħ
à¸ ²
Ã Ń
à± į
Ñ Ī
e d
Ð² Ð°
Ö Ģ
ã ĥ
×Ļ ×
à¤ ¨
áĥĶ áĥ
á ĭ
Ï ģ
p o
Ï Ħ
Ã ¶
u r
à¤ ķ
à¤ ¤
u l
Ã ¼
à¤ ¿
e k
Ù ĩ
Õ ¸
á Ĭ
Ñ į
à´ ¿
Ð½ Ð¾
Ã ³
Î ½
u t
u s
Ð½ Ð¸
áĥĺ áĥ
Ð¿ Ð¾
à´ ķ
à³ į
à¤ ¸
i k
l e
Ø§ Ø
ÑĢ Ð¾
d e
à¸ Ļ
in g
à¸ £
t e
l a
ä ¸
à¥ ĩ
Å ¡
Ï ĥ
ÑĢ Ðµ
t a
o s
à ©
u m
Ðº Ð°
Ðº Ð¾
i m
ÑĤ Ð°
à´ ¨
à¦ ¾
d a
à· Ĭ
Õ ¥
Ù Ĥ
à¤ ®
ÑĢ Ð¸
Ð» Ð°
× Ķ
Ä į
à¤ ²
ÑĤ Ðµ
v i
k a
Î º
à° ¿
à· Ĵ
Õ ¶
Ð´ Ð°
à »
Ù ī
à² ¿
à¤ ¯
n i
e g
Ø ¹
n a
i r
áĥ Ŀ
à® ķ
à¶ ±
× ¨
Ù ģ
Ò ¯
Ï Ģ
Å Ł
à¸ Ń
à® ¿
Î ¼
à¥ Ģ
m a
à¤ ª
à° °
Î »
àµ ģ
à¹ Ģ
à° ¾
o v
Ø ´
à´ ¤
× ŀ
à¸ ģ
Ú ©
à´ ¾
à§ į
Ø§ ÙĨ
a b
Õ «
Ð» Ð¸
o d
Ð¼ Ð°
à® ¤
Ð² Ð¾
Å ¾
á »
à± ģ
à¹ Ī
àª ¾
Ó ©
Ö Ĥ
à¤ µ
× Ĳ
a p
Î ·
z i
à¯ ģ
n e
Ä ģ
Ã «
s e
à² °
ÑĤ Ð¸
Ð· Ð°
j e
i c
o t
× ľ
Õ¸ ÖĤ
Ø ¬
à¸ ĩ
à´ °
Ð² Ð¸
áŁ Ĵ
à° Ĥ
g e
i a
Ñ ĺ
à¸ ¡
à¦ °
p ro
t er
áĥĿ áĥ
à° ¨
j a
i z
à· Ģ
v a
Ï ħ
Ðµ ÑĢ
áĢ º
v er
× ĳ
s k
i d
o b
Ø§ Ø±
àŃ į
à¸ ±
ÑĤ Ð¾
à¤ ¦
Ø Ń
Õ¡Õ ¶
à¬ ¾
á Į
à¹ ī
Ø ©
h a
an g
Î ¯
áĢ ¹
v e
à· ı
à¹Ģ à¸
Ñ İ
à² ¾
ä º
à¥ ĭ
i g
à¥ ģ
s p
i st
à¶ »
Ð» ÑĮ
à¸ ¢
c on
n o
× ¢
à´ Ł
i e
Ð» Ð¾
s a
Ã §
z a
à¶ Ń
à¶ º
c e
à¤ ¹
à´ ¯
Ù ĥ
t o
k o
à¤ Ĥ
q u
u d
áĢ ¸
à´ ª
Ð³ Ð¾
à¶ ļ
áŀ ¶
× ©
Ð´ Ð¾
p er
à¶ ¸
Ð³ Ð°
àª °
Ð½ Ðµ
o g
à® ª
à¦ ¿
Ñ Ħ
ç ļ
à® °
à° ķ
áĥ ł
à° ²
Ð» Ðµ
b a
Î ¬
à¬ ¿
s z
Ø ²
à· Ķ
à¬ °
á º
à² ¦
n g
à¸ §
u k
ÑĨ Ð¸
Ù ¾
çļ Ħ
ì Ŀ
à¦ ¨
Ï Ĥ
áĢ ¬
à¤ Ĺ
áĥ Ľ
Ð´ Ð¸
à¸ µ
à« į
a g
× ł
Ø ®
à¸ ´
áĥ ¡
p re
Ð´ Ðµ
e st
y a
Ñ Ĭ
p r
an d
ãģ Ħ
à³ ģ
àº ²
at i
à´ ²
à® Ł
Ðº Ð¸
à§ ĩ
o k
t u
à¸ Ķ
Ð² Ðµ
Õ ´
à® ¾
à¸ ¥
à² ¤
Î Ń
Å Ĥ
æ ľ
Î ³
à´ µ
ÑģÑĤ Ð°
Ò Ľ
× ª
Ð ¡
Õ ¿
à¤ ľ
à¤ ¬
àº Ļ
k e
à¨ ¾
a c
à° ¤
áĢ ±
à· ĥ
m en
à² ¨
à® ®
Ð± Ð°
Ã º
áĥ £
m e
å ħ
å ı
å ¤
à¸ ª
à³ Ĩ
à´ ®
Ú ¯
v o
Ð¿ Ð°
Ð Ĳ
à° ª
r u
ð Ł
b er
áŀ ļ
Ð¼ Ð¾
un g
ÑĢ Ñĥ
l o
Î ´
Ã ¸
c a
áĢ ¯
Ñģ Ð°
Ï Į
áĢ Ģ
Ä «
à² ķ
à® µ
Õ¡ ÖĢ
à° µ
à° ¸
en d
áĥ ļ
t r
å ®
Ð¾ Ð±
Û ķ
b e
Ø µ
k u
Ä ĥ
ä »
à¤ Ł
à² ¸
f or
Ã ¦
o p
à¨ °
st a
à¦ ķ
à¶ ¯
Ð¼ Ðµ
Ä Ł
àµ Ĩ
áĥĶáĥ ĳ
à¸ ļ
s u
e c
p a
áĥ ķ
Ð½ Ñĭ
Ð Ł
Ñ ī
à¦ ¬
ÐµÐ½ Ð¸
g i
× §
Û ģ
g a
à¸ Ĺ
áĢ Ń
Õ¥ Õ
× ĺ
an t
Ð± Ð¾
Ð¼ Ð¸
k i
× Ĺ
w a
Ä ħ
à¸ ķ
Ã ª
× ĵ
Ð ļ
h i
à² ²
Ø ¦
à® ²
b i
l u
× ¤
ÑĤ ÑĮ
Ð¿ ÑĢÐ¾
áĢ Ĳ
å Ī
Î ®
Ð½ Ñı
áĢ Ħ
n y
à° ¦
h e
à¦ ¯
ãģ ¦
m i
à¸ Ħ
à² µ
à® ©
Ã °
d u
h o
p i
à´ ¸
Ã ¥
à¶ ½
à´ ļ
áĢ Ļ
à¶ ´
à¤ ¶
à¤ ļ
áĥĺáĥ ¡
Ø ·
à« ĩ
Ø§ Øª
à´ Ĥ
à° Ł
Ñĩ Ð°
d er
Ï ī
p ar
Ð ľ
Ä ĵ
Ã ½
à² Ĺ
áŀ ĵ
à° ¯
Õ ¯
Ø £
à¦ ¤
0 0
c om
s o
d o
à¦ ¸
Ð Ŀ
à´ ±
Ðº Ñĥ
á į
Î¹ Îº
Ñģ Ð¾
ÑĢ Ñĭ
áŀ Ł
á ģ
ãģ Ĺ
áĢ ķ
Õ¥ ÖĢ
ë ĭ
áĥ ĵ
Ñĩ Ð¸
l ar
Ð½ Ñĸ
à¦ ®
à¸ «
m o
áĬ ķ
c z
à² Ĥ
Ð ŀ
Õ µ
j u
à° ļ
áŀ Ģ
Ð¶ Ð°
Ð» Ñĸ
× Ľ
à² ¯
áŀ Ķ
p e
Ð ¢
å Ĳ
à° ®
j i
ÙĪ Ø±
Ñģ Ð¸
àª µ
Ä Ľ
à¸ °
Ø§ Ùħ
ãģ ¾
c o
k on
àª ķ
Ä Ļ
ä ½
Ä Ĺ
Ï ĩ
Ñģ Ñı
ÑĤ Ñĥ
áĢ Ķ
áī µ
à¯ Ī
× ¡
an a
ar i
à¬ ķ
t en
Ö ģ
à¦ ª
à¦ ²
Ñģ Ðµ
Ã¡ l
Ã ®
à¨ ¸
p l
Ð ł
k an
à· Ļ
àª ¨
ãģ ®
Õ °
s h
å ľ
Ð¿ ÑĢÐµ
Ï į
áĥ ľ
a h
àª ®
ãģ Ł
à« Ģ
n d
Ä ĩ
à´ ³
à® ±
à· Ħ
Ð Ķ
× Ĵ
à¤ ħ
à® ¯
ãģ ª
æ ĸ
el l
Ð ĳ
àº ģ
à± ĩ
Õ ¾
áĥ ¢
à® ļ
Õ¡Õ ¯
Îµ Î¹
å °
áĥ Ĵ
ç Ķ
à¬ ¤
Ð¿ ÑĢÐ¸
Ñĩ Ðµ
f f
à¸ ¸
ÉĻ r
à¬ ¨
à² ®
Î¿ Ïħ
à¹ Į
Ø³ Øª
m in
Ñ ŀ
æ ĺ
ä¸ Ģ
w y
Å Ľ
Ø§ Ø¯
ãģ ¨
Ã³ n
Î ¸
Ð Ĵ
í ķ
à¤ ¡
t h
×ķ× ª
a y
Ï Ĩ
à® ³
àª ¤
Ö Ħ
à´ £
p u
p ri
v al
ÑĤ Ñĭ
Õ ½
ì ŀ
Ð¿ Ðµ
à° ¡
Ú Ĩ
à¬ ¬
áĥĲáĥ ł
Õ ©
Ø º
è ¿
à¤ £
ãģ «
Ð´ Ñĥ
Ñħ Ð¾
Ã¶ r
m u
w i
æ Ī
à° Ĺ
Ð» Ñĥ
Ð² Ñĸ
el e
Å ĳ
å Ĭ
à¸ Ľ
áŀ ı
e x
Ñģ Ñĥ
b u
Ú ¾
à¤ §
Ð¾ ÑĢ
àº Ķ
st i
à¹ ģ
Ä± n
re s
r an
t ra
ar e
à¨ ¿
ãĤ ĭ
Ð¸ Ð·
à· Ĳ
ãģ Ļ
Ñĺ Ð°
àª ¸
áĥ Ĺ
àŃ ĩ
g u
z e
Ð» Ñı
Ð¿ ÑĢÐ°
a v
Ã ł
er i
à¤ Ń
g en
áĪ Ń
áŀ ĺ
×Ļ× Ŀ
à® ¨
àº ĩ
al i
à± ĭ
il i
à» Ī
ÏĦ Î±
Ð ĺ
ÑģÑĤ Ð¸
ad a
v en
àµ ĭ
áĢ ¼
Å ¼
ì ł
ãĥ ¼
j o
s en
f i
s ch
ÙĪ ÙĨ
Ã µ
ãģ §
c u
Õ ¤
er e
ä ¼
å į
à· ļ
Ð´ Ñĭ
à¬ ¸
àº ±
p or
à¤ ·
à¹ Ħ
p en
à² ª
à« ĭ
ent e
Ñ ļ
Ð½ Ñĥ
Ðµ ÑĤ
à¦ ¼
ÙĪ ÙĦ
à¸ Ī
à¶ §
à¸ ŀ
Ò ĵ
å ¾
é Ģ
ì Ĺ
in a
t y
Û ĩ
ä ¹
ar a
Ð± Ð¸
áĢŃ áĢ¯
× ¦
à¥ Ĥ
à¶ ľ
àº Ń
Ð³ Ð¸
Ø§ÙĦ Ùħ
k om
å Ń
Ð¶ Ð¸
Ã¡ s
à¸² à¸£
Ø§Ø ¦
å ¹
Ø§ ÛĮ
Ð» Ñĭ
ci a
p ra
w e
àª ²
àª Ĥ
à© Ģ
m an
àª ª
à¬ ®
ÑģÑĤ Ð¾
áĪ į
à» Ģ
à¦ ¦
áĥĲáĥ ľ
ÑĨ Ñĸ
àª ¯
ãģ £
àµ ĩ
ìĿ ´
à¤ ĸ
Ð° ÑĢ
à² ¡
on e
áĬ ł
t Ã¤
Ø ¶
Û Ĳ
à¬ ª
Ð ķ
æ ī
Ðº Ñĸ
ê °
àª ¿
in e
å ¸
é ģ
áĢ Ľ
áŀ Ħ
àº °
a u
áŀ Ľ
áĪ ĺ
l l
Õ £
å Ľ
in d
k l
Å Ļ
à¨ ķ
t ar
Ð¸ Ð½
áĢ ľ
áĪ µ
à» ī
a j
Ã ¢
æ Ĺ
à´ Ļ
áĢ ŀ
à± Ģ
2 0
Û Ĵ
Ø§ Ø¨
al l
ãĤ Ĵ
à§ ģ
ati on
c k
in i
st e
at e
s er
ÙĨ Ø¯
h u
Ð¼ Ñĥ
n ing
ì ķ
Ð¼ ÐµÐ½
g an
à± Ĩ
or i
Ã¡ n
áĭ ¨
äº º
b o
áĢ ħ
is i
Ïĥ ÏĦ
b l
r y
è ¦
áĥ ®
áĥ Ļ
Ð¾ ÑĤ
à² ¬
Ø± ÛĮ
Îµ Ïģ
àŃ ģ
Î ²
Ò £
à² Ł
g y
à¸ ·
áĢ ¡
à¨ ²
it a
it i
Ã £
à¸ Ĭ
Ð± Ðµ
Ã© s
Å ³
Ñģ ÑĮ
Ð´ Ñĸ
Î± Î½
áĥĲáĥ Ľ
Ñ Ĺ
er a
ãģ Į
Õ¡Õ µ
Ðº Ðµ
as i
ÏĢ Î¿
Ø ¢
ç »
ì ĭ
à¤ Ĩ
Ã¤ n
Ïĥ Î·
m ÉĻ
å ĩ
áĥ ¨
Ð² Ñĭ
áĪ Ī
è ®
Ð¼ Ñĸ
áĪ Ŀ
ãĤ Ĭ
b il
à¸ ¹
àº §
Ø± ÙĪ
j en
å ¯
Ð° Ð½
Ð¿ Ð¸
li g
a i
Ã ¨
Ð ĵ
ãĤ Į
Ñ Ķ
à¤ ī
áĢ ·
à² ³
áī ł
Ä ĳ
à´ ħ
àº ¡
g o
Ú ª
à² ¹
ÙĬ Ø©
à« ģ
Î¼ Î±
Å «
å ¿
ê ³
d en
ç Ľ
áĢ »
ÑĢÐ° Ð·
à© ĩ
Ï İ
æ Ŀ
Ø§ Ø³
à¨ ®
Ïģ Î¿
Õ¸ ÖĢ
m er
s l
å º
ãģ ĭ
à¨ ¨
à¹ ĩ
è ¯
in t
ad o
ci Ã³n
áĥĶáĥ ł
ä¸ į
1 9
a f
h an
r en
u p
å ¼
è ¡
áŀ ·
Õ¸ÖĤ Õ´
m ar
el i
t or
å ¥
à¨ ¤
il l
áŁ ĭ
b li
v ol
æ Ģ
à¥ Ī
á Ĥ
Ð° Ð»
à¶ ħ
àº ª
Ð³ ÑĢÐ°
ch t
áĭ į
× ĸ
é ĩ
à¸ Ĥ
it e
m at
è ¨
áī °
ãģ Ĩ
à¸Ń à¸ĩ
a z
m as
Ð Ľ
ì Ħ
Ð· Ð¸
à³ ĩ
×ķ× ¨
ÑĪ Ð¸
áĥĶáĥ ļ
à¨ ¦
al e
y n
à· ĵ
ãĥ ³
d is
d es
ì §
à¤ ı
à° ħ
áĢ ģ
Ñģ Ñĭ
ãģ ĵ
Õ¸ÖĤ Õ©
ëĭ ¤
s am
áĢ ½
Ñģ Ñĸ
it u
ent o
b r
Õ º
v Ã¤
áĥ ĳ
à¹ į
Ïģ Î±
æĺ ¯
f er
v y
Å ¥
Ñģ ÐºÐ¸
à¶ ¶
Ä± r
b en
Ø °
à¨ ¹
al a
p ol
v ar
æ °
æ ķ
æ Ń
à® ħ
ãģ ı
Ã© r
Ð¶ Ðµ
Ñį Ñį
à¸µ à¹Ī
Õ¥Õ ¬
g er
à¹ ĥ
Ð· Ð½Ð°
à§ ĭ
ad e
ch e
Îµ Î¯
I n
f a
k er
è Ģ
Ð³ Ñĥ
un d
Ã£ o
à¦ ľ
Ø± ÙĬ
Ñĸ Ð½
ÑģÑĤ Ð²
Õ¸ÖĤÕ© Õµ
v el
× Ł
áŀ ĳ
áŀ Ļ
àº »
àº ļ
à¹ Ĥ
Ð £
å ·
à¦ Ł
Ð± Ñĥ
áĥĲáĥ ķ
Ò¯ Ò¯
Õ¸ÖĤ Õ¶
e j
t t
z y
Ä °
à¬ ¦
st r
Ã¼ l
l an
t re
Ø «
àª ľ
ÑĪ Ð°
c ol
k t
v is
y e
Ò ±
ì ļ
Ø§ Ùģ
áĥĲáĥ ĵ
ic a
Ñĺ Ðµ
æľ ī
u g
å ½
ë §
à´ ¦
in n
ar t
Ã¶ n
Ù ¹
æ Ķ
à¤ «
áŀ ĸ
Ð¿ Ñĥ
ti on
áĭ «
n ÃŃ
áĥ ŀ
à® £
at a
Ð¹ Ð½
Õ« Õ¶
. .
Õ ¢
áŀ »
à¨ µ
Õ¡Õ ¿
Ã¼ n
å¤ §
à»Ģ àº
æ Ħ
áĢ ļ
Ã¡ r
áĥĲáĥ ļ
g ra
l y
ê ¸
Ð» ÐµÐ½
in ter
à¨ ª
qu e
c or
è §
à· ľ
à© °
20 1
k y
Ã ´
ãĤ Ĥ
ÑĨ Ð°
s on
å ĳ
Ð¾ Ð½
an i
àª ¦
Ã¤ r
Ñħ Ð°
à¸ģ à¸²à¸£
s y
Ø ¥
ä ¿
æ ĥ
ç ī
ÑĢ Ñĸ
à¦ Ĺ
àº µ
áĭ Ń
Ø§Ø ¹
áĢ¹ áĢ¸
æ Ĭ
è µ
à¤ ¥
Ñģ ÐºÐ°
Ø§ Ùĩ
am a
áŁ Ĩ
àŃ Ł
áī ½
ÃŃ t
ÑĪ Ðµ
po s
Ã« r
n u
å Ģ
å Į
ì Ĭ
à° ¬
à¦ ¶
ãģ ¯
Ø¨ Ø±
ÑĨ ÑĮ
à¸² à¸Ļ
po d
e h
n ik
Æ °
Ñ Ļ
Ô ±
áŀ ħ
à¨ ľ
c es
g r
Ð Ĺ
å Ĩ
ê ²
ë Ĭ
à¤ ĩ
à¦ ¹
Ð» Ñİ
ci on
b y
m em
Ó Ļ
ä ¾
æ ³
ç ľ
áĬ Ĳ
m et
Î ĳ
å ±
ë Ĥ
à¬ ¹
st o
re d
Õ¸ Õ
à¸£ à¸°
à© ±
Î¯ Î±
p as
é Ļ
àº ´
d el
j ed
v an
é Ŀ
à´ ¶
Ñģ Ðº
ãģ į
à¬ ²
Ð³ Ñĸ
ÛĮ ÙĨ
áĮ į
áĥ¡ áĥĲáĥ
ÑĬ ÑĢ
áĥ£ áĥļ
l Ä±
æ Ļ
ë ¦
Ø§ ÙĤ
ÙĬ ÙĨ
ÑĨ Ðµ
ÐµÐ½Ð¸ Ðµ
Õ ¨
è ĩ
àª Ł
àµ Ģ
àº «
k en
Î ¾
àª ¹
à§ Ģ
Ð²Ð° Ð½
áĥĶáĥ ľ
áĥĺáĥ ļ
c t
n Ã©
s el
à° ľ
áŀ ¸
à¯ ĩ
Õ¡Õ ½
ÉĻ n
Î¹ Î±
h t
m ent
p h
å ĵ
ì ĸ
à´ ·
at u
re g
Øª Ø±
di g
áŁ ģ
Å¾ i
b ar
Ñ Ľ
áĥ ¬
Ð½ Ð´Ð°
Ñģ ÐºÐ¾
à± Ĥ
áī ¥
ul t
Ñį Ð½
ãģ¾ ãģĻ
l en
r it
t em
Ð ¥
ç §
is e
il e
Ø§Ø ²
à© ģ
à°¿ à°Ĥ
ãģ£ ãģ¦
s c
u z
áĢ Ĭ
à¶ «
A N
A n
k ol
k Ã¶
ë ĵ
àª Ĺ
à¨ Ĺ
es i
ãĤ ĵ
àµģ à´Ĥ
åľ ¨
m on
o w
Î ķ
é ĥ
é ĸ
à® ĩ
Ð´ Ð·
ÙĦ Ùī
à¯ Ĩ
ÛĮ Ø¯
ÉĻ t
Ó© ÑĢ
áĢº áĢ¸
äº Ĩ
áĢ¬ áĢ¸
C h
r Ã©
s in
è ´
àº Ĺ
ÑģÑĤ ÑĢÐ°
à¸² à¸¢
áĥĺáĥ ľ
Õ¶ Õ¥ÖĢ
a ch
p at
à¨ Ĥ
ÑģÑĤ Ð²Ð¾
áĬ ¥
ä¸ Ĭ
e f
k or
æ İ
ç Ĳ
è ¾
à¤ Ľ
Ð² ÐµÑĢ
et t
Ñļ Ðµ
e i
h er
z en
é Ľ
Ð¾ Ñģ
àª ¬
àº² àºĻ
å ī
ë °
áĢ ®
à¨ ¼
ãĤ ī
Ø§Ø ´
Îº Î±
c er
l er
n h
Ã ±
ì Ĥ
ÑĤ Ñĸ
à¨ ¬
áĪ ¨
Î½ Î¿
áĮ Ī
b an
h et
áĥ ª
áĢ ²
à² ħ
à¤¾ à¤Ĥ
à¸² à¸ĩ
Ñį ÑĢ
ä¸ Ń
ÏĢ Î±
h l
z o
æ ĭ
æ ł
àº ¥
Õ¡Õ ¾
Ã© g
em ent
×ķ× ľ
áĭ µ
Ð»ÑĮ Ð½Ð¾
P ro
e v
z d
Ä ¾
Î ¶
ì ľ
Ñģ Ð¿Ð¾
ÙĪ Ùħ
à³ Ĭ
×Ļ ×Ļ×
li k
à¸² à¸¡
Äį i
áĥĿáĥ ĳ
áĥ£ áĥł
b or
b es
c y
h at
æ ²
à¤ ł
ar d
àº į
Îµ ÏĤ
à© ĭ
k at
l et
Å £
Ø ¸
ç ´
ç Ļ
è ĥ
áĥ ¤
à³ Ģ
Õ¡Õ ´
à¤ķ à¤°
ik a
le g
à®ķ à®³
Î» Î¿
m Ã¼
t el
× Ŀ
Ðº ÑĢÐ°
is k
áĪ «
ÙĬ Ø±
Î¼ Îµ
k r
o u
é ¡
áĥ ¥
à² ļ
an n
ad i
ÉĻ l
Ñį Ð»
åĩ º
a ut
ì ĺ
ÑĤ ÑĢÐ°
áĢ ¶
Ð¼ Ñĭ
or d
un i
ÐºÐ¾ Ð½
h al
m al
æ ¯
ë ¡
àª ¶
ãģ Ĭ
áŀ Ĭ
áŀ ľ
Ùħ ÙĨ
ÙĪ Ø¯
ÒĽ Ð°
ÐµÐ½Ð¸ Ñı
e b
o c
s Ã¤
t am
Õ ¬
ì ĥ
à¸ ľ
à¦ ļ
àµ Ĥ
is h
ch i
ÏĦ Î·
Ã¼ r
Ø§Ø ¡
s ol
y t
Î ł
Ñ ĳ
å ĭ
æ µ
æ ¸
æ Į
é «
ë ı
áŀ ĩ
Ñĥ Ð²Ð°
Ð½Ð¾ ÑģÑĤ
ni e
ÑĦ Ð¸
áĢ± áĢ¬
b et
g ar
k ar
å İ
à° ·
áĢ «
on i
ÙĦ ÛĮ
ÙĪ Ú
Ã¡ t
ãĤ ¹
ÏĦ Î¿
Ã¶ l
Ø§Ø Ń
Ñī Ðµ
Õ¡Õ¯ Õ¡Õ¶
c re
s ka
Õ ·
à¸ ĸ
Ø§ Ú
st an
à¨ Ĩ
it o
à³ Ĥ
Ð± Ñĸ
áĪ ĭ
Ñĩ Ñĭ
Ä± ÅŁ
àŃ Ģ
Ð½Ð¸ Ðº
i y
w o
È Ľ
Õ ®
ç º
ç ķ
é Ĺ
ê µ
à° ¶
ãģ Ĥ
Ð´ ÐµÐ½
áĪ Ľ
li ch
áĭ °
Ãª n
A r
l Ã¤
t ur
z n
Õ Ń
ã Ģ
áĢ Ĩ
áĢ ĸ
à² ľ
ãģ ł
áŀ Ĥ
à¬ Ĺ
di r
Ïī Î½
ëĬ Ķ
â Ģ
è ª
×Ļ× ¨
ÅĽ ci
c ar
m is
ç «
Ð¿ Ñĸ
on a
Õ¡ Öģ
Ùħ Ø±
Ùħ ÛĮ
ÙĬ Ø¯
Ø§ÙĦ Ø£
Ùģ Ø±
Î¼ Î¿
A l
f t
f in
g el
t ri
y s
z u
à´ §
à² ¶
at o
à¯ ĭ
ci Ã³
àŃ ĭ
ÑĪ Ñĭ
ãĥ Ī
ÏĦ Î¹Îº
Ã¸ r
b el
k et
m el
p an
t an
é ¢
st u
ÙĪ ÛĮ
Ñħ Ð¸
Å¡ i
ÑĤÐµ ÑĢ
Õ¸ÖĤÕ©Õµ Õ¸ÖĤÕ¶
h ar
t ak
u si
Ä ¯
è ²
è ģ
à´ Ĺ
à´ ŀ
en ti
ãģ ĳ
à¬ £
à¯ Ĭ
am i
×Ļ× ł
Ø§Ø ¬
à» į
ÑĨÐ¸ Ñı
f un
j et
l as
v il
ë ³
Ð° Ðº
Ðµ Ðº
áŀ ¼
Øª ÙĪ
×ķ× ł
Õ¥ Õ¶
zi one
å¤ ļ
Ñī Ð¸
çĶ Ł
ê¸ °
c ul
d d
e z
i p
j el
k al
m ak
p li
t ro
æ ¬
ë ¶
à® ´
àº ķ
Ùħ ÙĦ
à³ ĭ
ol og
ti v
áī £
áĥĺáĥ Ĺ
ÑĤÐ° ÑĢ
na j
ä¼ ļ
i b
i re
v u
z t
Ð ¤
Ö ·
è ³
ë ł
Ð¾ Ð´
à¦ Ĩ
Ã³ w
à¸Ń à¸Ļ
ÑĤÐ¸ Ð²
ÑģÑĤÐ° Ð²
Ã¦ r
ê° Ģ
ì§ Ģ
E N
E R
f ic
s eg
Û Ī
å ł
en i
à¦ ĩ
ãģ ķ
à¬ Ł
àº ŀ
on g
Ùħ ÙĪ
ak a
×ķ× ĵ
Ïģ Î¹
Ø¹ ÙĦ
Ò¯ ÑĢ
Ð¿ÑĢÐµ Ð´
å¹ ´
A R
k ur
k ul
p la
v et
Î £
ç İ
é ļ
à¤ ģ
áĥ §
à¬ ľ
Õ¡Õ ¼
ti g
em b
áī ³
Ó© Ð½
äº ĭ
×¢ ×¨
áº ¡
è¡ Į
k s
r at
ç ¾
à° ¹
à² ·
à¬ ¶
ra s
ãĤ ¤
Ã© n
Ä± m
Ñį Ð³
ÑĤÐµ Ð»
for m
Ã® n
ãģĵ ãģ¨
k el
m eg
o st
w er
æ Ľ
ç ¨
áĢ ¾
áŀ ¢
áŀ İ
or t
Ð· Ð¾
ÙĬ ÙĦ
ÑģÑĤ Ð²Ð°
áŁ Ĥ
si m
Ð½Ð¾ Ð²
Îº Î¿
à¤ª à¤°
Ã§ Ã£o
æĪ ĳ
ë¦ ¬
I N
n Ã¡
ç µ
é ł
à´ ´
à¦ §
an s
à¶ ¢
à¶ ©
áĪ °
áĥĲáĥ ¡
áī Ģ
eg o
áĥĿáĥ Ľ
ìĭ ľ
g al
g es
æ ±
ê ·
ì ¶
Ð° Ð¹
ãģ Ī
Ñĥ Ð»
em a
×ķ× ĳ
ÐºÐ¾ Ð¼
Î¼ ÎŃ
ìĬ ¤
1 8
C on
u a
u j
å ķ
à¤ ¼
à´ ¬
àª ¡
Ùħ Ø¹
áŁ Ħ
Ø§ÙĦ Øª
Ð¶ ÐµÐ½
da g
Î» Î·
íķ ĺ
ìĤ ¬
a st
d y
d ÉĻ
e p
h r
p on
s an
v l
y i
y or
é Ĥ
Ð° Ð´
à² £
à¦ ¡
Ñģ Ð»Ðµ
in o
àµ Ĭ
à± Ī
or a
Ä± l
ãĥ «
×Ļ× ľ
ÑĢÐµ Ð´
Ò¯ Ð½
×ĳ ×¨
áĥĶáĥĳ áĥĲ
d ar
d om
f r
k as
p et
ç ¶
à¤ Ī
en g
Ñģ ÑĬ
Ø§ ÙĬ
àº ·
Ð· Ðµ
áĬ ĵ
Ð½Ð¸ Ñı
Ð´Ð° ÑĢ
pre s
Òĵ Ñĭ
è¦ ģ
ê³ ł
d Ã©
t al
Ã »
å §
å ģ
è Ĥ
à¸ ¨
à¸ ĵ
à¬ ĩ
×ķ× ¢
áĥĶáĥ ¡
Î½ Î±
áº ¿
men g
ëĭ Ī
b al
b as
b ol
f e
f o
o j
p t
s al
t in
t ek
v r
v at
å Ł
é ĺ
áĥ ĸ
à¦ ·
àª ļ
à¬ Ĩ
àº Ľ
Ð¿ Ð»Ð°
Ñĩ Ñĥ
ÑĨ Ñĭ
áĥĿáĥ ł
ìĸ ´
m it
p al
u i
Ã ¾
Å ¯
è ©
è ī
à¤ ĺ
à¥ ĥ
áŀ ¾
Ð¿ ÐµÑĢ
Ùħ Ø§ÙĨ
ak o
áĭ Ī
à¤¸ à¤®
Ïĥ Ïħ
à» ģ
ÑĦ Ð¾ÑĢ
ìĿ Ħ
ÑĤÑĮ ÑģÑı
åĲ Ī
æĸ ¹
ìķ Ħ
d zi
Ð §
Õ ¹
æ ı
æ ŀ
à° §
à² §
à¶ °
áŀ Ĵ
Ø± Ø¯
áĬ Ń
ut a
åı ¯
ãģĹ ãģŁ
çĶ ¨
b at
k Ã¤
l and
m Ã¤
p ag
v or
y o
ì Ľ
à´ ĩ
à´ İ
à´ ľ
à® Ļ
à¶ Ĥ
àª §
ãģ Ľ
Ð´ ÐµÑĢ
àº Ħ
à¨ ĸ
Ð· Ñĥ
Õ¡Õ £
ÑģÑĤ Ñĥ
un t
Î¹ Î¿
si on
Ð¿Ð¾ Ð´
im a
ÄŁ Ä±
ÐĿ Ð°
Ð²Ñĸ Ð´
ë¡ ľ
n ov
t ÉĻ
Î ļ
ç Ł
è ¶
à´ ¹
à´ Ń
à° Ń
áĢ °
ra z
Ø³ ÙĦ
×ķ× Ł
ul a
×Ķ ×ŀ
Õ« ÖĢ
áĥĿáĥ ľ
ÑĤÐ¾ ÑĢ
00 0
ìŀ ¥
d al
i ch
j er
l ed
p el
u ra
Ã ²
Å Ĩ
å ¦
å »
ç ½
ç Ĥ
è ½
ÑĤ ÑĢ
à¥ Į
re t
ÙĪ Ø¨
Ø³ ÛĮ
Îµ ÏĢ
×Ļ× ª
áĬ ¨
Å¡ t
Ò¯ Ð¹
á» ĩ
å® ¶
à¸· à¹Ī
c at
c el
d r
f el
h el
j on
m es
m il
Î ¤
Ð ¦
é ķ
ë ¥
Ð² Ñı
à¬ ·
ÑĢÐ° Ð½
Ð½Ð° Ð»
ä¸ ĭ
iz a
áĮ ł
ÐŁ Ð¾
ãģª ãģĦ
åĽ ½
A L
V er
a an
c an
i o
i ra
n es
n et
v in
ç ®
è Ī
à¤ ³
à¸ ĺ
à® İ
àª ĸ
áŀ ģ
à¬ ¥
ãĤ ı
Ñĩ Ð½Ð¾
Ä± z
ãĥ ĥ
à¸Ń à¸¢
ab il
à¤Ĺ à¤°
åĪ Ĩ
ìŀ Ĳ
p un
y ar
Å ±
Ð Ń
å £
ë ª
í Ļ
à´ Ĩ
ÑĤ ÑĢÐµ
Ñģ Ð¿Ðµ
àª £
áŀ ī
à¬ ³
àº ¸
áĪ ļ
áĥĺ áĥĲ
×Ļ× ©
Ð»Ð° ÑĢ
ma g
ìĿ ¸
ìĿ ĺ
ãģĹ ãģ¦
Æ° á»
C om
P er
R e
b re
d et
n er
n ÄĽ
p ÅĻ
t il
v ed
Ð ĸ
å ĸ
è £
ë ¬
ë Į
ë ŀ
à¸ ¶
à¦ ħ
àº Ĭ
à± Ĭ
ti r
ak an
ÃŃ a
us e
à© Ĥ
áº £
ÑģÑĤÐ² ÐµÐ½
O R
e di
f Ã¶r
h y
j Ã¤
k Ã©
m y
m un
m Ã©
n t
s or
u b
z Ã¡
Ã Ł
Õ »
æ ´
è ·
Ø§ Ø³Øª
Ð² Ñĥ
re l
or gan
Ð³ Ð»Ð°
Øª ÛĮ
Õ¡Õ ®
as a
Ø³ Ø±
Ø§ÙĦ Ø¹
Ø§ÙĦ ØŃ
ent a
×Ļ× §
Ð½Ð¸ Ð¹
Ð»Ðµ Ðº
åĪ °
æĪ Ĳ
f ol
g et
i ÅŁ
n j
t Ã©
v Ã©
w an
Î ľ
Õ Ģ
å Ĵ
è Ń
é £
à¦ Ľ
à¦ Ń
à· ģ
àª Ĩ
à¬ ¯
on d
Ã¡ g
ro z
ci al
áī ħ
ÏĦ Îµ
áĥĺáĥ ł
à¹Ģà¸ ¥
áº Ń
à¦¼ à¦¾
æĿ ¥
h ol
i h
k es
m ed
n Ã¤
t s
u ro
y m
Ö ĥ
æ ¥
è °
Ð½ Ð½Ñı
áĢ ĳ
Ñģ Ð»Ð¾
àª ħ
à¬ Ń
Ð³ Ðµ
Ð³ ÐµÐ½
ÙĨ ÛĮ
Ð± Ñĭ
×ķ× ŀ
ek t
Ø§Ø ®
ÏĢ ÏģÎ¿
Î» Î±
à¤µ à¤°
ang an
Ð½Ñĭ Ñħ
Õ¸Õ ²
çĲ Ĩ
c l
c al
d h
d em
j k
k am
t at
Ä ¼
â Ķ
æ ¨
ç ¤
ë ©
ì ²
ì Ī
í Ĭ
à¶ ĳ
à¬ ļ
à¨ ħ
à¨ Ł
à¯ Ģ
ãĤ Ī
Ø¯ ÛĮ
ci j
à« Ĥ
si g
Ñħ Ñĥ
Î½ Î·
ÑĢÐ¾ Ð´
à¸£ à¸²
ÒĽ Ñĭ
Ð±Ð° Ð¹
å® ļ
áĥĶáĥĳ áĥĺ
I S
S ch
c am
e y
k ov
s em
v it
y k
Å Ħ
Ù Ģ
æ ·
ç ©
ç Ń
ì Ĩ
à¸ ł
à° £
à· Ŀ
Ø± Ø¨
ÑģÑĤ Ðµ
ri a
Îµ Ïħ
Ð½Ð¸ Ðµ
à´ķ à´³
Ïĥ ÎµÎ¹
Õ¥ Õ¿
Ó© Ð»
ä» ¥
×¤ ×¨
æĸ °
å¿ ĥ
A T
E S
b ra
d ra
e in
h en
w ar
Ñ Ĵ
Ö ¸
Ú ĵ
ç Ħ
à¸ ©
à¸ ĭ
à² Ń
à® ī
à¦ ĸ
Ñģ Ð»Ñĥ
Ø§ Ú©
st er
Õ¡Õ ¬
un a
áĥĲáĥ ª
Ø³ ÙĬ
Ùī ÙĨ
à¹Ģà¸ Ľ
åħ ¬
à¸Ľ à¸£à¸°
Òĵ Ð°
åŃ Ĳ
èĩ ª
èĥ ½
é« ĺ
h ab
k in
p is
v Ã½
Ð ¨
æ ¶
ë ²
ì £
à¬ ¡
st en
Ð³ Ñĭ
áĪ ħ
Õ¡Õ °
ãĤ ģ
Î± Ïģ
Ñĩ ÐµÐ½
Î¿ Ïį
×ķ× Ĳ
vi d
åľ °
ãģ£ ãģŁ
c s
f u
f il
j um
k ri
r is
Æ ¡
er t
Ð² ÑĢ
à· ħ
àª ¥
à¬ §
on t
Ð· Ñĭ
Øª ØŃ
à¸² à¸ģ
Õ¸ Õ¾
eg a
ot t
áĮ ¥
Ñİ ÑĤ
Ð»ÑĮ Ð½
Î¬ Î½
Ú¯ ÛĮ
Ðļ Ð¾
à¸Ħ à¸§
Ã¥ r
ä½ ľ
pu bli
æĹ ¥
O N
c ur
d at
f an
s it
t et
y y
Ú «
æ ģ
æ į
áĥ «
à¬ ħ
à¨ £
à¨ ļ
Ð± Ð»Ð¸
ãĤ ¢
Ø¯ Ø±
Ñį Ñħ
ä¸ ª
Äį n
Äģ r
ÑĨÐ¸ Ð¸
ÑĨÐ¸ ÑĺÐ°
ÑģÐ° Ð½
íķ ľ
d ol
f re
h as
h od
l ÉĻr
n at
p Ã¤
Î Ł
Ð Ĩ
Õ ¦
Õ Ħ
ç ¬
ç ı
é ħ
ë Ŀ
à° Ĩ
en a
à¦ ¥
st ra
Ùħ ØŃ
Ñĩ Ð½
×Ļ× ĵ
áĥĶáĥ ķ
Ã³ l
ov er
àª¾ àªĤ
×ľ ×Ķ
Ã§ Ä±
ìĹ Ĳ
Ã¢ n
ëĮ Ģ
3 0
Q u
m od
u re
Õ ±
Û Ķ
æ ħ
à¸ į
en e
Ñģ Ð¾Ð±
àº Ĥ
st at
ÙĪ ÙĬ
Øª Ùī
il a
Ø§ÙĦ ÙĤ
×Ļ× Ķ
áĥĶáĥ Ľ
Ø´ Ø±
no st
ÑĦ Ðµ
ÑĬ Ð»
me di
áģ ĭ
Õ½ Õ¿
è¿ Ļ
å¥ ½
éĿ ¢
2 00
d z
d an
i de
l am
l ÉĻ
m b
p om
s v
s es
å Ĥ
æ »
æ Ĥ
é ©
ë į
áĥ ©
ÑĢ ÑĤ
ÑĢ Ñı
à² ĩ
in di
ãģ Ŀ
el a
ÙĨ Ùĩ
ch a
ed e
×Ļ× ¢
ä¸ »
á» ĳ
åı ĳ
Ûķ Øª
ìĦ ľ
æĦ ı
K om
T h
b ir
c ap
j t
l ad
s at
s et
s ek
t ele
â ĺ
ç Ŀ
í ĺ
à¤ ¢
à¶ ī
àª Ń
in st
áŀ Ĺ
re sp
Ã¡ z
ÙĬ Ùħ
ol a
ci o
Îµ Î½
ÃŃ n
ãĥ ª
×Ļ× ĳ
áĥĶáĥ Ĺ
ÙĤ Ùī
Ð³Ð° Ð½
à®ª à®Ł
ðŁ ĺ
à¸« à¸Ļ
åĬ Ľ
ÏĦÎ± Î¹
æĥ ħ
M a
c ent
d Ã¼
d ru
i er
k un
p Ã«r
Ù ½
æ ĵ
ç ĸ
è º
é ¦
Ð° ÑĤ
à¸ Ł
áŀ ł
Ø± Ùī
ra m
Ã¡ m
Õ¡Õ ·
Õ¡Õ º
ãĤ ¯
áĥĲáĥ ®
Ø¨ ÛĮ
Ø§Ø ¶
ä¸ º
à¹Ģ à¸ģ
pro f
sz er
est i
æľ ¬
Ä« t
Õ¥Õ ²
Õ¥Õ ½
áį į
Õµ Õ¡Õ¶
ÄĹ s
ìł ķ
æī ĭ
à«ģ àªĤ
A M
M ar
_ _
c ÉĻ
d ob
g j
k h
l is
n ar
p p
p ul
p ut
t Ã¶
Ã ģ
Ã ĸ
Î Ļ
Ú Ī
å Ŀ
ç ¥
ç Ī
è ĭ
ì °
Ð° Ð²
ÑĤ Ñı
en de
à¦ £
an o
Ðº Ñĭ
àµ ¼
àº Ī
st ar
st Ã¤
à¯ Ĥ
áĪ ³
ÑģÑĤ ÑĮ
áŁ ĩ
ed er
áĭ ³
Ïģ Î¬
Ùĩ Ùħ
ik an
à© į
vi r
×Ĳ ×¨
Äģ k
Ø® ÙĪ
ÄŁ i
Ñī Ð°
lar Ä±
Ä±n da
à¤ı à¤ķ
æ³ ķ
ëı Ħ
ÙĢ ÙĢ
b ur
f ar
i v
l ing
r in
u st
Ä Ĳ
å ¢
ç ¢
en s
à¦ «
Ðº Ð»Ð°
àº ®
Øª ÙĤ
Øª Ø¹
Ã© l
ro s
Ø§ÙĦ Ø¨
×ķ× §
ãĥ ©
Ã¶ z
Å¡ e
um a
ov a
à±ģ à°Ĥ
ist a
áº ¥
áĥĽ áĥĿáĥ
ÎŃ Ïģ
æľ Ģ
åŃ ¦
à¤ī à¤¨
éĥ ¨
1 0
K on
M o
b le
h or
i x
j ar
k il
n as
v ÃŃ
Å ł
â ľ
æ ¡
æ ¼
æ Ł
áĥ ¦
Ð¾ Ð»
ÑĤ ÑĢÐ¾
Ð² ÐµÐ½
in en
st ri
Øª Ùħ
ci e
áĥĲáĥ ¢
ÑĨ ÐµÐ½
Ø§ÙĦ Ø¬
Ð¶ Ñĭ
à© Ī
ÐºÐ° Ð·Ð°
ov an
Ã§ a
Ð³Ð¾ Ð²Ð¾
à²¦ à²°
à®µ à®°
por t
à¦¼ à§ĩ
ì£ ¼
f y
f ac
n is
p le
Å ŀ
È Ļ
Û ĭ
â ķ
æ ®
ç ¼
ç ł
ë ¹
Ð½ ÐµÐ½
ÑĤ Ñį
áĢ ĺ
à² Ĩ
Ñģ Ð²Ð¾
Ð´ ÑĢÑĥ
àº ½
ÙĨ Ø§
Õ¡Õ ²
ol i
ri g
Î¹ Î½
Î¹ Ïĥ
áĥĶáĥ ĵ
áĥĺáĥ ĵ
Ø§Ø µ
à¥ĩ à¤Ĥ
ÐºÐ° Ð½
×ŀ ×©
Ú© Ø±
Ú© ÛĮ
ÅĤ o
åħ ¥
åħ ¨
for ma
ec t
Ðļ Ð°
áį Ī
min ist
ìł ľ
å¾ Ĺ
Ð»Ñĭ ÒĽ
å¸ Ĥ
æĹ ¶
Ïİ Î½
èĢ ħ
ëĤ ĺ
áĥ£áĥļ áĥĺ
Å£ i
ë³ ´
à¸Ħà¸§ à¸²à¸¡
a w
d re
f ica
g l
i en
j al
n am
n Ã½
p ak
v Ã¡
Î Ķ
Õ Ĩ
å Ħ
ç Ĺ
è Ĭ
ê ±
ì ¹
à° ³
ÑĢ Ñį
à¦ ī
Ñģ Ð»Ð°
Ð² Ð½Ð¾
à· Ĥ
ãģ ¿
à¬ Ľ
ar ti
at an
it et
ÙĪ Ø§ÙĦ
et e
ol o
Ø¯ Ø§Ø±
ÉĻ s
Ð¶ Ð´Ð°
à¤¸ à¤ķ
sk i
à¹Ģà¸ Ĺ
Ø¦ Ùī
áį ¡
å° ±
ãĥ¼ ãĥ
åº ¦
à¹ĥ à¸Ļ
ëĭĪ ëĭ¤
E L
L e
R A
S h
T I
n em
p ad
u e
u je
y an
è Ĳ
é Ķ
í ĥ
Ðµ Ð²
à¶ ł
àª «
in Äģ
ãģ ¡
áŀ ½
st ru
ÙĦ ÙĬ
ÙĨ ÙĪ
it t
Õ¡Õ Ń
ti m
li m
Îµ Î»
om a
×ķ× ¡
áī ¸
à¤¤ à¤°
Ã³ r
à¤¸ à¤°
Å¡ ÃŃ
Äį en
eg y
Ñĺ Ñĥ
áĥĿáĥ ļ
à¹Ģà¸ «
à¹Ģà¸ Ķ
à¤¹ à¤°
ðŁ Ĵ
à¸Ħ à¸£
Ðľ Ð°
å° ı
Õ¸ÖĤÕ©Õµ Õ¡Õ¶
ì¶ ľ
T A
c ri
g g
j an
j ek
n ek
n os
n ya
o o
p ie
s us
× ļ
Ú º
â Ĩ
å ĥ
ç ²
é »
à´ ī
Ð¾ Ð²Ð°
à° ĩ
à° İ
Ø§ Ûģ
st y
al t
on s
re z
Ð³ Ñį
it at
is a
Øª Ùĩ
et a
ra d
il le
Õ¡Õ ¤
ad h
am ente
ÑĢÐ° Ñģ
ÑĢÐ° Ð±Ð¾
di a
×ķ× ¤
ÑĪ ÐµÐ½
ik i
ÑĤÐµ Ð»ÑĮ
Ó© Ð³
ÑĤÐ¾ Ð²
Ð²Ðµ ÑĤ
Ûķ Ø±
áģ Ģ
ãģ¾ ãģĹãģŁ
àºģ àº²àºĻ
ÑħÐ¾ Ð´
ãģ§ ãģĻ
àºŃ àºĩ
æĢ Ŀ
ìļ Ķ
ÈĽ i
ê· ¸
ëĿ ¼
d in
f l
h am
k re
n en
r Ã¡
u ri
Ã ľ
æ º
ç ·
è «
é ľ
Ðµ Ð¼
ÑĢ ÐµÐ½
ÑĤ Ò¯
áĢ Ĵ
à® Ĩ
àª ³
ãģ ¤
ãģ ©
Ðº ÑĢÐ¸
Ðº Ó©
à¬ ĸ
à¨ §
at t
it h
Ùħ Ø³
Ùħ Ø´
et i
Õ¡Õ ¦
as h
em e
Ø³ Ùī
×ķ× Ŀ
ul u
Ã¼ k
Ð¿Ð¾ Ð»
Å¡ a
ÑĤÐµ ÑĢÐ¸
à» Ĥ
Ú© Ø§Ø±
ic o
áĥĿáĥ ķ
sk e
à¸± à¹ī
per son
à¨¾ à¨Ĥ
å¤ ©
å¤ ĸ
ðŁ ĳ
åĲ Į
åĮ ĸ
æĻ Ĥ
åī į
b ud
c en
c ti
j Äħ
l es
o z
s Ã©g
u f
u x
Ã ¬
Å Ī
Ô µ
Ø ¤
Ù ¼
Ú »
å Ļ
æ Ĳ
æ Ĵ
ç ¦
ç ¯
è ±
é Ĵ
à¤ Ŀ
áĥ ¯
à¦ ı
an ti
àª ı
ãģ Ķ
áŀ Ĳ
re al
ÙĨ ÙĬ
Ð± ÑĢÐ°
Î¿ Î½
Îµ Îº
Ð½Ð° Ð½
×Ļ× ĺ
Ð½Ð¸ Ñħ
ik o
ÐºÐ¾ Ð½Ð¾
×Ķ ×Ĳ
ka p
à¸Ń à¸ģ
ne j
ÑĦ Ñĸ
ÑģÑĤÐ° Ð½
à¤ľ à¤¨
åĪ ©
par ti
Ð¿ÑĢÐ° Ð²
æ° ĳ
å· ¥
Ð²Ð°Ð½ Ð½Ñı
1 2
b b
b est
d uk
g un
k ra
n um
s il
u ar
v ent
y er
Ï Ī
Ú ı
Ú Ń
è »
è ¼
ë ħ
ÑĤ ÑĢÐ¸
à² İ
àµ Ī
àº ¹
à¨ ¡
it er
Ð· Ñĸ
Ùħ Ø§
áĪ ª
áĪ Ĩ
ro m
×ķ× ©
×ķ× Ĺ
áĭ ĭ
ek o
Ð½Ð¸ ÐºÐ°
áĥĺáĥ Ļ
Ø§Ø ·
im i
Õ¥ ÖĤ
á» Ļ
Ã« n
sp e
Õ´ Õ¡Õ¶
ÎŃ ÏĤ
Ð±Ð¾ Ð»
áĥĵ áĥĲ
à¹Ħ à¸Ķ
éĩ į
ëĵ ¤
M A
S t
U N
e a
e w
l in
t ul
u y
v od
Û Ĩ
é Į
ë ¯
ë Ł
í Ķ
í ĸ
Ð¾ Ð»Ð¾
à° ī
áĢ Ŀ
à¦ Ĥ
à¶ Ĩ
Ñĥ ÑĢ
Ø± Ùģ
Ð· Ð²Ð°
ra k
Î¿ Ïģ
Ø³ Ùħ
Ø¨ ÙĬ
ÑĪ Ñĥ
Ïģ ÏĮ
po z
Ø§ÙĨ ÛĮ
Ó© Ó©
ot o
id o
áĮ ĭ
à¹Ģà¸ ª
à¥ĭ à¤Ĥ
Ø² ÛĮ
Ù¾ ÛĮ
and o
ä» ĸ
Òĵ Ð°Ð½
éģ ĵ
æĦ Ł
çī ©
çľ ĭ
ìĥ ģ
L i
T er
b ÉĻ
h Ã¤
o h
o re
s um
s ab
u Å¾
w or
Î Ŀ
Ò ļ
å Ķ
è Ħ
é ¤
é ĵ
ÑĤ Ð²Ð¾
Ñģ Ð½Ð¾
à¥ ī
Ð¼ Ñı
ÙĨ Ø¬
à³ Ī
di en
à¸² à¸§
ÑĪ Ñĸ
áĥĶáĥ ¥
po t
áĥĺáĥ Ľ
ÐºÐ° ÑĢ
à°µ à°°
à²Ĺ à²³
Î¹Îº Î®
ìł Ħ
Ñļ Ð°
ä¹ Ł
ind ÉĻ
à¸¹ à¹ī
çĽ ¸
.. ..
áĢ® áĢ¸
íĬ ¸
E r
P ri
S u
b ro
d Ä±
g re
j em
j Äģ
k ir
l at
l ov
m ul
m us
m ente
o Äį
s is
s ÉĻ
s ing
t is
v Äĵ
Ä Ŀ
å ¨
ç ³
ê ¹
í ı
Ð½ ÑĮ
à° «
Ð´ ÑĢ
áŀ ¹
à¬ Ļ
on al
es z
à¤° à¤¤
am o
ci d
ÑĨ Ñı
Ð¹ Ñĭ
Î¹ ÏĥÏĦ
po st
áĥĺáĥ ķ
ÑĢÐ¾ Ð·
×¨ ×Ĳ
ÏĢ ÎµÏģ
ÅŁ Ä±
à¸Ń à¸£
à¸Ń à¸Ķ
Ø´ ÙĨ
×ŀ ×Ĳ
Ð¼Ð° Ð½
zi a
áĥĿáĥ ĵ
id h
ve z
no sti
Ûķ ÙĨ
à¸« à¸¥
à¬ķ à¬°
ãģĻ ãĤĭ
à¹Ħ à¸¡
à¹ĥ à¸«
ÐĹ Ð°
ë¶ Ģ
ç¾ İ
E x
P h
a a
c lu
d ek
i j
l Ã©
l og
m Ã¶
o ch
r Ã³
s itu
z el
Ã ĩ
Æ ı
Ð «
Ú ģ
Ú Ļ
â ĸ
â Ŀ
æ §
ç ±
ç ģ
í Į
Ð¾ Ðº
en er
Ð» ÐµÑĢ
áŀ ķ
à¨ ĩ
Ð¼ ÐµÑĢ
on der
ÙĦ Ø§
el le
Øª Ø¨
áĪ ģ
Ø¯ ÙĪ
×ķ ×Ļ
áŁ ī
Ø§ÙĦ Ø¥
×Ļ× ¡
áĬ «
áĥĺáĥ ¢
à¸£ à¸£
um i
à¹Ģ à¸£
×ĳ ×¢
à¸± à¹Ī
qu i
×ł ×Ļ
Õ¥Õ ¯
cz y
àªķ àª°
ä½ ĵ
Ð¿Ðµ ÑĢÐµ
Å¼ y
è¨ Ģ
ë§ Ī
ÑģÐ»Ðµ Ð´
çŁ ¥
D I
M in
S e
S o
b in
i f
k ed
k os
m or
n ed
p ir
s m
s ar
s Ä±
s om
u li
v as
v Ãµ
x i
y at
z ak
Õ ª
â ĩ
è į
è ĳ
é ª
é º
ê ´
à´ ¡
à¶ ĭ
at or
re c
re k
ÑģÑĤ Ñĸ
ÑģÑĤ Ñĭ
ãĤ ·
ri e
Î¹ Î¬
×Ļ× Ľ
ÏĦ ÎµÏģ
ut e
la v
ä¸ ļ
ÑĤÐ° Ð½
Ð´Ð° Ð½
Ú© Ú¾
ab a
Å¾ e
Å¾ en
à¸¡ à¸²
à·Ģ à¶»
à¹Ģà¸ ŀ
og ra
áº ¯
à¸µ à¹ī
pre d
est a
ãģĦ ãĤĭ
Î´ Î¹Î±
Ã½ ch
Ð¾ÑĢ Ð³Ð°
å¾ Ī
æī Ģ
Ò¯Ò¯ Ð»
å½ ĵ
ä¿ ¡
èµ ·
Õ¨ Õ¶
åĵ ģ
áĬ¥ áĬķ
ìľ ¼
- -
D i
U ni
b ek
f ri
g t
i ro
k ut
m ad
m ek
p il
s ul
u h
u ch
y ap
z ar
Ã ¹
Ó ¨
Õ į
æ ©
æ ¿
æ ĩ
ç ĥ
í ļ
Ð° Ð»ÑĮ
à¥ ¦
à· ĸ
in ta
Ñĥ Ð´
it y
à§ ¦
ol e
Î± Ïĥ
Ø§ÙĦ Ø³
Ø§ÙĦ Ø´
ak i
×ķ× Ĵ
Õ¸ Õ¶
×ŀ ×¢
×ľ ×Ĳ
Õ¸ÖĤ Õµ
pro du
ba ÅŁ
Î¬ Î»
æľ Ł
sta v
Ðľ Ð¸
ä½ ł
à¤ħ à¤¸
æĺ İ
ÅĽ Äĩ
à´Ļ à´³
æĢ §
áĤ Ķ
éĥ ½
áĢ² áĢ·
1 1
A d
D e
L I
R E
T E
V i
a in
a ce
b us
b eg
c um
d ur
f en
h ÉĻ
h ed
h Ã¶
m Ã¡
n or
n ad
n ak
o ff
r t
u al
u di
v ÄĽ
y h
z er
å ĺ
ç ĭ
è Ļ
ì Ļ
à° ¥
an e
an y
an ta
Ðº ÑĤ
Ðº Ð²Ð°
à¨ «
Ø± Ø³
ÙĨ Ú¯
Ùħ Ø¯
es e
à¤° à¤®
Ø¨ Ø§Ø±
×ķ× Ľ
si d
ãĥ Ĺ
Ïģ Î³
ek s
Ïĥ Îµ
im e
ka z
à» ĥ
á» ģ
Ñİ ÑĤÑĮ
à¶ļ à¶»
Ð´Ð¾ Ð»
Ð´Ð¾ Ð±
sz y
ãģĦ ãģŁ
ãģĦ ãģ¾ãģĻ
àº² àºį
æľ ĥ
à´µ à´°
Ð¿Ð° ÑĢ
Î´ Î·
Ð¼Ðµ ÑĤ
áĥĶáĥĳ áĥĺáĥ¡
ä½ į
ÑĤÑĥ ÑĢ
à¤ħ à¤¨
Î¿Ïħ Î½
íķ ´
ÑħÐ¾ Ð´Ð¸
åĬ ł
ëĵ ľ
éĸ ĵ
êµ ¬
åł ´
ìĽ Ĳ
ãĤĪ ãģĨ
áī¸ áĭį
L A
P ar
R O
b ul
g Ã¶r
p in
s lu
t as
t ut
u v
z em
Ð ¯
Õ ²
Ú ĺ
ç ĩ
è ħ
é Ł
ì ¡
an te
Ð» ÑĤ
ãģ °
Ð´ ÑĢÐ°
Ð´ Ð½Ð¾
à¬ ī
à¬ ı
el t
ro d
Ø§ÙĦ Ø¯
×ķ× ¦
ed a
ãĥ ¬
×Ļ× ŀ
Ã¼ m
áĬ Ľ
áĥĺáĥ ª
Å¡ k
ÑĤÐ° Ð»
à» Ħ
à²¿ à²Ĥ
à¶± à¶º
à¸Ń à¸ļ
Î¼ ÏĮ
ab le
ig a
à¸¢ à¸§
pr zy
Õ´ Õ«
ÅĤ a
ðŁ į
å® ī
Ð±Ð¾ ÑĢ
à¸ķ à¸£
áĥĲáĥł áĥĹ
åĬ ¨
Ä±n Ä±
àºŃ àºĻ
ÑĨÑĸ ÑĹ
åĽ ŀ
ÑģÑĮ Ðº
áĥ¨ áĥĺ
Õ¸ÖĢ Õ®
ÙĪÚ º
B o
L E
P re
P ol
T e
c il
c ÃŃ
e ff
g am
l Ã¡
n al
y on
Ö ħ
Ú ĳ
å ©
æ ¢
æ ļ
ç ¸
ç ¹
è Į
ë Ķ
í Ĩ
à´ ¥
Ð¾ Ð²
Ð¾ ÑģÑĤÐ°
áĢ ³
er o
àª ·
Ð´ Ñį
Ñĥ Ð»Ð°
à¨ ī
Ùħ Øª
áĪ ī
Ñı ÑĤ
Ñı Ð²
ãĤ ¿
ri o
Î± Î»
ti c
áĥĲáĥ ¨
áŁ Ĳ
si st
Ïģ Î¯
po si
ÏĦ Î¬
Ùĩ Ø±
ta g
im o
à¤® à¤¹
ir t
Ò¯ Ð»
ic e
Õ¸ÖĤ ÖĢ
Ø¬ Ùĩ
Ñĺ Ð¸
×ĳ ×Ĳ
id en
à¹Ģà¸ Ħ
Ùĥ Ùī
à¸§ à¸¢
Ð´Ð¸ Ð½
ati v
tu ra
ÒĽ Ò±
áĢ± áĢ¸
å® ŀ
ä» £
Ðł Ðµ
×Ĵ ×¢
ìŀ Ī
ÐµÑĤ ÑģÑı
Ûĩ Ø±
Ð¼ÐµÐ½ ÑĤ
è¦ ĭ
çĽ ®
mas Ä±
çī ¹
åĢ ĭ
ä¾ Ĩ
ãģĤ ãĤĬ
fin an
àºĽ àº°
! !
2 5
B e
T r
c it
c tion
d ok
d Ä±r
f ik
g ro
i ci
l Ã¶
t es
u u
u w
v es
z in
Ä Į
Ò ®
â Ĺ
â Ļ
ë Ħ
Ð¾ Ð¿
Ð¾ Ð½Ð°
Ðµ Ð»
à² ¥
Ø§ ÙĪ
à¶ ³
à¶ ĩ
Ð² ÑĬ
Ð² ÑĬÑĢ
ÙĦ ÙĪ
ÙĦ Ùĩ
Ùħ ÙĤ
áĪ ®
ÑģÑĤ ÑĢÐ¾
ÑģÑĤ Ð²Ð¸
am an
Ñĩ Ð½Ð°
ti k
áĥĲáĥ ĸ
áĥĲáĥ Ĺ
Ð¶ Ð½Ð¾
ãĥ ķ
áĭ Ĭ
de st
la g
à¤® à¤¨
á» ĭ
Ó© ÑĤ
áº §
×ĵ ×¨
Ð¢ Ð°
ari o
ÑĩÐµ ÑģÐºÐ¸
åį ģ
à¸Ī à¸°
éĢ ļ
ë§ Į
ä¿ Ŀ
æĥ ³
å± ķ
áĥĺáĥļ áĥĺ
æ¬ ¡
1 3
R I
S a
S er
a ÅŁ
j ak
l ÃŃ
n ji
p s
p em
q a
r z
s ak
v ad
x e
Ô ¿
á ¼
ç ¡
ç ª
è İ
è ı
í İ
à´ «
en ia
Ñģ Ð½Ð¸
à¥ ¨
in f
in te
Ñĥ Ð½
Ñĸ Ð²
ÙĨ Ùħ
Õ¡ ÖĦ
Ð· Ð´Ð°
Ñı Ð½
ÛĮ Ú©
ÙĬ ÙĪ
un da
Ø¯ Ø§
am ent
Î± ÏĢ
di o
Î¿ Î»
Ø§ÙĦ ÙĨ
Ø§ÙĦ Ùĥ
Ð¶ Ñĥ
×Ļ× Ĳ
Ïģ Ïī
ul e
Ð½Ð¾ Ð²Ð¸
ut il
Ð¿Ð¾ Ð»Ð¸
à´ķ à´°
à¸Ļ à¸Ĺ
ÐºÐ¾ Ð»
×Ķ ×ª
Äį e
ap a
Äģ d
pro bl
ve st
à¶Ń à¶»
à¶º à¶±
×© ×¨
Î¬ Ïģ
ìĿ Ģ
×ł ×Ķ
pr z
pr Ã¡
Ð²Ðµ Ð´
åı ĸ
Ú¯ Ø±
ä» ¬
áį ¢
åĲ į
à¦ª à¦°
Õ° Õ¡Õ¶
æĸ ĩ
Î¸ Î·
à¹Ħ à¸Ľ
ç» ı
å¼ Ģ
èĢ ĥ
áĥŀ áĥł
olog i
ç¨ ĭ
ìĪ ĺ
C I
D A
E T
N a
R es
U S
c r
d it
g Ã¶
k em
l ek
m p
p y
p es
s j
s ÃŃ
u o
y d
Ã ī
Ä £
Ð Ī
â ŀ
å ²
å ŀ
ç ħ
è ¢
è ¥
è ¬
í ģ
í ħ
à¤ ŀ
Ð¾ Ð³Ð¾
Ð¸ Ñģ
er s
in de
Ðº Ó©ÑĢ
on o
on y
re m
it ar
Ùħ Ø¬
es s
Øª Øµ
as Ä±
ch en
ÑģÑĤ ÑĢÑĥ
à§ §
Ø¯ Ùĩ
ci ja
li e
Ø§ÙĦ Ùģ
×Ļ× Ł
áĥĶáĥ ¢
ÏĦ Î¹
Ã¼ t
ut o
Ð½Ð¸ Ð¼Ð°
Å¡ an
ÐºÐ¾ Ð²
ÐºÐ¾ ÑĢÐ¸
Ð»Ð° Ð³Ð°
ÑĤÐµ Ñħ
à°¾ à°Ĥ
á» ©
á» į
Ïħ ÏĢ
à¹Ģà¸ Ĭ
à´ª à´°
ÑĨÐ¸ Ð¾Ð½
àº² àºĩ
áĥ£ áĥľ
à¦ķ à¦°
su b
à²µ à²°
áĥ¢ áĥł
áĥĴ áĥĲáĥľ
ãģ§ ãģį
ä¹ ĭ
å¹ ³
å¸ ¸
ÑģÑĮ ÐºÐ¾
áĢ· áĢº
ê³ µ
19 9
éĩ ĳ
ìĦ ±
ç« ĭ
åķ Ĩ
ë¥ ¼
ÏĥÎµÎ¹ ÏĤ
èº «
ì¶ľ ìŀ¥
1 5
B er
B ar
F ran
K a
P o
b ed
f al
i da
k li
k la
k um
o per
p it
p lo
p end
r Ã¤
r end
t un
t Ä±
v Ã¦
w n
Õ ³
Ú ļ
Û °
ç ¿
ç Ĭ
ì ¤
Ð¾ Ð½Ð°Ð»
en ie
Ñģ ÐµÐ½
à¥ §
àª Ī
in k
Ðº Ð»Ñİ
àµ ½
al o
el ek
el se
ÙĪ ÙĤ
Øª ÙĦ
ra v
il d
as s
ch o
ÙĬ Ø¹
un der
Ã© k
ad or
à¤° à¤¹
ri k
Ã¤ l
ÑĢÐ° ÑĤ
Ø³ Ø¨
Îµ Ïį
ÑĨ Ñĥ
Ð²Ð° ÑĤ
áĥĶáĥ Ĵ
áĭ ĺ
áĭ Ŀ
ur s
à¤¿ à¤Ĥ
us h
ÑĢÐ¾ Ð²
ÑĢÐµ ÑĤ
Îº Îµ
à¹Ģ à¸¡
×ŀ ×¨
à¸ģ à¸¥
Ð¼Ð° ÑĤ
á» ĥ
Ã« s
áĮ £
ìĿ ¼
ag a
àº² àºĶ
Ð¡ Ð°
vo j
Î´ Î¿
tr an
Ã° i
ãģ¾ ãģĽ
ä½ ¿
ãģ® ãģ§
Õ¾ Õ¡Õ®
éĢ Ļ
å¯ ¹
eli jk
áĤ ı
à¸Ĥ à¸Ńà¸ĩ
åĨ ħ
ÉĻl ÉĻ
èī ²
ç¤ ¾
1 7
C H
H er
O r
U n
c Äĥ
f Ã¼
f Ã¸
g em
g od
h ad
j Ã¤r
k ÉĻ
l em
m ik
m ie
q ar
t it
v Ã¡l
æ £
ç į
í Ħ
İ áī½
Ð° Ñĥ
à² ĸ
en cia
à¦ ĵ
Ñģ ÐµÑĢ
er en
Ø§ Ù¾
Ð² ÑĢÐµ
Ðº ÑĤÐ¸
à¨ Ń
el d
Ð³ Ò¯Ð¹
ÙĨ Øª
it en
Ùħ Ùĩ
Ùħ Ûķ
Øª ÙĨ
áĪ ©
ãĤ į
un e
à§ °
Ø¯ Ùħ
Ø¯ Ùī
Ñĩ ÐºÐ¸
di m
áĥĲáĥ ¥
om en
Ð½Ð° ÑĤÐ°
áī ĥ
si k
ÃŃ v
ÏĦ Ïģ
Ã¼ z
Ð½Ð¸ ÑĤÐµ
áĥĺáĥ Ŀ
Õ¥ Öģ
Îº ÏĮ
à¸ģ à¸£
Ø§ÙĨ Ùĩ
Ð²Ð¾ Ð´
Ð²Ð¾ Ð´Ð¸
á» ¥
ne ces
áĥĿáĥ ¡
à·Ģ à·ĥ
id ad
à¹Ģà¸ Ĥ
ig h
ce p
áŀ¶ áŁĨ
uk an
Ø® Øµ
est e
pr ÃŃ
ÅĤ y
åı Ĺ
vo or
Õ¡ÖĢ Õ¿
Øµ ÙĦ
mi ÅŁ
Ðł Ð°
Ðĳ Ð°
Î¿Ïħ ÏĤ
iti on
å¥ ³
àºª àº°
áĥĶáĥļ áĥĺ
Æ° Æ¡
Õ¡Õ½ Õ¿
Õ¶Õ¥ÖĢ Õ«
à³Ĭ à²Ĥ
ÑĦÐ¾ÑĢ Ð¼Ð°
6 0
E n
J o
K ar
O S
P en
b h
b os
f at
h and
j n
j as
k j
l um
m og
m ÄĽ
s Ã©
s po
s Ã¶
s ob
v end
w en
w ie
Ä ·
Å Ń
Ð Ļ
Ñ ľ
æ ĳ
è Ĺ
é ¥
ë Ĳ
ï ģ
Ð° Ð»Ð¸
Ñģ Ð¼Ð¾
an de
an da
àª ĵ
ar be
àµ ĥ
ÙĦ Ø§Ø±
Ð³ ÑĢÐ¾
Ð³ ÑįÑį
ÙĨ Ùī
à¤¾ à¤ģ
Ð± Ò¯
et h
Ã¡ d
ãĤ °
ãĤ ¸
ri st
ÑĢÐ° Ð»
Ø¨ Ùĩ
si a
×Ļ× ¤
ÏĦ ÏĮ
Ð½Ð¾ Ð³Ð¾
te ch
la ÅŁ
Ïĥ Î±
os e
ÑĤÐ° Ð¹
Ð»Ð° Ð½
×ŀ ×ª
×ŀ ×¡
Å¾ a
Ó© Ð·
zi o
×ľ ×¢
áĥĿáĥ Ĵ
Ð´Ðµ Ð»
à¤¬ à¤°
à¤¬ à¤¨
à·ĥ à¶¸
ä» Ĭ
Ð½Ñĭ Ðµ
ÐŁ ÑĢÐ¾
×Ĺ ×¨
Õ¯ Õ¡ÖĢ
so ci
Î¹Îº ÏĮ
ÑĢÑĭ Ð½
åľ ĭ
å° ĳ
áĥĴ áĥĲáĥĽ
Î¸ Îµ
Ð¿Ðµ ÑĢÐ°
è¿ ĩ
ìĹ ¬
Ð³Ð¸ Ð¹Ð½
ìļ ©
åĭ ķ
ë© ´
ìĨ Į
A S
R eg
c ji
d am
f on
f ir
h om
h ist
i Å¡
j ÄĻ
l ang
q i
x a
y Ä±
z at
Î Ľ
Ù ¿
â Ī
æ ¦
é Ĩ
ì ħ
à® ¸
en o
Ñģ Ð¿Ð°
ãģ ĺ
ar an
Ñĥ ÑĩÐ°
Ø± Ùĩ
it el
it Ãł
Ùħ Ùī
Ð± ÐµÑĢ
as e
ÙĬ Ø§
áĥĺ áĥĲáĥľ
ro v
Ø³ ÙĪ
áŁ ł
Ø§ÙĦ Ø±
Ø§ÙĦ Øµ
Ð½Ð° ÑĢÐ¾Ð´
ÏĦ Î®
Õ¸ Õ½
Ñį Ð´
Ñį Ð¼
Ð¿Ð¾ ÑĤÑĢÐµ
ÑĢÐ¾ Ð½
de c
te h
à´¨ à´¤
ÙĤ ÛĮ
Äį a
à¤¯ à¤ķ
Î¼ Î¬
à¤ª à¤¨
Î» ÎŃ
Ú© ÙĨ
Ø§ÙĨ Ø¯
Ð²Ð¾ Ð·
à·Ģ à¶Ń
ver s
ÑĤÐ¾ ÑĢÐ¸
ha y
à¹Ģà¸ §
à¹Ģà¸ ķ
äº İ
Ð³Ð° ÑĢ
Ð»Ðµ ÑĤ
à¸´ à¹Ī
æľ º
ac a
áĢ¯ áĢ¶
Ä« ba
op p
áĥķ áĥĺáĥ¡
×ĺ ×¨
Ø· ÙĦ
à¦¸ à¦®
ÚĨ Ùī
à¬ª à¬°
Ã¨ re
è¯ ´
ìĬ µ
kÃ¶ z
Ð´Ð· Ðµ
aut om
æ¯ Ķ
çİ °
æı Ĳ
æŀ ľ
à´İ à´¨
ÑģÑĤÑĥ Ð¿
æ¥ Ń
ãģ¾ãģĽ ãĤĵ
1 6
2 2
A b
C o
G i
G u
V al
h on
i Äį
n ot
r al
s ent
s Ã¼
t ing
v z
y ak
z am
Å º
Õ ¼
Õ Ī
Ö ¼
Ú ī
á ¹
æ ½
é Ĭ
à¤ Ļ
Ð¾ ÑĢÑĥ
ÑĤ Ð²Ð°
áĢ Ĥ
áĢ Ł
Ñģ Ð²Ðµ
er ing
àª ĩ
àª Ľ
àµ ¾
àº ¼
àº ĸ
it ate
Ùħ Ø§Ø±
es a
il o
Õ¡Õ ¢
ÛĮ Úº
ol u
×Ļ ×Ļ
à¤° à¤ķ
di k
áĥĲáĥ ¦
áĥĲáĥ Ļ
Îµ Î¾
ÑĨ ÑĨÐ°
ÑĪ Ð¾
ÑĪ ÑĤÐ°
ÑĪ ÑĤÐ¸
Ð²Ð° Ð»
Ð²Ð° ÑĤÑĮ
ãĥ ¡
ãĥ Ń
Ð½Ð¾ ÑģÑĤÐ¸
Ã³ g
la h
Ïĥ Ïĩ
×Ķ ×©
×Ķ ×Ĺ
Ð´Ð° ÑĤ
ÅŁ ÉĻ
à¸Ń à¸²
à¸Ń à¸¡
Î» Î¹
Ø´ Øª
ic k
äº §
à¸¢ à¸Ļ
Ð»Ð¾ Ð³
à¸§ à¸Ļ
Ð´Ðµ Ð¹
pr in
pr Ã©
tu al
ðŁ Į
Õ¡ÖĢ Õ¤
à¸ļ à¸£
×§ ×¨
Ð¼Ð¸ Ð½Ð¸
Ðľ Ð¾
Äĵ t
åĲ Ħ
Ïĩ Ïģ
Ðł ÐĲ
ÑĤÑĭ Ð½
Øº Ø§ÙĨ
è¿ Ľ
ãģ« ãģª
wi Äħ
Ñļ Ð¸
ÑģÑĤÐ¾ Ñı
Î±Î½ Î±
æķ °
è§ £
ÑĻ Ð°
reg ist
éĽ »
Î»Î¿ Î³
ìĺ ¤
Ð¿Ñĸ Ð´
åŁ º
ÏĥÏħ Î½
ç¬ ¬
prof es
æ© Ł
1 4
A s
B i
F or
K A
N or
O M
S am
T i
V I
a us
a ff
b un
b ak
b ut
b iz
c in
e e
f am
f ot
h in
h it
j at
j es
j Ãº
m ir
o i
p us
s Ã¸
t Ã¡
t om
u ti
y en
y et
z na
Ã Ħ
Î ĵ
Ø ¡
Û ±
å ¡
å Ĺ
ç Ĩ
ç Į
ç ĳ
è ¸
è Ĩ
è ľ
í Ĺ
à¤ ĥ
à´ Ĵ
ÑĤ ÑĢÑĥ
à® ľ
Ñģ Ð»Ð¸
an ia
à¶ ·
in in
Ðº ÑĢÑĭ
à¬ «
à¬ ł
st ell
à¨ Ī
ÙĦ ÙĦ
Ð³ Ð»Ñı
ÙĪ Ø¬
es p
Øª Ø§
ÙĬ ÙĤ
à§ ¨
à§ ĥ
ri j
ed d
Ð²Ð° Ð½Ðµ
áĭ ²
po sl
Ã¶ s
ur an
ek i
Ã³ d
áĥĺáĥ ¨
áĥĺáĥ ĸ
ik e
ÑĢÐ¾ Ð±
Å¡ en
ÑĤÐµ ÑĤ
vi a
à¶± à·Ģ
Î¼ ÏĢ
à¤ª à¤¤
Ø´ ÛĮ
×ŀ ×Ĺ
×ŀ ×¦
Õ« Õ¿
á» ĵ
ap ro
×ľ ×Ļ
Ø¬ ÙĨ
×¢ ×ł
Ùĥ Ø±
à®ª à®¤
à²¦ à²²
ãģĦ ãģ¦
Ð¿Ð° Ð´
ðŁ İ
ðŁ ĵ
Õ¡ÖĢ Õ¯
åĪ ¶
ÎµÎ¹ Î±
wi ed
ìł ģ
ÅĻ ÃŃ
Î¼Î± ÏĦÎ±
à¶ħ à¶±
æ° Ĺ
æķ Ļ
æŃ £
ÑģÑĤÐ² Ñĥ
æĶ ¾
Ð¿Ñĥ Ð±Ð»Ð¸
Õ¡Õ¾ Õ¸ÖĢ
ÐºÑĢÐ° ÑĹ
åİ »
Ãªn cia
å» º
íļ Į
5 0
C ar
E uro
M u
M at
P a
P ra
T O
b it
d il
f le
g or
g Ã¼
h ur
h Ã¥
k ak
k us
l ju
m Ã¥
o f
o y
o ti
o da
t ud
u an
v eg
w al
y ÉĻ
z or
z Ã©s
Ä ī
Ä ı
Å ½
Î Ĺ
× £
è ĸ
ì ¢
ì ½
Ð° Ð»ÑĮÐ½Ð¾
ÑĢ ÑĬ
en ce
à¥ Ń
àª ī
in form
Ñĥ ÑĤ
Ñĥ Ñĩ
el Åĳ
Ð³ Ð»Ðµ
it Ã©
Øª Ùģ
ãĤ µ
ãĤ Ħ
à¤° à¤£
ci r
ti e
Ø¨ Ø¯
áŁ Ĭ
Îµ ÏĦÎ±Î¹
om i
Î¹ Î´
áī ±
à¸² à¸¥
×Ļ× Ĺ
Ð¿Ð¾ Ð»Ñĥ
le p
la b
Ïĥ Î¿
Ïĥ Î¹
ÑĢÐµ Ñģ
os a
à© ľ
×Ķ ×¨
à¤² à¤Ĺ
ÑĤÐµ Ð»ÑĮÐ½Ð¾
Ùģ ÛĮ
Ø´ Ùĩ
×ŀ ×ĵ
Õ« Õ½
×Ĳ ×ł
ia u
pro gra
áĥĿáĥ ¤
sk o
Î¯ Î½
no ÅĽci
Ð»Ð¾ Ð²
à¶º à¶ļ
ud en
Ð³Ð° Ð°
Ð»Ðµ Ð¹
sz e
Ù¾ Ø±
Î³ ÏģÎ±
Õ¿ ÖĢ
åħ ³
à¸ª à¸¡
áĢ¯ áĢŃ
Ä« bas
å® ¢
Äĥ r
ÐŁ Ð°
à¸Ĺ à¸¢
ny ch
Ã° a
áģ ¾
ãģĹ ãģ¾
à¸« à¸¡
Õ° Õ¡Õµ
Ø³Øª Ø§ÙĨ
ãģ¨ ãģĦ
è¿ ĳ
à¸Ľ à¸£
áĥĹ áĥĲáĥķ
Ð¿ÑĢÐ° Ð²Ð¸
å¾ Į
ä¹ Ī
Ø§ÛĮ ÛĮ
Õ£ Õ¸ÖĢÕ®
à±Ĩ à°Ĥ
áĭ¨ áĪļ
ìĭ ł
ê³ Ħ
å¼ ķ
è¡ ¨
éĩ ı
ìļ °
àºµ à»Ī
çľ Ł
ÑĽ Ð¸
éĸ ĭ
à®ĩ à®°
Ð´Ð· Ñĸ
ìĥ Ŀ
æĮ ģ
seg u
ãģĵãģ¨ ãģĮ
æĽ ´
àº· à»Ī
éķ ¿
pÅĻ ÃŃ
organ iz
à¸ł à¸²
ë¹ Ħ
D es
G r
L u
M on
S z
T ra
a ar
a is
b ab
b Å«
c as
d or
d ro
e uro
f og
f ran
g in
g ang
g ru
h il
h Ã¡
h em
h ak
j Ã³
k it
k od
k Ã«
l ak
l Ã¦
l ji
m Ä±ÅŁ
n Ã¶
p ap
r ÃŃ
r ing
s ha
s Ãº
t um
u Äį
w in
y r
Î ¥
Õ İ
æ ¤
æ ¾
ç ŀ
ë £
í Ľ
í ŀ
à´ ĸ
Ð¾ Ð¼
ÑĤ ÐµÐ½
ÑĤ Ó©
à² ī
à¦ ł
Ñģ ÐºÑĸ
à¶ ®
Ð² Ð»Ð°
in forma
Ðº Ñģ
Ð¿ Ñĭ
Ð¼ Ð½Ð¾
Ùħ Ø§ÙĦ
Ùħ Ûĩ
ÙĪ Ùĩ
ÙĪ Ø¹
ÙĪ Ø²
Øª Ø¬
et o
Ñı ÑĢ
Ã¡ k
ãĤ ³
ãĤ Ń
ol l
am ento
Ã¤ t
Ñĩ Ð¾
ti ca
Ø¨ ÙĦ
áŁ Ģ
áŁ į
Ø§ÙĦ Ø®
Ð½Ð° ÑĤ
×ķ× Ķ
ÃŃ m
Ð²Ð° Ð½Ð¸Ñı
ãĥ ī
áĭ ļ
ÏĦ Î¯
ÏĦ ÎŃ
à¤ķ à¤®
ul d
ul l
áĬ ¢
us a
Ð½Ð¸ ÑĨÐ¸
Ð¿Ð¾ Ð¼Ð¾
la p
ä¸ ī
um u
ÑĤÐ° Ðº
ÙĤ ÙĦ
ÑĤÐµ Ðº
à¤¯ à¤¤
ma z
ov e
Õ« Õ¯
á» ķ
Äģ m
Äģ s
Ø§Ø± ÛĮ
à¤¦ à¤°
sp ra
ist e
ko h
Ð´Ð¾ Ð²
pre z
àº² àº¡
ÑģÑĤÐ° Ð²Ð¸
åı ĭ
ðŁ Ķ
áĥļ áĥĶáĥĳ
ä» ¶
à¤Ł à¤°
Ã¦ t
áĥķ áĥļ
Ø¦ Ûķ
Î¹Îº Î¬
ãģĹ ãĤ
×¡ ×ĺ
Äĩ i
Ðĳ Ð¾
ÅĽ wi
à¨¿ à©°
Ãµ es
åį Ĺ
Ð´Ñĭ Ð½
ìĹ °
ìĹ Ī
áĢŃáĢ¯ áĢ¸
Ø§Ø¦ ÙĬ
à¸· à¹ī
ìĭ ¤
ÑĶ ÑĤÑĮÑģÑı
å¿ ħ
vol u
à°ħ à°¨
Õº Õ¡Õ¿
pol it
æĶ ¿
201 8
ê² Į
cion al
áĬĲ áīµ
sc ri
æĮ ĩ
fun k
éĤ £
ÑĨÑĭ Ñı
æ´ »
åĴ Į
çĦ ¶
real iz
7 0
A D
A k
a x
a ur
b ri
c ed
f ra
f Ã©
i ri
l Ã¸
m ili
n ut
n eg
n od
s ur
s ho
u da
v re
v ik
v ari
w el
z et
z ap
Î ¡
Ô »
Ú Ĭ
Û ³
á ½
á Ħ
ç °
è ¹
Ðµ Ð¹
à² «
an al
Ð» ÐµÐ½Ð¸Ðµ
à¶ Ķ
Ð² ÑĢÐ¾
à¬ ¼
à¬ Ĥ
ar ri
st itu
Ñĥ ÑĩÐ¸
re la
Ùħ ÙĬ
Ùħ Ø®
Øª ÙĬ
et te
ch od
Ã© m
Ã© p
à§ Ĥ
di d
Ø¨ ÙĨ
áŁ ħ
Ø§ÙĦ Ùĩ
ent ar
Ð½Ð° Ð¹
áī ¶
si e
ed il
ãĥ £
ek si
de z
Õ¶ Õ¥Õ¬
Ð´Ð° Ð¼
ni c
ni h
eg en
Î» Î¬
×ŀ ×ł
à¸ģ à¸£à¸°
á» ±
ap ar
×ľ ×ĺ
×ľ ×Ĺ
Ø¬ Ø±
pro duk
ter i
ver sit
×ĳ ×ª
×ĳ ×Ĺ
sk ri
id ade
Õ¡Õ¶ ÖĦ
äº ¤
ig i
sp or
con tr
Ð»Ð¾ Ð³Ð¸
per i
ÑĦ ÐµÑĢ
uk u
áĥ¡ áĥĲáĥĽ
est er
à¸¥ à¸²
à´µ à´¨
Ð±Ð° ÑĢ
Ãº n
åħ ¶
ÐĲ ÐĿ
Î´ Î±
tr ans
Ð¾Ð± ÑĢÐ°
Ð¾Ð± ÑĢÐ°Ð·
Ð¼Ðµ Ð´Ð¸
Ñī ÐµÐ½
gi o
Ð¿ÑĢÐ¾ Ð¸Ð·
áĢĲ áĢļ
Ïī ÏĤ
com un
ÐĿ Ð¸
Ð»Ñĸ Ðº
åĲ İ
çĶ µ
ÐĴ Ð°
sch af
åŃ ¸
kl ad
áĢŀ áĢĬ
ÏĢÎ¿ Î¹
Ã¨ n
ãĤĮ ãģ¦
å¼ ı
áĤ ķ
ìĦ ¸
åĳ ĺ
ê² ½
æ³ ¨
áĥ¡áĥĲáĥ ®
àº« àºĻ
æµ ·
ëı Ļ
áŁĦ áŁĩ
Ð¶ÐµÐ½ Ð½Ñı
ë¬ ¸
çı ¾
áį¡ áį¡
ë¯ ¸
ê´ Ģ
íĦ °
4 0
8 0
A m
B el
G e
H e
K o
L O
P u
U R
c li
c ak
d on
d od
d ha
f ig
g on
g ov
i ed
j ÃŃ
k Ã¼l
l le
m ot
n om
p am
r on
s hi
v n
v ro
v isi
w r
w is
w ak
x o
z ad
Ã į
ã Ħ
æ Ĩ
è Ķ
è Ľ
ì ¦
Ð° ÑĢÐ°
à¸ Ĳ
Ð¸ ÑģÑĤÐ¾
Ð¸ ÑģÐ¿Ð¾
Ñģ Ð½Ð°
Ñģ Ð²Ð°
Ñģ ÑįÐ½
à¥ ©
in ten
ar en
àº ľ
st ro
Ð¿ Ð»Ð¾
Ð¿ ÑĢÑĭ
à¹ Ĩ
à¹ Ĭ
es sa
Øª Ø´
Øª Ûķ
et er
ra p
Ñı Ð²Ð¸
ÛĮ Ø±
ch er
ÑģÑĤ ÑĢ
ol d
Ã¤ Ã¤
Î± Î³
di ri
di ff
Ø¨ Ø¹
áŁ ¢
Ð½Ð° Ñĺ
àŃ Ĥ
si der
Ð²Ð° ÑļÐµ
ãĥ Ĩ
ãĥ Ĳ
×Ļ× ¦
Ã¼ h
ut ta
Å¡ ana
Ïĥ Ïį
Ïĥ Î¯Î±
ÙĤ Ø±
×Ķ ×¢
Äį no
ÑĤÐµ Ð»Ð¸
vi e
ma h
×ŀ ×Ļ
×ŀ ×Ķ
×ŀ ×Ľ
á» Ŀ
zi e
ia i
ob i
Õ¡Õ¶ Õ«
à¹Ģà¸ Ī
sp re
ko z
à¶¸ à¶±
áº ·
áĥĽ áĥĲ
áĥ¡ áĥ¢
pr ze
Ð²Ðµ Ð»Ð¸
æľ Ī
ÑģÑĤÐ° Ð½Ð¾Ð²
Õ¿ Õ¡ÖĢ
åı £
åı °
Äħ d
à°¦ à°°
à¸Ħ à¸¥
à¶´ à¶Ń
Ø· Ø±
Ðľ Ðµ
Äĵ r
Õ¯ Õ¡Õµ
áŀŁ áŀĺ
áģ Ĥ
Ð¢ Ðµ
ÄĻ k
ÑĤÑĥ Ñĥ
Ã¡l l
åľ º
Äĩ e
Õ¾ Õ¥Õ¬
íķ Ļ
åĬ ¡
à¹ģ à¸¥
Ðĺ Ð½
Õ¤ ÖĢ
ìĹ ħ
ìķ Ī
Ã¡n ÃŃ
à¸¹ à¹Ī
å¯ ¦
ãģĭ ãĤī
áĥĶáĥł áĥĺ
æŃ ¤
à®ħ à®¤
ç§ į
ç§ ĳ
ìľ Ħ
ÉĻl ÉĻr
æ¯ ı
ska p
æĽ ¸
çĤ ¹
ëª ¨
ë¬ ´
è· ¯
ëį °
dÃ¼ ÅŁ
ì¡ °
è¥ ¿
áģ¾ áĢĢ
5 5
I A
M e
N i
O b
b ran
c Ä±
d s
d os
f j
f ak
h ov
k si
k ing
l eri
n el
o x
s as
s un
t on
u er
u it
u va
u wa
z Ä«
Õ ı
Ù »
å ³
æ ¹
ç ĺ
è ¤
é ¹
é ī
í Ŀ
Ð° Ð±
Ð° ÑĤÐ°
Ð¾ Ñŀ
Ð¸ Ð»
à¥ ª
à¥ «
à¥ ¬
Ð´ Ð½Ð¸
àµ »
st em
st Äģ
st up
à¨ ¥
al ar
al im
el y
Ð³ ÑĢÑĥ
ÙĨ Ø´
it us
Ð· Ð²Ð¾
Ùħ Ø©
il la
áĪ Ļ
ãĤ «
un ta
à§ «
Î± Î¹
Î± Ïħ
×ķ ×ķ
áĥĲáĥ ĳ
Ø¨ Ø§ÙĦ
áŁ ¡
Ø§ÙĦ ÙĬ
Ð¶ ÐµÑĤ
Ð¶ ÐµÐ½Ð¸Ðµ
àŃ ±
×ķ× ĺ
Ñħ Ñĸ
ÑĪ Ð¸Ð½
×Ļ× Ĵ
áĭ ®
po Äį
ur t
ul ar
ek a
áĬ ĸ
Ð½Ð¾ Ð¹
Ð¿Ð¾ Ð·Ð¸
ÑĢÐ¾ ÑĤ
Å¡ Äį
Ïĥ ÏĦÎ±
à© Į
um e
im m
à¤² à¤ķ
vi en
Õ¶ Õ¡ÕŃ
à¤¯ à¤¸
à¤¯ à¤®
Ø¹ Ø©
na p
Ú© ÙĦ
Ú© Úĵ
×Ĳ ×ľ
Ø¬ ÙĬ
à¸ĩ à¸²à¸Ļ
ja v
à·Ģ à¶±
áĢº áģĭ
Õ¡Õ¶ Öģ
ang a
áĢ¹ áĢ·
à¹Ģà¸ ļ
ist i
con se
Ùĥ ÙĦ
qu es
×© ×Ķ
Ø² ÙĬ
à¤Ĺ à¤²
Ð´Ðµ ÑĤ
ÐºÐ¸ Ð¹
ÎŃ Î½
Ð¡ Ð¢
åı ¸
ÐĲ Ð½
ðŁ ĩ
Ð¼Ð¾ Ð½
Ã¸ n
à°¸ à°®
Ð¾Ð± Ðµ
ÄŁ u
Ûģ ÙĪ
ga z
áĢŃ áĢ³
Õ¯ ÖĢ
Î¹Îº Î¿
áģ ¿
Õ¥ÖĢ Õ«
ÙĪØ± ÛĮ
pl at
Õ° Õ¡Õ´
Äĩ a
æĸ ¯
à¸¸ à¹Ī
Î¸ ÎŃ
ÐĴ Ðµ
áĥĲáĥł áĥĺ
æĪ ¿
à¤Ń à¤¨
à®¨ à®Ł
à¬¸ à¬®
éĢ ²
Ð¶Ð¸ Ð»
Ø§Ø¦ ÛĮ
Ð»Ñĭ Ð½
tÃ¤ Ã¤
éģ ¸
Ð¿Ð¸ ÑģÐ°
à´ħ à´¤
áĢ» áĢ¬áĢ¸
éĩ Į
è¨ ĺ
æŃ ¥
In ter
å½ ±
æĶ ¶
201 7
æĬ ¥
åĮ Ĺ
Î¾ Î·
çĲ ĥ
Ã± a
áĢ¶ áĢ¯
êµ Ń
ÏĦÎ¹Îº Î®
ÛĪ Ø±
Ð¿ÑĢÐµÐ´ ÑģÑĤÐ°Ð²
áĥ§ áĥķ
å§ ĭ
Õ¡Õ£ ÖĢ
áĢ° áĢ¸
å¦ Ĥ
çĤ º
ç® ¡
íĻ Ķ
ÙīÙĨ Ùī
Æ°Æ¡ ng
A K
A c
B r
E l
E sp
I T
K at
M as
M ag
R i
S T
S p
T o
b is
g at
g il
g as
h os
j s
j am
j ut
j os
k Ã¡
k ry
l it
r ÉĻ
t te
t ot
t ill
v ak
w at
w as
x im
y Ãª
z an
Ñ ĵ
Ô ³
Õ §
Û ²
ç Ģ
ç Ĵ
è ĵ
ì »
ì ¼
Ð° Ð¼
Ð¸ ÑĢÐ°
áĢ Ĺ
Ñģ ÐºÑĥ
Ñģ ÐºÐµ
an ce
à¥ ¯
Ð² Ð½Ð¸
in s
ãģ ļ
áŀ ĭ
st or
Ñĥ Ð´Ð°
ÙĦ Ø³
à± ĥ
el o
ÙĨ Ø³
Ùħ Øµ
ÙĪ Ø§ÙĨ
ÙĪ Ø§Ø±
à³ ĥ
is u
ra h
áĪ ķ
áĪ ŀ
ãĤ £
Ã© t
Ø¯ ÙĬ
ad es
Ã¤ Ã¤n
Î± ÏĢÎ¿
ti es
em i
Ð¹ Ð»
Ð½Ð° Ñģ
si o
si ya
ÃŃ st
Ð²Ð° ÑĤÐ¸
ãĥ ŀ
áĭ İáī½
Ïģ Îµ
ur u
Õ¸ Öģ
áĬ ĳ
áĥĺáĥ £
Ð¿Ð¾ Ð²Ñĸ
Ø§Ø «
Ø§Ø º
de v
Å¡ n
Ð»Ð° ÑĢÑĥ
×Ķ ×¦
ir an
à¤ª à¤¹
Î» Îµ
à¹Ģ à¸Ļ
ov en
à´¾ à´Ĥ
Õ« Õ´
Ð»Ð¸ Ð½
Ð¼Ð° Ð»
Ó© Ð²
à¤µ à¤¤
à¤µ à¤¸
ap li
ÑĤÐ¸ Ð½
Õ¸ÖĤ Öģ
Õ¸ÖĤ Õ½
à´° à´£
pro te
áĮ Ģ
áĮ ī
à¹ī à¹į
ig en
og a
ÑĦ ÐµÐº
ba h
áĢ¬ áĢ¹
Ø® ÙĦ
ÅĤ u
Î³ Îº
ÒĽ Ð¾
à´® à´¨
ber g
end o
be z
ä» Ģ
Ã¦ l
Ð½Ñĭ Ð¼
ÐŁ ÑĢÐµ
Ñī Ð¾
×§ ×ĳ
×ĺ ×¢
Ïī ÏĥÎ·
ÑģÐ¾ Ð²
Ð½Ñĸ Ðº
×Ľ ×ł
×Ľ ×ª
àªµ àª°
ÑĤÑĥ ÑĢÐ°
pl an
×Ĵ ×¨
à¤ħ à¤°
Ðĳ Ðµ
Î¿Ïħ ÏģÎ³
ãģ¨ æĢĿ
ÏĨ Î¿
åĬ ©
à¹ģ à¸ķ
à¨¿ à©±
àº± à»ī
ÐºÑĸ Ð²
éģ İ
Ð¸Ð½ ÑĤÐµ
lig t
ê³ ¼
ÎµÎ¯ Î±
str uk
áĥĲáĥļ áĥĺ
inter es
ê² ĥ
cion es
æİ ¥
ÏĢÎ± ÏģÎ±
æł ¼
áĥĿáĥĳ áĥĲ
áĥ£áĥł áĥĺ
çĻ ¼
çķ Į
ë¶ Ħ
åı¯ ä»¥
ç½ ĳ
ÎµÏĢ Î¹
à®İ à®©
yy ÉĻt
çĿ Ģ
__ __
Ð°Ð² ÑĤÐ¾
ê± °
Õ¡Õ¤ ÖĢ
Min ist
ìľ¼ ë¡ľ
schaf t
3 4
3 5
3 8
A B
B a
C ol
C am
D E
F re
H a
K i
M i
U L
b ad
b ia
c un
c op
d ÄĽ
f as
h um
j in
k Ã¼
k end
l al
l la
l ung
m ol
m am
m Ã«
n ÉĻ
o vi
q ÉĻ
s yn
s var
t ÃŃ
t ta
w od
y Ã¼
Î Ĵ
Ù º
Ú Ģ
Ú ħ
Û ¹
á ¸
â Ĥ
å ¬
å ļ
è Ĵ
è Ŀ
ë Ī
ì ´
ĩ ãģĨ
à¤ Ĭ
Ð¸ ÑĪ
à° ĸ
en n
Ñģ Ð¿Ñĸ
à¥ ®
in an
in vest
Ðº ÐµÑĢ
Ð´ Ð½Ðµ
à¬ ģ
àº ¶
Ð¿ ÑĢ
at en
at ur
al d
al an
Ø± Ûģ
or o
it s
is en
is che
áĪ ¥
Ã¡ ny
Õ¡Õ »
×Ļ ×ķ×ª
×ķ ×ķ×¢
ÉĻ si
ÉĻ cÉĻ
li a
li ge
áĥĲáĥ ¬
áĥĲáĥ Ĵ
Ø§ÙĦ Ø·
Ð½Ð° Ð²
áī ¡
si v
à¸² à¸ª
à¸² à¸ķ
ãĥ ĳ
Ã¶ k
ul o
Ñį ÑĤ
Ð½Ð¾ Ð²Ð°
à¤¸ à¤¹
ä¸ ĸ
um ent
ÐºÐ¾ ÑĤÐ¾
da y
à¤® à¤¤
ÑĢÐ¸ Ð»
ÑĢÐ¸ Ñı
Ùī Ø±
Ø¹ Ø¨
Ùģ ÙĬ
Ò¯ Ð·
Î¼ Î²
ab i
Ð»Ð¸ Ð¹Ð½
se p
×ľ ×ĳ
ØŃ Ø±
Õ¡Õ¶ Õ¡Õ¯
Î¯ Î¶
ve ik
Ñİ ÑīÐ¸
à¸¢ à¸ĩ
×© ×Ĳ
áĥł áĥĿáĥĽ
uk i
Ù¾ Ø§Ø±
æľ į
men y
à³Ĩ à²Ĥ
ðŁ ¤
ðŁ Ĳ
Î´ Î¹
Ä« bu
à²ķ à²°
áĥļ áĥĺ
å® ¹
ä» »
à¶¯ à¶»
Ð¼Ðµ ÑĢÐ¸
áĥĶáĥĳ áĥ£áĥļáĥĺ
Ð½Ñĭ Ò£
à¸Ĺ à¸£
Ðļ Ð¸
pi er
à´¸ à´®
à¤¶ à¤ķ
der e
com p
ÐĿ Ðµ
áģ ģ
Ð¢ Ð¾
Ø§Ùħ ÙĦ
Õ° Õ¡ÖĢ
ah an
ÐĶ Ð¾
áĥ¢ áĥĺ
ÑĩÐµ ÑĤ
ÖĦ Õ«
è¿ ĺ
Ð¿ÑĢÐ° Ð²Ð¾
ÑģÑĤÐ¸ ÑĤÑĥ
fi ci
Ð´Ñĭ ÒĽ
à¤· à¤£
ÑĨÑĸ Ð¹
ll Ã¤
ÅĻ e
áĥ® áĥķ
Ø±ÛĮ ÙĨ
åº Ķ
ÑįÑį ÑĢ
à¹ĥ à¸Ī
à¹ĥ à¸Ĭ
àº» à»ī
ìļ ´
åĳ Ĭ
æĬ Ģ
ÑĻ Ñĥ
Ô± ÖĢ
çľ ģ
éĻ ¢
Õ¡Õ½ Õ¶
åĵ ¡
Ã± o
Î½Î¿ Î¼
×Ļ×Ļ× Ł
æ² ¡
æ¸ ħ
é« Ķ
áĢ±áĢ¬ áĢº
åİ Ł
Ø§Ú »
ãģł ãģĳ
àºŀ àº²
Î¼ÎŃ Î½
å§ Ķ
åģ ļ
áº¿ t
åı¯ èĥ½
á»ĩ n
éķ ·
å£ «
Æ°á» Ľ
é£ Ł
ÙĢÙĢ ÙĢÙĢ
çł Ķ
spe ci
íı ¬
Ð¾ÑĢÐ³Ð° Ð½Ð¸
ÑģÑĤÑĢÑĥ Ðº
ìĬµ ëĭĪëĭ¤
ãģ¨ãģĦ ãģĨ
2 4
3 6
3 9
4 4
7 8
A nd
C at
E in
G er
I L
N e
R o
b on
b ang
b ru
c is
c ut
d op
e con
f ung
f und
g os
h ot
j ad
k im
l Ã¼
l us
l ok
m m
m id
n olog
p Äģr
q il
r er
r ol
t Ã³
t Ã«
t Ã¶r
w ed
w ia
y in
y le
µ ľ
Ã ŀ
Î ĺ
Ô ´
Õ Ĳ
Ú Į
å ´
é Ń
à¤ ĵ
Ð° Ð½Ð°
Ð° Ð²Ð°
Ð¾ Ð²Ð¾
Ð¾ Ð²Ð¸
Ð½ ÑģÐºÐ¸
ÑĢ Ð´
en da
à¦ ĺ
à¦ Ļ
Ñģ ÑĢÐµÐ´
Ñģ Ð²Ñı
er n
an un
Ð» ÐµÐ½Ð¸Ñı
à· ĳ
ãģ ¹
Ðº ÑĢÐµ
Ð´ Ð½Ð°
áŀ ¡
st and
Ð¼ Ò¯
at er
re com
ÙĦ Ùĥ
el ec
ÙĨ Ø¸
ÙĪ Ø³
Ð± Ð»Ñĸ
is s
es h
il or
áĪ ±
áĪ ½
áĪ ĥ
áĪ Į
ÛĮ Øª
ãĤ ¦
Ã© ny
à§ ª
Ø¯ Ø§ÙĨ
Ø¯ ÛĮØ¯
ad os
à¤° à¤µ
ri m
ÑĢÐ° Ðº
ÉĻ k
di re
li v
áĥĲáĥ ¤
Ø¨ Ø§Ø´
Ø§ÙĦ ÙĦ
Ð¶ Ð¾
ent s
àŃ ĥ
ÃŃ s
ed u
ãĥ ¥
ãĥ ĩ
áĭ ĵ
po sta
ul ui
Ùĩ ÙĬ
áĬ Ŀ
Ã³ ÅĤ
Ð¿Ð¾ Ð»Ð¾
Ð¿Ð¾ ÑģÐ»ÐµÐ´
ik u
à¸Ļ à¸²
la bor
Å¡ u
os o
os ob
×Ķ ×ł
vi g
vi et
ni a
ni ej
eg i
na h
à®ķ à®Ł
Î¼ ÎµÏģ
à¤ª à¤ķ
à¸ģ à¸©
Ð¼Ð° ÑĢ
Ð¼Ð° Ð¹
á» §
zi oni
ter e
ob il
Ø§Ø± ÙĬ
ha z
sp ec
Ã§ o
to im
Ð³Ð¾ Ð´Ð¸
og o
ÑĦ Ð°
Ø² Ùħ
ÑĨÐ¸ Ð¾Ð½Ð°Ð»
ìĿ Į
ati va
Õ¿ Õ¶
áĥ£ áĥ¤
åħ ±
åħ ĥ
åħ Ī
à°ª à°°
ber t
áŀļ áŀĶ
ung en
ÑģÐ° Ð¹
ÏĮ Î¼Îµ
tr on
å® ³
Ð¾Ð± ÑīÐµ
ä» ĭ
à²¸ à²°
wa ar
Ø¦ ÙĬ
Ø¦ Ûĩ
åĪ ĩ
he id
à¤¶ à¤¨
par t
Ã½ m
ãģĹ ãģĦ
ÑĩÐ¸ Ð½Ð°
lar Ä±n
Ð¶Ð° ÑĤ
Ð¶Ð° Ð²Ð°
×Ľ ×ľ
Ã¡l y
Õ° ÖĢ
×Ĵ ×ľ
æĸ ¼
Õ¾ Õ¥ÖĢ
Î¿Ïħ Î¼Îµ
Ð´Ñĥ Ðº
Ú¾ Ûķ
res s
gen er
pen g
à¸ŀ à¸£
ê° Ħ
ê° ľ
à¨ķ à¨°
all y
Ð¼ÐµÐ½ ÑĤÐ°
Õ¡Õµ Õ«Õ¶
áĪĪ áĭį
ãĤĬ ãģ¾ãģĻ
Ð¿Ð¸ Ñģ
à´ħ à´µ
mar k
vÃ¤ r
èĢ Į
Ù¹ ÛĮ
Ð»ÐµÐ½ Ð½Ñı
åĳ ¨
ä¾ Ľ
ëĤ ´
éĻ Ĳ
éĿ ŀ
ow an
ìľ ł
ìĺ Ī
êµ Ĳ
ãģĤ ãĤĭ
âĢ Ŀ
×ķ×ł ×Ķ
ëł ¤
åł ±
ãģķ ãģĦ
èī ¯
è¶ Ĭ
ãĥĥ ãĤ¯
Æ°á» £
Æ°á» Ŀ
æ· ±
æ¼ Ķ
inÄģ t
ç² ¾
è» Ĭ
ëŁ ¬
íĶ Ħ
íģ ¬
à¦ĵ à¦¯
ÐºÑĢÐ°ÑĹ Ð½
6 5
7 9
B u
E M
M er
P od
S i
S al
S el
a il
a qu
a Ã§Ä±
b ung
c le
d Ã¶
e ce
f li
g n
g ir
h us
h ver
h Ã¸
i Ã§
j ur
j Ã«
j ud
k ad
k ro
k Ä±
k ke
k val
m ut
m ist
m no
m Ãµ
n im
o ut
p ed
r um
r Ã«
s Ã³
v ri
v ul
w ad
y cz
Ô ²
Õ Ĭ
Ú ³
å ª
æ ª
è ŀ
é ¬
é ¸
é ¾
é İ
ë ģ
ë ķ
ì ±
ì Ķ
ì µľ
í Ĥ
ï Ĥ
à¸ Ŀ
Ð¾ Ð¿ÑĢÐµ
Ð¸ Ð¼
à° ı
ÑĤ Ð½Ð¾
ÑĤ ÑģÑı
áĢ ĩ
à¦ ŀ
Ð² Ð½
Ðº ÐµÐ½
Ð´ ÑĬÑĢ
áŀ Ĩ
ar o
àº ¢
st re
st ig
st ran
Ð¿ ÑĬÐ»
at ta
on es
re fer
Ø± Ø§Øª
el u
el en
el la
Ð³ Ð´
it al
it or
it as
it Ã¤
Ð· Ñı
Ð· Ð´Ñĸ
Ùħ Ø²
ÙĪ Øª
Ñĭ ÑĢ
Ð± ÑĢÐ¾
es per
Øª Ø£
áĪ Ĭ
Ã¡ b
ÑģÑĤ ÐµÑĢ
un k
Ã© sz
am at
ÑĢÐ° Ð´
em o
Ä± lÄ±
Ø¨ Ø§Ø²
Ø§ÙĦ Ø«
ent es
Ñħ Ò¯
Ñħ ÑįÑĢ
ÑĪ ÐºÐ¾
Ð²Ð° Ð¶
ãĥ §
ãĥ ģ
ãĥ ĸ
áĭ ķ
po ten
ÏĦ ÏģÎ¿
à¤ķ à¤²
à¤¤ à¤¨
Ùĩ Ø§
Ùĩ ÙĨ
Ð¿Ð¾ ÑģÐµ
ing en
te x
la y
ä¸ ľ
Å¡ te
Ïĥ Ïī
ÑĢÐµ ÑĪ
ÑĢÐµ Ð³Ð¸
ÐºÐ° Ð·
ÐºÐ° ÑĤÐ°
da j
Õ¥ Õ´
Ùī ÙĬ
Ø¹ Ø±
Ø¹ Ø¯
à®ķ à®°
ma i
Î» Î®
Ú© Ø±Ø¯
Ø§ÙĨ ÙĬ
od po
à®¤ à®©
Ð²Ð¾ Ð¹
Å¾ ia
á» ı
Î· ÏĥÎ·
Äģ t
Õ¸ÖĤ Õ²
Ø¬ Ùħ
à´° à´¤
à´° à´®
×ĳ ×©
ØŃ ÙĦ
ØŃ ÙĬ
ØŃ Ø¯
con s
con di
ie j
za h
à´ª à´±
Ð´Ð¾ Ð¼
per f
à®ª à®°
áĥł áĥĺ
sz cz
à¸§ à¸ĩ
áĥĽ áĥĲáĥł
ya y
pr en
tu re
ÅĤ ad
ke z
ke Ã§
Ãº s
åı į
Ú¯ Ø§Ùĩ
ðŁ ı
Ð¼Ð¾ Ð¶
Î´ Ïħ
ÏĮ Î½
à®µ à®¤
end er
å® Ł
ku p
Ã¦ Ã°
ec ek
Ð½Ñĭ Ð¹
ÐŁ ÑĢÐ°
Ø¦ ÛĴ
×¤ ×ª
à¸Ħ à¸Ļ
Ðľ Ñĸ
Äĵ m
com pet
so u
ÐĿ Ðĺ
ÑĩÐ¸ Ð½
ÑĩÐ¸ ÑĤÐ°
à¦® à¦¨
à¸« à¸£
áŀĢ áŀĺ
åĲ ĳ
ä½ ķ
Ïĩ ÎµÎ¹
áĥľ áĥĲ
ãģª ãģı
Õ¡Õ¯ Öģ
ÑĩÐµ ÑģÐºÐ¾
ä¸Ģ ä¸ª
ÐĴ Ð¾
ÐĴ Ð¸
ÐĴ Ñĸ
íķ ©
ÏĨ Î¿Ïģ
ìŀ ¬
Ð»Ñĥ Ñĥ
Ãł n
ãĥ¼ ãĥĪ
ãĥ¼ ãĥ«
áĢŃáĢ¯ áĢ·
å¸ ĥ
àº° àºĻ
áĪĺ áĬķ
ÎµÏģ Î³
Ð±Ðµ Ð·
Õ¡Õµ Õ¶
mÉĻ k
Ð¿Ð¸ ÑĤÐ°
ãĤĮ ãģ°
à´ħ à´¨
mat eri
æķ ´
å· ²
tre b
Ø« Ø±
áĥĲáĥĵ áĥĴ
Ù¹ Ø±
.. .
èµ Ħ
ÃŃt Ã¡s
åĢ Ļ
à¤ĩ à¤¨
Õ¸Õ Ń
ÑĽ Ð°
à¶« à¶º
ÙĦÙī Ùĥ
éĽ Ĩ
à¨¼ à¨¾
áĥª áĥ®
æł ·
à¤ķà¤° à¤£
ìĺ ģ
Ø§Ú ĵ
çķ ¶
zn Ã¡l
é¢ ĺ
à¶¢ à¶±
ç¶ ĵ
Ð·Ðµ Ð¼
áĥĸ áĥĶ
à´ĩ à´¤
ãĥĥ ãĥĪ
ëª ħ
áºŃ n
áºŃ t
ç¤ º
éħ į
é¦ ĸ
Õ¡Õ· ÕŃ
ÐºÐ»Ð° Ð´
æ¡ Ī
åĻ ¨
ÐºÐ¾Ð½Ð¾ Ð¼Ð¸
íĸ Ī
Öħ ÖĢ
Ð¿Ð¾Ð»Ð¸ ÑĤÐ¸
probl em
ãģĹãĤ ĩãģĨ
2 1
2 3
= =
A u
A us
C or
D o
E s
H ar
I C
K O
K am
M en
M an
M em
P r
P al
P or
R om
T ur
U M
a ciÃ³n
b ot
b and
b ÄĹ
c Ã©
c ab
c ere
d Ã¡
d di
d ÃŃ
d ov
d ot
f ly
i i
k is
k Ãµ
l Ä«
m os
m ig
m ill
m Å±
n Ã¸
n ett
n ego
p si
p ur
r Ã¥
s ad
s ed
s la
s ok
t ent
u ÅŁ
v ot
w sp
z h
z w
z im
Â °
Õ ħ
Õ ŀ
Û µ
å «
è ķ
é §
é ¨
é ²
é ½
é Ī
é ĳ
î Ģ
Ŀ áĥĳ
Ð¸ ÑģÑĤÐ¸
ÑĤ Ò±
ÑĤ ÑĤÑı
en ci
Ñģ ÑĢÐµ
Ñģ ÑģÐ¸
er d
Ø§ Ùĥ
Ø§ ÚĨ
an to
an ya
à¥ ħ
Ðº ÑĬ
Ð´ Ò¯
Ð´ Ð²Ð¸
st al
Ñĥ Ð¼
Ñĥ ÑĩÐµ
re i
Ñĸ Ð¼
ÙĨ ÙĤ
ÙĨ Ùģ
it he
Ð± Ñı
Ð± Ó©
es c
ra g
áĪ ²
ãĤ ª
à§ ©
Ã¤ h
ÑĢÐ° Ð¹
Ñĩ Ð½Ð¸
ci do
×ķ ×ķ×Ĳ
Ø³ Ú©
Ø¨ ÙĪÙĦ
Ð¹ Ð³
×ķ× ĸ
áī ¢
áī »
si y
si Ã³n
ÃŃ r
ãĥ ĭ
Ïģ Ïİ
po pul
ÏĦ ÎµÏĤ
ur g
à¤¤ à¤®
Ùĩ ÙĪ
Ã³ m
Ã³ s
ut en
Ð½Ð¸ Ð¸
à¤¸ à¤²
le ÅŁ
te st
Ïĥ Îº
ÑĢÐµ Ðº
ÑĢÐµ Ð·
ta in
ÐºÐ° Ð»
ÐºÐ¾ ÑĢ
ÙĤ Ø©
ÑĢÐ¸ ÑĺÐ°
×Ķ ×§
ÑĤÐµ Ð»Ñı
vi c
vi z
vi de
ka h
Îº Î¬
Ùī ÙĦ
ni ca
ÅŁ t
Î¼ Î®
ma j
à¹Ģ à¸ĩ
×ŀ ×ĳ
×ŀ ×§
à®¤ à®²
á» «
á» ¯
á» Ľ
à¦° à¦ķ
à¦° à¦¤
ver e
Ø§Ø± Ø©
à¹Ģà¸ ¢
à¹Ģà¸ ĭ
con tin
sa g
Ð´Ð¾ Ð²Ð¾
à¶¸ à¶Ń
áĥł áĥĶ
à¸§ à¸¡
Ù¾ ÙĪØ±
à¤Ĺ à¤¤
áĥĽ áĥ£
×ł ×ĺ
ya ÅŁ
ÅĤ Äħ
Ð¡ Ð¾
Õ¿ Õ¥Õ²
Ð±Ð° Ð½
åħ ·
lo w
Ä« b
Õ¡ÖĢ Õ£
Õ¡ÖĢ Õ±
Ð¾Ð± ÑĬ
Äĥ m
for t
Ã¦ n
à¶¯ à¶±
Ð½Ñĭ Ð½
ÐµÐ½Ð¸ Ð¹
Ø¦ ÛĮ
×¤ ×¢
Ð¿ÑĢÐ¾ ÑĨÐµ
he it
com pl
ÐºÑĥ Ð»
ëĭ ¹
Ðŀ ÐĴ
æĸ Ļ
ìŀ ĳ
áĢ¼ áĢ±áĢ¬
Ð´Ñĭ Ò£
à²ª à²°
éĢ ł
pra v
pra w
àªª àª°
à¤ĸ à¤°
åĽ ł
æĹ ł
Ð¾ÑĤ Ð²ÐµÑĤ
áĢ¡ áĢģ
ìĭ Ŀ
è® °
å¯ ¼
Å« r
19 8
æĢ »
æ° ´
æķ Ī
ãģı ãģł
Ð·Ð½Ð° ÑĩÐ°
èĢ ģ
à¦ľ à¦¨
ug h
æĶ ¹
201 6
åĳ ³
ÑĻ Ðµ
å± Ģ
Õ¸Õ ¬
áĥĶáĥľ áĥ¢
ÑĽ Ðµ
à©ģ à©±
ë° Ķ
Ø§Ø´ Øª
ÎºÎ± Î»
à¸ľ à¸¥
ÏĦÎ· ÏĦÎ±
åĭ Ļ
æµ ģ
Ð½Ð¾ÑģÑĤ ÑĮ
ÑĦÐ¸ Ð½Ð°Ð½
éĹ ľ
è³ ¼
ëł ¥
ges ch
ÐºÐ¾Ð¼ Ð¿Ð°
vl ja
vl jen
éĺ ²
dzi e
è½ ¦
ÑģÐ¿Ðµ ÑĨÐ¸
à¦ħ à¦¨
jÃ¤ l
ì² ´
ç© º
çŃ ī
çĦ ¡
æ¶ Ī
ÑİÑĤ ÑģÑı
has znÃ¡l
ç¢ º
íĥ Ģ
ÑĢÐ°Ð±Ð¾ ÑĤ
à¸£à¸£ à¸¡
Ð²ÑĬ Ð·
ì¤ ĳ
ëĲ ĺ
3 7
4 5
4 9
6 6
A P
A t
D is
D om
G es
G ra
I ng
N O
N g
O n
P at
R a
S te
S lov
V a
a va
a ÅĤ
a Ã°
b Ã«
b ig
c et
c ell
d t
d ad
d je
g ad
g ul
g le
g Ã¼n
h la
h ir
i em
i Ã°
j ul
j sk
k lu
k lar
l jen
m ok
m Ã¤r
o fer
p Ãµ
q ay
s eri
t uk
u de
v Ã©g
y ti
y ek
z ab
Î §
Ï Ĭ
Ô ¹
Ö Ĩ
è ļ
é ı
ê ¶
ë ¨
ë Ĩ
ï Ģ
Ð° Ñģ
Ð¾ ÑĢÐ¾
Ð¾ Ð³ÑĢÐ°
Ð¸ ÑĢÐ¾
Ñģ Ð½
an na
in ti
Ðº Ð»Ð¸
Ð´ Ó©
à¬ ĺ
st ad
Ð¼ ÓĻ
at ti
at ik
at ori
al is
al la
al Ä±ÅŁ
re j
re ci
re gi
or ia
Ð³ Ð´Ð°
ÙĨ ÛĴ
Ð· Ð´ÑĢÐ°
Ùħ Ø¨
Ùħ Ø³Øª
à³ Į
Ð± Ð»Ð°
is m
Øª Ø¯
Øª Ø®
Øª ÛĴ
il er
ÛĮ Ùħ
ch ar
ÑģÑĤ Ð¾ÑĢ
ãĤ »
un n
à§ ®
à§ Ī
am er
em os
Î¿ ÏĤ
áŁ ĥ
ak s
ak t
Ð½Ð° Ð´
Ð½Ð° ÑĩÐ°
àŃ ¦
áī ²
Ñħ ÑĢÐ°
Ñħ Ð°Ð½
Ñħ ÑįÐ»
Ð²Ð° ÐµÑĤ
áĥĶáĥ Ļ
Ã¼ ck
à´ķ à´£
ÑĢÐ¾ Ð´Ð¸
de ÄŁ
ing er
la st
ä¸ ¤
ta j
os Å¥
ÐºÐ° Ð¼
ÐºÐ¾ Ð¹
ÐºÐ¾ Ð¼Ñĥ
im iz
à´¨ à´Ł
ÙĤ Ø§Øª
à¤® à¤§
Äį er
Îº Ïħ
à¤¯ à¤¨
ni ci
eg e
ir k
ÏĢ ÏĮ
ÏĢ ÏģÏĮ
à¸Ń à¸¥
Î¼ Î·
Î» ÎµÎ¹
Ø´ Ùī
Ú© Ûģ
Ð¼Ð° Ðº
Ð²Ð¾ Ñĺ
ap i
ap an
ne h
ÑĤÐ¸ Ñı
Ð·Ð° Ð½
Ð·Ð° Ð²Ð¸
×ľ ×©
ge w
ge Ã§
pro pri
ter n
áĥĿáĥ ª
à·Ģ à¶º
sk u
sk y
ob o
ig n
à¸¢ à¸¡
con stru
za Äį
Ùĥ Ø©
ko j
qu er
qu al
Ð³Ð¾ Ð»Ðµ
Ð½Ðµ Ð¾Ð±
ÑĦ ÑĥÐ½
à°ķ à°²
áĥł áĥĶáĥĳ
à°² à°¨
ba ga
Ø® Ø±
áĥ¡ áĥĺ
àº² àº§
Ð²Ðµ ÑģÑĤÐ¸
à¸¥ à¸ĩ
à²¤ à²°
ÑģÑĤÐ° ÑĢ
Ð¡ Ðµ
à¤ľ à¤°
à²¨ à²¡
åħ ī
åı ª
Ú¯ Ø°
Î´ Î®
Î´ Î¹Îº
áĥļ áĥĿ
å® Į
à¦¬ à¦°
Õ¥Õ ¼
Ð±Ð¾ Ð»ÑĮ
Ð¼Ð¸ Ð½Ð°
Ðļ Ð¾Ð½
bi j
åĪ Ŀ
ny t
ho z
Ã¥ l
à¶½ à¶º
à¶´ à¶»
ÑģÐ¾ Ð½
lar i
ÄĻ d
ÄĻ p
ä½ ı
ÑĤÑĥ Ð°
ÑĤÑĥ ÑĢÐ¸
Ðł Ñĥ
à·Ħ à¶±
à¤ħ à¤§
Ø§Ø¯ Ø©
pri m
à¬¬ à¬°
ÑģÑĥ ÑĤ
ÑģÑĥ ÑīÐµ
à¹ģ à¸Ļ
Ä±n Ä±n
áĥĹ áĥĲáĥľ
Ð¿ÑĢÐ° ÑĨ
Ãł i
Ãł ng
sen ti
ä¼ ł
pra k
áĬł áĬķ
áĬł áĪµ
kl as
tar t
ìķ Ĭ
áĭ¨ áī°
è® ¤
ai re
Ã¨ s
ãĤĮ ãĤĭ
à¤ī à¤¦
Äĳ en
Õ¸ÖĢ Õ¤
áĥĶáĥł áĥĹ
áĢ½ áĢ±
Ø° Ø§
pol iti
å½ ¢
à»Ģàº ¥
ê¸ Ī
ÑĢÑĸ Ð²
Ø§Ø¹ Ø¯
æĬ ķ
Ð½Ð´Ð° ÑĢ
ÙĦÙī ÙĤ
Ð¾Ñģ Ð¾Ð±
æ² »
áĥ¥ áĥķ
ÑĤÑĢÐ° Ð½
éĹ ®
éĹ ´
ãĢ ģ
ãĢ Ĥ
èª į
à»į à»Ī
æ¬ ¾
ãģķ ãĤĵ
ç¨ ®
ç¶ ²
ÑĨÑĭ Ñĸ
è© ±
ç½ ®
ë¥ ´
mÃ© ny
Ð»ÐµÐº ÑĤÑĢÐ¾
àªĨ àªµ
Öĥ Õ¸ÕŃ
à¶ĳ à¶ļ
ÑĴ Ðµ
inst itu
å¢ ŀ
áº¥ t
Ð³Ð¾Ð²Ð¾ ÑĢÐ¸
ÑĤÑį Ð¹
Î¹Î½ ÏīÎ½
ì¹ ĺ
è± ¡
ÏĪ Î·
ç³ »
ê¹ Į
ÏĢÎµÏģ Î¹
situ a
æ§ ĺ
ogra fi
yh te
íĨ µ
ÑģÑĤÐ²Ð¸ Ðµ
util iz
åŀ ĭ
* *
0 1
0 3
0 9
2 8
2 9
4 8
6 8
? ?
B A
B es
B il
D an
G A
H o
I M
I m
K u
L o
M al
M il
N A
N G
N aj
O L
S em
T ar
V e
a ste
b ÃŃ
b Ã»
c ra
c os
c ado
e it
f ÉĻ
f Ã¶
f ur
f ul
f te
g s
g la
g ia
g led
h im
h id
m om
m ing
m Ã¤n
n ung
o te
p ia
p ang
p ac
p asi
r or
r Ãª
s li
s za
t ov
t ÉĻr
v ÉĻ
v Ã¤n
w it
w il
w ana
x u
z on
z ung
Ã ļ
Ô ¼
× ¥
ç ĵ
é į
ë ¸
ë ĸ
ì º
í ĭ
í Ĵ
Ð° Ð»Ñĭ
à¸ ®
Ð¾ Ð·
Ð¾ Ð¿ÐµÑĢÐ°
Ð½ ÑĤ
Ð¸ ÑĢ
à² Ĵ
en za
Ñģ Ð»
an an
Ð² ÑĢÐ°
in ar
in for
in du
Ðº Ò¯
ar ch
st us
st os
st vo
Ð¿ ÐµÐ½
Ð¼ Ð¶
Ð¼ ÐµÐ½Ð¸
on n
on om
re di
Ø± Ø¶
el s
el ig
Ð³ Ñĩ
it an
it za
ÙĪ Ùĥ
ÙĪ Ø¶
Ñĭ Ð»
is ha
áĪ ¬
Ã¡ c
Õ¡Õ ª
ÛĮ ÙĦ
ch u
ÙĬ Ùģ
ÑģÑĤ ÑĢÐµ
ãĤ §
à§ ¬
à§ Ń
ad minist
à¤° à¤¸
am e
ro k
Ñĩ ÐµÑĢ
ci p
ti a
ti co
Ä± b
Ä± yor
li o
Ø³ Ùĩ
Ø¨ ØŃ
Ø¨ Ú¾
ak ti
ent al
si den
Ñħ Ð°ÑĢ
ÃŃ o
áĥĶáĥ £
áĥĶáĥ ª
áĭ ©
áĭ Ľ
Ïģ ÎŃ
Ïģ Î¿Ïħ
ÏĦ Ïħ
Ã¼ ÅŁ
Ð½Ð¾ ÑĢ
ut u
us u
us an
áĥĺáĥ Ĵ
Ð¿Ð¾ Ð²
Ð¿Ð¾ Ð´Ð°
Ð¿Ð¾ Ð·Ð½Ð°
à¤¸ à¤¦
Ø§Ø ©
ing s
ta a
um o
um s
ÑĤÐ° ÑĤ
Äį nÃŃ
ÑĤÐµ ÑĢÐ°
à¤¯ à¤°
Ø¹ Ùħ
na v
na st
à®ķ à®®
Ùģ Øª
ÏĢ Îµ
ma q
à°° à°®
à¹Ģ à¸Ń
ov al
à´¤ à´¨
Ø§ÙĨ ÙĪ
á» Ĺ
á» Ń
Äģ l
Ã« m
à²° à²¤
ot h
×ľ ×ķ
×ľ ×§
Ð²Ð¸ Ð´
à·Ģ à¶½
Ïħ Ïĥ
áĢº áĢ·
ver k
×ĳ ×Ļ
id er
id enti
áĮ ħ
Î¯ Î¿Ïħ
à²¾ à²Ĥ
äº Į
äº Ľ
sp ir
à¶» à¶º
à¶» à¶¸
con sider
Ð»Ð¾ Ð½
Ð»Ð¾ ÑģÑĮ
sa y
Ã§ e
Ã§ ek
Ùĥ ÙĨ
×© ×ĳ
Ð½Ðµ Ð¹
ba y
uk sen
áĥĽ áĥĺ
×ł ×ķ
×ł ×Ĳ
×ł ×ĵ
à¸´ à¹ī
Ð´Ðµ Ð»Ð°
pr Ã³
and er
ati ve
à®Ł à®®
ÐºÐ¸ Ñħ
ok i
æľ ¯
æľ Ľ
Î³ Î®
à¤¬ à¤¤
ke it
Ãº Äį
áĥ£ áĥĻ
åħ ļ
Ú¯ Ø±Ø¯
ÐĲ Ðł
ÑģÐ° Ð¼Ð¾
áĥļ áĥĺáĥ¡
Øµ Ø±
pa Å¡
ÐµÐ½Ð¸ Ð¸
×§ ×ĺ
Ã° u
áį Ĭ
áį ĭ
ãģĹ ãģ¾ãģĻ
à²¯ à²²
pe di
ÙĪØ± Ø¯
Ïĩ Î±
Õ° Õ¥Õ¿
Ïį Î½
ell en
å° į
à²® à²¨
æĺ Ł
Ø§Ø¯ ÛĮ
ÖĦ Õ¶
Ð»Ñĥ Ñĩ
Ð²Ñĸ ÑĤ
ex ist
ex per
ÑģÑĥ ÑĢ
à¹ģ à¸£
ìł Ģ
ÙĪÙĨ Ø¯
à¸Ī à¸²à¸ģ
ä¹ ¦
Ð±Ð¸ Ð»
kom un
kom mun
Ø§ÛĮ Øª
ÑĨÑĸ Ñı
Ðķ Ð²ÑĢÐ¾
ê° ķ
Õ£ ÖĢ
Ã¢ m
ÏĥÏĦ Î·
Õ¡Õµ Õ«
ç» Ļ
à¤Ĩ à¤¯
áĥ¨ áĥķ
è® ¡
Ðĵ Ð¾
à¤ī à¤ª
Î¼Î± ÏĦÎ¿
å¿ «
up p
å¼ º
ìĦ ł
à¨¦ à¨°
ãĥ³ ãĤ°
ì§ Ħ
à°ħ à°µ
ÑģÑĸ Ð¹
æ° Ķ
à¹Ĥ à¸£
Ä° n
áĥŀ áĥĺáĥł
Õ¡Õ¿ Õ¡ÖĢ
è§ Ħ
è§ Ĩ
Ã´ ng
ãĤĤ ãģ®
èµ Ľ
áī½ áĬķ
åĮ º
ä¾ ¿
áĬĲ áīł
ëĤ ¨
lÄ± ÄŁÄ±
atu ra
ãĤĵ ãģ§
éĸ ¢
Ð¾Ñģ Ð½Ð¾Ð²
ë° ĺ
ä¸Ń åĽ½
æł ¡
ÑĦÐ¸ ÐºÐ°
iy or
çº §
èģ Ķ
Ð¤ ÑĢÐ°Ð½
è³ ĩ
ëł Ī
kul lan
áº¡ i
Ä±m Ä±
æĪĳ ä»¬
æ± º
pres ent
áº¿ n
fo re
Ð¿Ð»Ð° ÑĤ
Ð´ÐµÑĢ Ð¶Ð°
ÑĤÑĢ ÐµÐ½
ç® Ĺ
ë¬ ¼
ëŀ ĺ
æ¨ ¡
ç© ¶
åħ¬ åı¸
æģ ¯
nat ur
á»ĳ i
Ð¶Ñĭ Ð»
àº½ àºĻ
éľ Ģ
éĩį è¦ģ
íĸ ī
Ð½ÑĮ Ð¾
á»ģ n
à¹Ģà¸Ħ à¸£
ãģĤãĤĬ ãģ¾ãģĻ
áĢ¯áĢ¶ áĢ¸
à¬¼ à¬¿
ÑĦÑĥÐ½ Ðº
7 7
9 9
A ng
E ng
G en
H el
N ov
S E
S k
T am
U m
U r
V A
V or
V il
W ar
X X
a ve
a Ã§
a vo
b Ã©
c us
c za
c ele
c ation
d Ã¶n
e il
e za
f s
f ant
g ol
g im
g ab
g ge
g ran
j d
k n
k tor
l or
l Ã¥
l ama
m l
m s
m ia
n je
p id
p Ãª
r ar
r Å¾
s ang
s ud
s Ã¥
t ed
t os
t end
t hi
t ho
t ari
u sta
v on
v Ã¦r
y u
y ol
z ÉĻr
z Åĳ
Ã ¯
Ã ħ
Ã İ
Î Ī
Ú ĸ
Û ´
Û ¸
á ħ
â ģ
ç £
è ĺ
é ³
é Ħ
é ĭ
é Ĳ
í ĳ
áĥ Ń
Ð° Ð»Ð°
Ð° Ð½Ñĭ
à¸ ī
Ð¸ Ð¼Ð°
ÑĢ Ð¿
ÑĤ Ð½
ÑĤ ÑĬÑĢ
en c
Ñģ Ð¿ÑĢÐ°
er ia
an ka
à¶ Ł
Ð² ÑĪÐ¸
à· ĺ
àª ł
in clu
Ðº ÑĤÐ°
Ðº ÐµÑĤ
àº £
st it
Ð¼ ÑįÐ´
at ra
re b
re con
re du
ÙĦ Ûķ
el j
Ð³ ÐµÑĢ
it te
it se
Ùħ Ø·
ÙĪ Øµ
is ka
es pa
es pe
et en
et ti
áĪ İ
Ã¡ rio
as o
as an
as sa
ÛĮ Ø§
ãĤ ±
un de
un ter
Ã© v
áĥĺ áĥĺáĥ¡
Ø¯ Ûķ
ri ch
ci es
di st
di ver
di ÄŁi
em ber
Ä± ÄŁÄ±
om et
Ø§ÙĦ Ø§Øª
Ð¶ Ð´
Ð¶ ÐµÑĢ
Ð¹ ÑĤ
ak tiv
ent u
àŃ §
áī ģ
ãĥ ĵ
áĥĶáĥ ®
áĭ ´
Ïģ Î·
po se
ÏĦ ÏģÎ±
à¤¤ à¤ķ
ul la
Ã¼ ber
Ñį Ñģ
Ð½Ð¾ Ð¼
Ð½Ð¾ ÑģÐ¸
Ð¿Ð¾ ÑĢ
à´ķ à´´
à¤¸ à¤¨
le Å¾
de f
de j
ing a
Å¡ ie
ÐºÐ° Ð¶
ÑĤÐ° ÑĢÐ°
ÙĤ ÙĬ
à¤² à¤¯
ka b
ka Å¾
Îº Î±Î½
Ð´Ð° Ð»
ni g
ni Äį
na u
Î¼ Î¹
à°° à°£
Ø´ Ø§Ø±
à´¤ à´°
Ú© Ø´
Õ« Õ·
Ð»Ð¸ Ð²Ð¾
Ð¼Ð° Ð³Ð°
Ð¼Ð° ÑĤÐµÑĢÐ¸
à®¤ à®®
à¤µ à¤¨
à¤µ à¤ķ
×Ĳ ×ª
×Ĳ ×¤
×Ĳ ×Ĵ
ap e
Ã« sh
Ð·Ð° ÑĢ
je st
×ľ ×ª
áĥĿáĥ Ĺ
áĢº áĢ¬
sk Ã©
ob ra
ÑĤÐ¾ Ðº
ang er
ang kan
Î¯ Ïĥ
Î¯ ÎµÏĤ
äº Ī
ist o
Ð»ÑĮ Ð½Ñĸ
no k
no w
ie c
à¶Ń à¶±
à¤¹ à¤¨
à¤¹ à¤®
Ùĥ Ûķ
Ð³Ð¾ Ð»Ð¾
Ð³Ð¾ ÑĤÐ¾Ð²
×© ×ª
per so
og i
áĥł áĥĲ
à¬° à¬ķ
áĥĽ áĥĺáĥ¡
×ł ×ª
×ł ×ķ×ª
Ø® Øª
áĥ¡ áĥĲ
est o
pr is
tu a
Õ´ Õ¡Õ½Õ¶
à¸¥ à¸°
æľ ª
Î³ Î½
Ð¡ Ð¸
à¤¬ à¤¢
à®® à®©
Ð±Ð° Ð²
Ãº c
åħ ĭ
åı Ĥ
å¤ ª
å¤ ±
ÐĲ ÑĢ
ðŁ ļ
áŀļ áŀĬ
ÏĮ Î³
à®µ à®²
à°¸ à°°
Ð¾Ð± Ð»Ð°
Øµ ØŃ
Ã¦ k
áĥĶáĥĳ áĥĺáĥĹ
su p
áĥķ áĥľ
ÐŁ ÑĢÐ¸
à¸Ĺ à¸ĺ
×ĺ ×Ļ
Ø¦ ÛĨ
Ð¿ÑĢÐ¾ ÑĦÐµ
áĢĲ áĢĦ
Ã° ur
pi ed
à¤ļ à¤¨
à°Ł à°°
par a
ÑģÐ¾ ÑĨÐ¸
ÑĢÑĭ Ð¼
ëĭ ¨
ÑĩÐ¸ Ð»
Ð½Ñĸ Ò£
Ø§Ùħ ÛĮ
kon kur
Ïĩ Î½
ãģŁ ãģĦ
nd an
ÐĶ Ðµ
ell er
áĥ¢ áĥĶáĥł
ÎµÎ¹ ÏĤ
Ñŀ Ð½Ð°
wy dd
Ø§Ø¯ Ùĩ
ÏĨ Î®
è¿ Ĳ
mu si
à¹ģ à¸¡
Ð¸Ð· Ð¸
ÑĺÐ° Ð²
àª¸ àª®
ÏĦÎ± Î½
ìł Ĳ
Ð½Ñĥ ÑĤ
à¸ŀ à¸£à¸°
Ûĩ ÙĦ
à¶ľ à¶±
àºŃ àºļ
Ø¶ Ø±
æī ¿
æī ĵ
éģ ĭ
áĪµ áīµ
æĹ ©
ser vi
ÙĨØ¯ Ùĩ
ìķ ¼
à²¬ à²°
iti v
ç» ĵ
áĥ¨ áĥĶáĥ¡
å¯ Ĩ
å¯ Į
à´ħ à´±
Úª ÙĬ
çĽ ´
æĿ ĥ
æĿ Ĳ
åº Ĺ
è¯ Ŀ
áĥĶáĥł áĥ¡
áĤ Ĳ
à¶ħ à¶Ń
×ĸ ×¨
è¨ Ī
ÑģÑĭ Ð½Ð´Ð°
vÃ¤ l
pol i
à®ħ à®°
à®ħ à®±
ÎµÎ¯ Î¿
à¹Ĥ à¸Ķ
str at
æĶ ¯
à»Ģàº ŀ
è§ Ĥ
201 5
pos si
åĢ ĳ
cion a
éĻ ¤
jed no
æĻ ¯
à°ľ à°°
ult at
Ð´Ð· Ñı
Ð´Ð· ÐµÐ½
rÃ© sz
sin iz
æİ ¨
zen ia
ë° ľ
à²ħ à²¨
àº¥ àº°
çĻ º
çĻ ¾
Õ¡Õ´ Õ¢
é¡ Į
×Ļ×¨ ×ķ×ª
×ķ×ł ×Ļ×Ŀ
cul o
ÑĤÐ¸Ð² Ð½Ð¾
ãĤ¤ ãĥ³
áĢ¾ áĢ¬
IN G
åķ ı
Î»Î· Î½
ç¶ ļ
à´ĩ à´¨
è¶ ³
á»ĩ t
åĸ ľ
ëŀ Į
à¸¶ à¹ī
ÏĢÏģÎ¿ Ïĥ
ìĨ į
æį ®
pÃ¤ Ã¤
ãģĿ ãĤĮ
çĪ ±
bur g
Ð³Ð¾Ð²Ð¾ ÑĢ
Õ¡Õ² Õ¡ÖĦ
åĦ ª
ç¯ Ģ
å·¥ ä½ľ
áĭĭ áĪį
ÑĤÐ²Ð¾ ÑĢ
-- --
Õ´Õ« Õ»
ëĶ Ķ
ÑĥÐ»Ð° Ñħ
áº§ n
èĢĥ ãģĪ
à¸łà¸² à¸ŀ
íŀ Ī
ÑħÑįÑĢ ÑįÐ³
ãģıãģł ãģķãģĦ
) )
0 5
2 6
2 7
3 3
B al
B un
C i
C ent
E m
H A
H or
H am
K e
K ur
M ad
M Ã¼
P A
R ec
S ta
S eg
T U
a al
a vi
a uk
a ÄŁ
b od
b lo
b Ã¶l
c ad
d as
d Ã©s
d ade
e ver
f ut
f ab
f ah
g ri
g ent
g ut
g Ã¥
g eli
h is
h ra
h Ã©
h ti
h ap
h end
j Ã¶
j ob
j uk
j ung
k w
k ek
k le
k ult
m Ã³
m ov
m Äģ
m Ã¸
m ant
m Äĵ
n ol
n Ãº
o wa
p ik
p ic
p ati
p lu
p oni
r il
r ent
r ant
r ze
s n
s na
s od
s uk
s Ãµ
s Ã¡g
t Ã¼
t ÄĽ
t are
u por
v ra
v ok
v Ã¥
y al
y Ã¶n
z as
z un
Â »
Ã ĵ
Å ©
Î ¦
Õ Į
Õ Ĵ
Ú ĩ
Û į
è Ł
ë ´
ë ĥ
ë ĳ
ì ¸
ì ¿
ï ĥ
ï ĺ
Ð° Ð¿
Ð° Ð¶Ð¸Ð»
à¸ ¤
à´ ı
à´ ĺ
Ð½ Ð´
Ð¸ Ð·Ð°
Ð¸ Ð¼Ð¾
ÑĢ Ð³
ÑĤ ÓĻ
áĢ ¥
áĢ ĵ
à® ·
à® ı
à® Ĵ
à® ŀ
en vol
à¦ ģ
an di
an ge
an ja
àª ĺ
in ne
ãģ »
ãģ Ĵ
Ðº ÑĢÐ¾
Ð´ Ð²Ð°
Ð´ ÑĬÐ»
ar Ä±
st ÉĻ
st ud
st op
Ñĥ Ð¿ÑĢÐ°Ð²
Ñĥ ÐºÑĢÐ°ÑĹÐ½
à¨ ¯
Ð¼ Ð¿
at Ä±
at Ã³
at ie
re f
re sta
Ø± Ø§
el em
el eg
it ori
Ð· ÐµÐ½
ÙĪ Ø´
ÙĪ Ø£
Ð± Ð»Ðµ
is sa
ra Å¡
il u
áĪ Ħ
Ã¡ va
as u
ÛĮ Ø²
ÙĬ Ø¬
ãĤ ¨
×Ļ ×Ļ×Ŀ
Ø¯ Ûĩ
à¤° à¤ĸ
ri c
ri r
ri z
am h
am en
am os
am bi
am pi
Ñĩ Ñĸ
ci je
ti ge
ÉĻ b
di c
di e
di al
di stri
li et
li jk
áĥĲáĥ £
áĥĲáĥ ŀ
Î¿ ÏĢÎ¿
Ø¨ ÛĲ
om o
Ð¶ Ð´ÐµÐ½
Ð¶ Ò¯ÑĢ
ak u
Ð½Ð° Ñĥ
áī ¤
áī ¦
si ve
si one
ÑĪ ÑĤÐµ
ãĥ »
×Ļ× ļ
à¤¨ à¤µ
áĭ ±
Ïģ Î®
po zi
po uÅ¾
Õ¸ Õ¿
Ð½Ð¾ Ð²Ð¾
áĥĺáĥ ¥
áĥĺáĥ §
Ð¿Ð¾ Ñĩ
Ð¿Ð¾ Ð´Ð¾Ð±
à´ķ à´¯
Ø§Ø °
de a
te c
ta i
ta va
im u
im al
ÑĤÐ° ÑĢÑĭ
da h
da v
Õ¥ ÖĦ
ÙĤ Ø§
×Ķ ×ĳ
×Ķ ×ĵ
ÑĤÐµ Ð»Ðµ
ÑĤÐµ ÑĢÑĸ
vi du
eg ori
Ø¹ ÛĮ
×¨ ×Ľ
ÏĢ Î¿Ïħ
à¸Ń à¸ª
à°° à°ķ
à¹Ģ à¸£à¸²
Ú© Øª
Ú© Ø§ÙĨ
ab or
Õ« Õ¾
Ð¼Ð° Ð´
Ð¼Ð° ÑĤÐ¸
á» £
ne v
se Ã§
je v
à´° à´ķ
Ð²Ð¸ ÑĽ
à¸¡ à¸²à¸ģ
pro d
pro wad
ter min
ob er
Õ¡Õ¶ Õ¤
ha u
ha ir
Î¯ Îº
Ñİ ÑīÐµ
äº ¬
ig ht
sp i
sp ek
ist er
à¶» à¶Ń
Ð»ÑĮ Ð·Ð¾
con tra
×¢ ×¦
×¢ ×Ł
ce pt
à¤¹ à¤¤
to k
ko k
ko p
ko u
×© ×ľ
Ð´Ð¾ Ð½
Ð´Ð¾ ÑĢÐ¾
Ð´Ð¾ Ð¼Ð°
Ð´Ð¾ Ð±Ð¸
per io
Ð³Ð° Ð»
àª° àª¹
Ð½Ðµ ÑĤ
ÑĦ Ð¾
à°ķ à°°
áĥł áĥĿ
áĥł áĥĹ
áĥł áĥĲáĥĽ
sz Ã¡m
à¬° à¬¤
áĥĽ áĥĿ
áĥĽ áĥĺáĥľ
áĥĽ áĥĿáĥĽ
ag o
Ð´Ðµ ÑĢÐ°
ya z
ãģĦ ãģ¾ãģĹãģŁ
àº² àºģ
Ð²Ðµ ÑģÑĤ
ÒĽ Ð°Ð½
Ð¡ ÑĤÐ°
Õ¿ Õ¥Õ½
áĢ± áĢ«
à®® à®°
áĥ£ áĥĹ
åı Ĭ
å¤ ī
à¸ª à¸Ļ
à¸ª à¸°
vo z
ÐĲ Ð»
à°ª à°Ł
ber e
ÑĢÑĥ Ð¿
Äĥ ri
ä» ·
ä» ½
ä» ĺ
Ð¼Ðµ Ð¶
áĥĶáĥĳ áĥ£áĥļ
su c
ÐŁ Ðµ
à¦¬ à¦¨
Ð±Ð¾ Ð»Ðµ
ki ÅŁ
wa Å¼
Äħ c
Ø¦ ÛĲ
åĪ ¥
åĪ Ľ
ny m
à¸Ħ à¸²
áĢĻ áĢļ
Õ¯ Õ¡Õ¶
ÐºÑĥ ÑĢ
ÐºÑĥ Ð²Ð°
áĢķ áĢĬ
áĥĵ áĥĲáĥĽ
à¸« à¸²
à¸« à¸§
mo di
cz e
cz ne
áŀĶ áŀĦ
à°® à°¨
ÑģÐ¸ Ð»
ãģ¾ ãģ§
ÄĹ l
Ã¡l n
Ã¡l is
à¨¸ à¨®
Õ° Õ¡Õ½
áĥľ áĥĺáĥ¨
à®¯ à®²
à®ļ à®®
Õ¡Õ¯ Õ«
å° ¼
å° Ī
å° Ķ
æĺ ĵ
Î¸ ÎµÎ¯
ìŀ ħ
ÚĨ Ùĩ
ÑħÐ¾ ÑĢÐ¾
wi er
æĪ ĺ
Åĳ l
åĬ ŀ
à¤§ à¤¨
à¹ģ à¸Ĥ
tra di
gen de
ÑģÑĤÐ¸ Ð³
ven i
áĢ¼ áĢ²
sch e
à¹Ħ à¸Ĺà¸¢
Ð½Ñĥ Ð²Ð°
éĢ ģ
ìĹ Ĩ
àºŃ àºģ
kom men
åŃ ĺ
Ø§Ø¦ ÙĦ
we b
à»Ģ àºģ
Ðķ ÐĿ
ê° Ĳ
å¸ «
å¸ Ī
ind en
Ð¸Ð½ ÑĦÐ¾ÑĢÐ¼Ð°
ìķ ½
è¦ ı
Î² Î±
Ò£ Ñĭ
áĢ¡ áĢŀ
à¸Ĭ à¸Ļ
Ð±Ðµ Ð»
Ð±Ðµ Ð»Ð°ÑĢÑĥ
ÐºÐµ Ð»
ÏĢÎ¿ Î»
åĩ ł
è® ¾
bil ir
Ø±ÙĪ Ø²
à¤ī à¤¤
Úª Ø±
æĿ ±
è¯ ģ
å¼ ·
à¨¤ à¨°
Ð³ÑĢÐ° Ð¼
è¨ Ń
ì§ ģ
áĥĳ áĥł
à¶¶ à¶½
æķ ¸
ÑįÑį Ð»
àº» à»Ī
à¹Ĥ à¸¥
Ã¼l et
inn er
à»Ģàº Ĥ
à»Ģàº Ĭ
à»Ģàº Ĺ
è§ ģ
201 4
åĳ ½
èµ °
pod ob
ces s
ëĬ ¥
Î¯Î± ÏĤ
lÄ± k
æĻ ®
èĩ ³
atu re
ç§ ģ
ãģ£ãģ¦ ãģĦãĤĭ
ÑģÑĤÑĢÐ° Ð½
ë° ©
ÑĤÑĸ Ð²
áĭµ áĪŃ
Ä¾ ad
Äįi Å³
ç´ ł
é¡ ¹
aut or
Ã¼r Ã¼
yt tÃ¤
éĹ ¨
Ð´ÐµÐ½ ÑĤ
ÕŃ Õ¡Õ¶
ãĢ ħ
è² ·
las h
ë¶ Ī
è³ ª
ÏģÎ¹ ÏĥÏĦ
ãĤ¤ ãĥĪ
ì¶ Ķ
àº· à»ī
èĤ ²
ÑĩÑĥ Ð²
ÑĦÐ¾ÑĢ Ð¼
ÅĨ em
Ò¯Ð¹ Ð»
Ä±z Ä±
à´Ĩ à´°
à±Ĭ à°Ĥ
ÑģÑĤÐ²ÐµÐ½ Ð½Ð¾
àªĨ àªª
hol d
æ¥ ½
Ä¼ u
lÉĻ ÅŁ
åıĳ å±ķ
resp ons
ç¥ ŀ
à©Ī à¨Ĥ
æ® µ
ÑģÐ»Ð° Ð²
é» ŀ
áĪĨ áĬķ
ãĤ· ãĥ§
Õ¨Õ¶ Õ¤
Uni versit
ãĥķ ãĤ
à¥¨ à¥¦
è¢ «
á»ĥ n
Ð²ÑĢÐµ Ð¼ÐµÐ½
profes sion
Ã¨n cia
áŁ¡ áŁ
ä»Ģ ä¹Ī
Õ¡Õ·ÕŃ Õ¡Õ¿
ÅĤÄħ cz
0 6
3 1
4 6
9 8
A ut
A ll
B ir
D em
D ire
E D
G ar
G al
H al
I K
J A
J E
J u
K ol
L at
M edi
N h
P S
P et
P as
S en
S il
T u
T Ã¤
V O
Z I
a ir
a iz
a ya
b t
b Ã¼
b la
b uk
b all
c la
c ov
c Ã¢
c tor
d og
e er
e ur
f it
f ÃŃ
f iz
f est
f ram
g ot
g ÅĤ
h es
h te
h ang
i et
j Ã¡
j un
j Å«
k v
k ter
k ari
k Ã¤n
k Ã¶n
l t
l on
l li
l ut
l os
l ja
m t
m ell
o si
o us
p ta
p Å¯
q ip
r us
r Äģ
s vo
s vet
t ol
t ad
t us
t ant
t Ã½
t Ã¡r
u pa
w id
y ch
y tt
y Ä±l
z naj
Ä ©
Ð Ĭ
Õ Ķ
Ö ¿
Û ¶
Û ·
á ´
è ł
é ±
é ¼
é ŀ
ê ¨
ê »
í ľ
à¤ ĳ
à´ ĵ
Ð¾ ÑĢÐ¸
Ð¸ ÑĤ
Ð¸ Ð´Ðµ
ÑĤ Ð²ÐµÑĢ
ÑĤ Ò¯ÑĢ
Ñģ Ñģ
Ñģ Ð¿
Ñģ ÑĨÑĸ
Ð² ÑĤÐ¾
in al
ãģ ³
Ðº Ò¯Ð½
ar r
st w
Ð¼ Ð½
al um
re li
re ik
à± Į
or y
Ð³ Ó©
it Äĥ
Ð· Ð´
Ð· ÑĮ
Ùħ Ø¤
ÙĪ Ùģ
is Ã«
is ke
is hi
ra di
il an
Ñı ÑĤÐ°
ÛĮ ÙĪ
ÛĮ Ùĩ
ch te
ÑģÑĤ ÑĢÐ¸
ãĤ ĥ
à§ ¯
Ø¯ Ø¯
Ø¯ Ø³Øª
à¤° à¤¦
am u
am ba
ÑĢÐ° Ð¼
ro j
ro t
Ñĩ Ð½Ñĭ
Ñĩ ÐµÐ½Ð¸Ðµ
ci u
ci pa
ti ma
ti vo
ÉĻ m
di es
em in
ÐµÐ½ Ð¾
Ø³ ÙĨ
Ø¨ Øª
Ø¨ Ø§Øª
áŁ Ī
ÑĨ Ð¾
Ð¶ Ò±
Ð¶ ÐµÐ½Ð¸Ñı
ak e
ent re
Ð½Ð° ÑĢ
áī Ĩ
si z
ÑĪ ÐºÐ°
ÑĪ Ð½Ñĸ
ed en
Ð²Ð° ÑĤÐ°
ãĥ Ł
à¤¨ à¤®
áĥĶáĥ ĸ
po u
po ve
Ñį Ð²
ut us
Ð½Ð¸ ÑĨÐ°
Ð¿Ð¾ ÑĤ
le ver
de ci
te il
la is
ä¸ ĩ
Å¡ et
Å¡ Ä·
ta y
ta ge
ta ja
os h
ÐºÐ° ÑĤ
ÐºÐ¾ Ð»Ð¸
ÐºÐ¾ Ð³Ð¾
ÐºÐ¾ Ð³Ð°
im p
im ent
ÑĤÐ° ÑĤÐ°
da ÅŁ
ÙĤ Ø§ÙĨ
à¤® à¤°
×Ķ ×¡
×Ķ ×Ĵ
Äį in
ka y
Õ¶ Õ¤
Ð´Ð° Ð²Ð°
Ø¹ ÙĪ
na g
à¶± à¶¸
ÏĢ ÏģÎ±
Î¼ ÏĢÎ¿
à¤ª à¤¡
Î» Î¿Ïħ
à´¤ à´®
×ŀ ×Ļ×ĵ
à¸ģ à¸§
Ú© Ùħ
Ú© ÙĪ
Ø§ÙĨ Ø³
ab r
Ð»Ð¸ Ð²
od o
Å¾ el
á» ħ
á» Ł
Ó© Ó©ÑĢ
ap par
Î· Î³
ÑĤÐ¸ Ðµ
ic z
Ø¬ Ø§ÙĨ
à´° à´¸
Ð²Ð¸ Ñħ
pro st
pro mo
à·Ģ à¶ļ
va ik
×ĳ ×¡
ob y
Ø§Ø± Øª
ÑĤÐ¾ Ð½
ÑĤÐ¾ Ð³
ÑĤÐ¾ Ð²Ð°
ØŃ ÙĤ
Õ¡Õ¶ Õ±
áĮ ½
Î¯ Î¿
áĢ¹ áĢ±
äº Ķ
sp r
ist an
Ð»ÑĮ Ð½Ð°
Ð»ÑĮ ÐºÐ¾
con f
×¢ ×ĵ
sa ÄŁ
à¶º à¶§
à´¯ à´¤
Ùĥ ÛĨ
ko w
à´ª à´¤
Ð³Ð¾ Ð½
à¶¸ à¶§
àª° àª®
Ð½Ðµ Ñģ
og u
à°² à°ķ
sz ab
uk e
ÑĨÐ¸ ÑĺÐµ
Ð´Ð¸ Ð½Ð°
ag ra
Ð´Ðµ Ð»Ð¸
est r
pr end
à®Ł à®©
ÐºÐ¸ Ð¼
ok ol
tu ar
à²¤ à²¨
ÒĽ ÑĤÑĭ
×ª ×§
ac tiv
à°¤ à°°
Ãº t
åħ §
åħ ħ
å¤ į
à¸ª à¸²à¸¡
Ð¿Ð° ÑĢÐ°
ru g
ru p
ðŁ Ļ
áŀļ áŀİ
ung an
Î´ Îµ
Õ¡ÖĢ Õ¡ÖĢ
tr y
tr en
tr at
tr Ã¤
Äĥ n
Äĥ ng
à¤Ł à¤¨
à¤Ł à¤ķ
à²¸ à²®
for d
áĥĶáĥĳ áĥ¡
áĥķ áĥĲáĥł
áĥķ áĥĶáĥļ
à¦¬ à¦¸
gi or
×§ ×Ĳ
ant s
ant es
Ðļ Ðŀ
lu g
×¤ ×¡
à¸Ħ à¸¡
à²µ à²¨
à¶½ à¶ļ
à¶´ à·ĥ
áĥĺáĥ¡ áĥ¢
ÑĩÐ° ÑĤ
à°¯ à°ķ
Õ¯ Õ¥ÖĢ
Ø£ ÙĨ
so cia
do w
do st
ÐºÑĥ Ð¿
ÑģÐ¾ Ð·Ð´Ð°
ëĭ ĺ
à¸« à¸²à¸£
mo Å¾
cz ÄĻ
Ðŀ Ð±
Ð»Ñĸ Ð¼
áŀĶ áŀĵ
pe ÅĤ
kon tr
ä½ Ĩ
ÑģÐµ Ð´
à¨¸ à¨°
ãģŁ ãĤģ
æĸ ½
ell Ã¤
Ðĳ Ñĸ
Õ¾ Õ¡ÖĢ
å° Ĩ
áĥĴ áĥĲáĥł
áĥĴ áĥĲáĥĵ
ÑĩÐµ Ð¼
wy ch
Ø§Ø¯ Ø±
th u
ÏĨ ÎŃÏģ
àª¤ àª®
val d
Õ½ Õ¯
ãģ« ãģ¯
wi ÄĻk
à¹ģ à¸ģ
à¹ģ à¸Ĺ
Ðĺ Ð·
Å¼ e
ãģ§ ãģ¯
ä¼ ĺ
Ð´Ñĭ Ðº
à¹Ħ à¸£
Ñļ Ñĥ
å¾ ħ
å¾ ĭ
éĢ £
ty y
ä¹ ī
åŃ ©
Ð¶Ð¸ ÑĤ
Ð»Ñĭ Ð¼
æī į
ÐºÑĸ Ð½
ÐºÑĸ Ð¼
éģ ķ
au f
au g
au x
áĢŀ áĢĻ
è¦ ĸ
áĥ® áĥĶáĥļ
áĥĻ áĥĿáĥĽ
áĢ¡ áĢĻ
áĢ¡ áĢħ
ÏĢÎ¿ Î»Î¹
ìĭ ¬
mÉĻ t
mÉĻ si
áĪĪ áĪĿ
è® ®
è® º
Ð¼Ñĸ Ð½
àº§ àºĻ
àº§ àºģ
å¯ ¾
lig het
ãĤĮ ãģŁ
Î¼Î± ÏĦ
å¿ µ
çĽ Ĭ
ÑĢÐ°Ð· Ð»Ð¸
Ïİ ÏĤ
Ø§Ø³ ÛĮ
ãģĭ ãģ£ãģŁ
à¥Ī à¤Ĥ
àºª àº²
Ð³ÑĢÐ° Ð´
ÑģÑĭ Ð»
vÃ¤ t
à®ħ à®®
Ð³Ñĥ Ñĥ
å· ŀ
áĥĲáĥķ áĥĺ
col le
Ø§Ùģ Øª
ë§ Ĳ
à»Ģàº «
à»Ģàº ®
æĦ Ľ
201 3
ä¿ ®
çī ĩ
åĢ ¼
åĮ »
ê² °
cion s
by g
ä¾ Ŀ
van je
áĥ¡áĥĲáĥ Ļ
lÄ± q
èĩ ´
àªŁ àª²
à´· à´£
ëĵ ±
mon d
è´ ¨
áĥĺáĥľ áĥĲ
ÎºÎ± ÏĦÎ±
zo sta
æł ĩ
áĥĿáĥĳ áĥĺáĥ¡
æ² Ĵ
çĻ »
é¡ ŀ
ÒĽÐ° ÑĢÐ°
ÏĦÎ· ÏĥÎ·
sol u
yt et
Ð½Ð¾ÑģÑĤ Ñĸ
ÑĦÐ¸ ÑĨÐ¸
ãĤ¹ ãĥĪ
çº ¦
áĭ° áĪŃ
áĭ° áĪ¨
ÅĽci e
Î¼Î¿ Ïį
fin al
ÑħÐ¸ Ð¹
Õ¸ÖĤÕ©ÕµÕ¸ÖĤÕ¶ Õ¶Õ¥ÖĢ
jet i
ë³ µ
×ķ×ł ×ķ×ª
Õ¥Õ¶ ÖĦ
pli ca
çİ ĩ
ÑĤÐµÐ» Ð½Ð¾
áĢ¾ áĢ¯
æ± Ĥ
à¤¼ à¤¾
èĤ ¡
bol j
áĥĿáĥł áĥĺ
ÑĦÐ¾ÑĢ Ð¼Ð¸
è¶ ħ
dr Å¾
abil ir
kÃ© sz
organ is
èŃ °
ÑģÐ»Ð¾ Ð²Ð¸
Ð±Ð°Ð¹ Ð³Ñĥ
Ð³Ñĭ Ð·
Î±Ïģ Ïĩ
jum u
yy ÉĻ
à°Ĩ à°°
æħ ĭ
à¶ī à¶±
çĸ ĳ
Õ¡Õº Õ¥Õ¿
å¢ ĥ
áĥ¦ áĥķ
fac il
ÎĶ Î·
èĬ Ĥ
à¦ī à¦¨
ÉĻs indÉĻ
ãĥ¼ãĥ ī
åĥ ı
ÑĪÐµÐ½ Ð½Ñı
è« ĸ
Õ¡Õ¦ Õ´
Ã¬ nh
ç¦ ı
ëħ Ħ
áĥĶáĥ¥ áĥ¢
.... ....
å¨ ģ
Ð´ÑĢ Ð¶Ð°
áŁī áŀ¶
èĳ Ĺ
éº ¼
à¤ħà¤¸ à¤²
éŁ ³
íħ Į
ÑĤÐµÑħ Ð½Ð¾
elek tron
fÃ¸ l
ÕĪ ÕĴ
Ð³Ð»Ñı Ð´
Ð¿ÑĥÐ±Ð»Ð¸ ÐºÐ°
å¿ħ è¦ģ
áģģ áģ
Æ°á»Ŀ ng
Ð»ÐµÐºÑĤÑĢÐ¾ Ð½
0 7
0 8
4 7
6 7
A mer
A uf
B re
B as
C re
E C
E vro
F I
F il
H i
I I
K er
L a
M es
M ed
M ik
O T
P em
P ot
P RO
S ek
S ec
S pe
T R
T em
T om
W a
W e
Y A
Z A
b ie
b ÄĽ
c ro
c Ã¼
c ina
c sol
c las
d ent
d Ãº
e ar
e va
e qu
f av
f Ã¸r
g ed
g um
g ung
g Ã¡l
h ul
h tu
h ÉĻr
i an
i ge
j Å³
j Ã¡t
j ekt
k ot
k ie
k Ã¶r
l un
l ÉĻn
l Ã¡t
l iter
m and
m ÄĹ
n n
n Äħ
o di
p ing
p emb
q al
r Ä«
r Ã¦
s r
s w
s Ã¡
s ve
s ÅĤ
s ning
t ha
t tÃ¤
u ka
u cz
v ur
v Äģ
v je
w ni
w ÅĤ
z ik
z eko
Ö ´
Ø Ł
å ¶
ì ī
Ð° Ð·Ð°
Ð¾ Ð¿Ð°
Ðµ ÑĪ
Ð¸ Ð¼Ðµ
ÑĤ ÑĬ
ÑĤ Ò¯Ò¯
Ñģ Ñĳ
Ø§ ÙĪÙĦ
an j
an k
an je
an za
Ð² Ð½Ð°
Ð² ÐºÐ»Ñİ
àª Ŀ
in er
in iz
in ya
in cre
ãģ Ń
Ðº Ð²Ð¸
Ð´ Ð½
Ð´ Ð¶
Ð´ Ó©ÑĢ
ar ia
àµ Ĺ
st am
st Ã¶
Ñĥ Ñĥ
Ñĥ Ð½Ð¸
à¨ ĺ
Ð¼ Ò±
at h
re p
re ce
Ø± Ùħ
ÙĦ Ú¯
ÙĦ Ø§Ùħ
el Ã¤
el ta
Ð³ ÑįÐ»
it ud
Ð· ÑĢÐ¾
Ùħ Ø°
ÙĪ Ø·
Ñĭ Ð½
Ð± ÑĢ
Øª Ø³
Øª Ú¾
Øª ÛĲ
il ik
il gan
áĪ »
Ã¡ st
Ã¡ il
as z
as jon
ch y
ÙĬ Øª
ÙĬ Ø¨
ÙĬ Ø§Ø±
ÑģÑĤ Ð²Ðµ
un an
Ã© ri
×Ļ ×ķ
×Ļ ×ķ×Ł
Ø¯ ÙĦ
Ø¯ ÙĨ
Ø¯ Ùģ
Ø¯ Ø§Ø¯
ad an
ad em
ri cht
am b
Ã¤ m
ro b
ro p
Ñĩ ÐºÐ°
ci as
ti d
ti va
ti ve
em pi
em ento
em plo
li p
li ik
li Äį
ÐµÐ½ ÐµÑĢ
Ø³ ÛĮÙĨ
Ø¨ Ø§ÙĨ
à« ¦
à« §
om h
ÑĨ ÑĤÐ²Ð°
Ø§ÙĦ Øº
Ø§ÙĦ Ø³ÙĬ
Ð¹ ÑĤÐµ
Ð¹ Ð´Ð°
×ķ× ļ
Ñħ Ò¯ÑĢ
ÑĪ ÑĤ
ÑĪ Ð½Ð¸
ÑĪ ÑĤÐ¾
Ð²Ð° Ð½Ð¸Ðµ
ÖĢ Õ»
ãĥ Ģ
ãĥ Ķ
×Ļ× ĸ
po w
ÏĦ ÏīÎ½
Ã¶ ff
à¤ķ à¤¤
Ã¼ nd
Ã¼ mÃ¼
ek sp
ut h
áĥĺáĥ ¦
áĥĺáĥ ¬
Ð¿Ð¾ Ð»Ñĸ
Ð¿Ð¾ ÑģÑĤÐ¾
Ð¿Ð¾ Ð¿Ñĥ
Ð¿Ð¾ ÐºÐ°Ð·Ð°
ik at
à¸Ļ à¸Ķ
ä¸ ĵ
Å¡ in
ÑĢÐµ Ð±
ÐºÐ° ÑĢÑĭ
ÐºÐ¾ Ð¼Ð¸
im pre
ÑĤÐ° Ð¿
da ar
ÙĤ Ø§Ø±
ÑĢÐ¸ Ð½
ÑĢÐ¸ Ð¹Ð½
Ð»Ð° Ñģ
×Ķ ×Ľ
Äį ÃŃ
ÑĤÐµ Ð¼
ÑĤÐµ Ð»ÐµÐ¹
vi zi
ka an
Õ¶ Õ¸ÖĤÕ´
Ð´Ð° Ð³
ni r
ni ek
na zi
à®ķ à®²
Ùģ Ø¶
Ò¯ Ð³
ÏĢ Î»Î·
ÅŁ a
Î¼ ÏĨ
Î¼ Î±Î½
à¤ª à¤¦
Ø´ Ûģ
Ú© ÙĬ
Ø§ÙĨ Ú¯
Õ« Õ¡
Ð»Ð¸ Ð¼
Ð¼Ð° Ð³
à®¤ à®°
Ð²Ð¾ ÑĢ
á» ī
à¤µ à¤²
×Ĳ ×ķ×ª
ÑĤÐ¸ Ð¼
ÑĤÐ¸ ÐºÐ°
Ð·Ð° Ñħ
Ð·Ð° ÐºÐ¾Ð½Ð¾
je ct
×ľ ×Ľ
×ľ ×¦
Ð²Ð¸ Ð½
à·Ģ à¶§
Ïħ Î³
Ïħ ÏĢÎ¿
ver t
×ĳ ×ķ×ĵ
ob ja
Ø§Ø± Ùĩ
ÑĤÐ¾ Ð¼
à¤¦ à¤¨
áĮ ¨
ve c
ve is
Ñİ ÑĨÑĮ
à¥ģ à¤Ĥ
sp Äĵ
à´Ł à´¨
Ã§ alÄ±ÅŁ
à¶Ń à¶º
Ùĥ ÛĪ
ud u
Ð³Ð¾ Ð²
×© ×ĺ
à¶¸ à¶»
ba j
sz ak
Ø² Ø±
áº ±
à¸§ à¸ģ
Ù¾ Ûģ
Ù¾ Ø±ÙĪ
áĥĽ áĥ®
ag en
ag re
×ł ×¡
×ł ×Ļ×Ŀ
ya an
à³ģ à²Ĥ
ati vo
à®Ł à®°
ok u
Ð²Ðµ Ð´ÐµÐ½
×ª ×Ĺ
à¤¬ à¤¸
à¤¬ à¤²
à¤¬ à¤ļ
ke y
Ð±Ð° Ð»
áĥ£ áĥĽ
áĥ£ áĥ¡
åı ĺ
à´® à´±
Ú¯ Ùĩ
Ð¿Ð° ÑĤ
ÐĲ Ð¢
à°ª à°¡
áŀļ áŀĦ
lo p
ÑģÐ° Ð»
ÑģÐ° Ð´
à®µ à®³
Ð¾Ð± Ñı
Ð¾Ð± Ñī
Øµ Ø¯
ä» İ
ä» ķ
Ã¦ re
à¨° à¨¤
Ð¼Ðµ ÑģÑĤ
ec to
áĥķ áĥĲáĥļ
ÐŁ ÑĢÐµÐ´
à¦¬ à¦²
Õ¥Õ ¦
Õ¥Õ º
Ð±Ð¾ Ð»Ð¾
×Ĺ ×§
Ãª m
Ãª r
hi er
×¤ ×§
åĪ ¤
åĪ «
åĪ Ĺ
à°¦ à°¨
he im
ho u
à¤ļ à¤²
Ø· Ø©
Äĵ jÄģ
Ø£ Ø³
com e
do ÄŁ
do cum
à¦¸ à¦¬
ãģĹ ãģı
Ð¶Ð° Ð»
à°® à°°
ÑģÐ¸ ÑĤÑĥÐ°
áīµ áĭ®
à¦ª à¦¨
ÑģÐµ Ð¿
ÑģÐµ Ð´Ð°
Ðł Ð¾
Ð¿ÑĢÐµ ÑĤ
Ð¿ÑĢÐµ Ð´Ñĥ
à·Ħ à·ĥ
ÐĶ Ð¸
à¤ħ à¤¤
à¤ħ à¤ª
à®¯ à®°
Õ¾ Õ¸ÖĤÕ´
à®ļ à®°
çĶ ±
çĶ ³
Ð¿ÑĢÐ¸ Ñı
ff en
ÖĦ Õ¡Õ²Õ¡ÖĦ
Õ½ Õº
Ð¿Ðµ Ð¹
Øº Ø§
ÑħÐ¾ Ð»
mu ÅŁ
æĪ ·
Ð²Ñĸ Ð¹
Ú¾ ÙĨ
àª¸ àª°
áĥĹ áĥķáĥĺáĥ¡
áŀĺ áŀĵ
ÏĦÎ± ÏĤ
Ðĺ ÐĿ
ÙĪÙĨ ÛĮ
cu ri
ä¼ ´
ä¼ ģ
åį Ĭ
åį ı
åį ķ
à¤· à¤ķ
à²ª à²¡
Ð½Ñĥ Ð»
Ð½Ñĥ Ñİ
éĢ Ł
Ûĩ ÙĨ
ä¹ ħ
Ð±Ð¸ ÑĢÐ°
à¶ľ à¶¸
åŃ £
åŃ Ĺ
à¸²à¸£ à¸ĸ
Ø§Ø¦ ÛĴ
å¹ ¿
Ð»Ñĭ Ð¿
à¬® à¬¨
ÑĨÑĸ Ð½
Ð°ÑĢ Ð¼Ð°
ê° ģ
éģ ©
áĪĺ áĪį
áĪĺ áĪµ
åĽ Ľ
kl ju
Ð¸Ð½ ÑĤÐµÑĢ
áĢľ áĢĬ
Ã¢ y
all er
ation s
ate Ä¾
ÙĨØ¯ ÙĪ
Ð¼ÐµÐ½ Ð°
Ã¡n h
ÏĥÏĦ Îµ
áĢ¡ áĢĢ
à¸Ĭ à¸²
Ð±Ðµ ÑĢÐµ
ç» Ł
áĥ¨ áĥĶ
è® ©
è® ĵ
Ð¼Ñĸ Ð½Ñĸ
à´ħ à´²
Ø§Ø³ ÙĬ
sl ed
sl oven
ãģĭ ãĤĬ
int Ã©
ill er
æĢ ģ
áĤ Ģ
à¶ħ à·Ģ
à¶ħ à¶º
ãģĵ ãĤĮ
áĢ½ áĢ¬
ÑģÑĸ Ð¼
Å¥ a
æ° £
æŃ ¢
à®ħ à®©
Ã©r t
å· ±
å· ´
Ð±Ñĥ Ð´Ñĥ
å½ ©
ë§ ¤
Õ«Õ¶ Õ¹
áŀ» áŁĨ
à»Ģàº Ľ
cor re
201 2
Ã´ n
Ø§Ùĩ Ø¯
pos iti
ÑĻ Ð¸
åĨ ³
mem per
ä¾ ĭ
å± ±
Õ¸Õ ·
àº´ à»Ī
áĥ¡áĥĲáĥ ¡
àº« àº¡
ìĸ ĳ
áŁģ áŁĩ
áĥ¬ áĥ§
tem por
à¨Ĺ à¨°
mon i
Îķ Î»
éĸ Ģ
àºĹ àº°
kor zy
è¾ ¦
è¾ ¾
àª¬ àª¨
ìĤ °
à¨¬ à¨°
áĥª áĥĺ
Pro f
bor g
à©ĭ à¨Ĥ
ç´ Ħ
çĻ ½
áĥ¤ áĥĿáĥł
ÑĥÐ²Ð° ÑĤÐ¸
Ø§Ú º
à²ľ à²¨
dir il
âĢ ľ
èª ª
èª ¿
ÏĦÎ¹Îº Î¬
é¢ Ĩ
stu di
usi a
èģ Į
ØªÙĪ Ø§ÙĨ
éļ Ľ
ost at
wer k
Ð·Ð¾ Ð²
çµ Ħ
çµ Ĳ
Î¼ÎŃ Î½Î¿
Ä±l masÄ±
dar b
Ð·Ñĥ Ð»ÑĮ
Å¡t ÄĽ
ëª ©
íĻ ķ
à©Ĥ à©°
áº£ i
kÃ© p
ÃŁ en
organ iza
Ð»ÐµÐº ÐµÑĤ
fol y
áºŃ p
àªħ àª®
æ¨ £
ì² ľ
ì² Ń
sig ni
ÑĴ Ð°
ÑģÐ»Ñĥ Ð¶
ë² ķ
à¬ħ à¬¨
ÑĨÐ¸ÑĺÐ° Ð»
ìĹĲ ìĦľ
åĤ ³
ÑĢÑı Ð´
ãģĿ ãģ®
ÙĨÙĩ Ø§
á»ĳ ng
resp on
èĭ ±
ì° ¨
çĹ ħ
ê± ¸
ì¹ ´
à¹Ģà¸Ĺ à¸¨
èĲ ½
à¹Ģà¸« à¸¥
åĥ ¹
æº Ĳ
ãģ© ãģĨ
ëħ ¸
áĪĨ áĬĲ
ë¯ ¼
åĶ ®
é¤ Ĳ
Ð¹Ñĭ Ð½
×¨×Ĳ ×©
çŁ¥ éģĵ
éª Į
ogra f
æ¿ Ģ
æĩ ī
Õ¸ÖĤÕµ Õ¶
vÄĽ t
ìĻ Ģ
à»ĥ àºĻ
Î´Î· Î¼Î¿
íĨ ł
áĥĲáĥĸ áĥĶ
ç¡ ®
ÐºÓ©ÑĢ ÑģÐµ
á»© c
çĬ ¶
á»¥ c
jn Ã«
hist or
Ð¼Ð¸Ð½Ð¸ ÑģÑĤÑĢÐ°
wiÄħ z
ì¢ ĭ
Î³ÏģÎ± ÏĨ
ãģĵãģ¨ãģĮ ãģ§ãģį
áĬ¢ áīµáĭ®
áī¶ áī½
dod at
Ð¸ÑģÑĤÐ¾ ÑĢÐ¸
á»Ŀ i
Ð¸Ð½ÑĤÐµ ÑĢÐµ
ä¸ĸ çķĮ
æ²¡ æľī
Ð¾ÑĢÐ³Ð°Ð½Ð¸ Ð·Ð°
0 2
5 7
5 9
6 9
8 8
A f
A v
A fri
B en
B ak
D en
D ru
D ef
E G
F A
F er
G o
H r
H y
I s
I nd
J e
J um
K U
K h
K al
K ri
M ah
N ach
O l
P R
P os
R am
S A
S I
S to
T en
T ER
U B
V E
V o
V el
V Ã¤
W A
a cht
b id
b ha
b Ãº
c ru
c rit
d un
d ing
d ÄĹ
d ÉĻn
d Å¾i
e val
f Ã¶l
g w
g us
g lich
h j
h v
h ud
h Ã¶r
h all
i q
i ek
i zi
j de
j Ã¡r
k Ã¸
k ara
k ning
k eli
k rit
l j
l ot
l Ã¡n
m j
m ang
m ento
m Ã©r
m esi
m uni
n s
n il
n ation
n ologi
p sy
r r
r Ãł
s re
s os
s Äħ
t ti
t ru
t ung
t Ä«
t Ãµ
t ori
t vr
v ek
v ing
v og
v are
x t
x ar
y el
y as
y ta
y tÃ¤
z mi
z Äħd
Ä µ
Å ļ
Å Ŀ
Ð ®
Õ Ŀ
â ī
â ļ
é ´
ê ¿
ë ľ
ì į
áĥ °
áĥ Ł
Ð° Ð³
Ð° Ñı
Ð° Ð´Ð°Ð¼
Ð½ ÑģÐºÐ¾
Ð¸ ÑĢÑĥ
à° Ĵ
ÑĢ Ð±Ð¸
à² ĺ
en ÃŃ
en sk
Ñģ Ð¼Ð°
Ñģ Ð²ÐµÑĤ
er ci
er te
Ø§ ÙĪØ±
Ð» Ñĳ
Ð² ÑģÑı
Ð² ÑģÐµ
in ÉĻ
in ÄĹ
Ðº ÑĤÐµ
Ðº Ð»Ð¾
Ð´ Ñı
Ð´ ÑįÐ»
áŀ Ī
áŀ Į
à¬ ŀ
ar k
ar ma
ar kan
st ol
st ed
st ic
st ant
st Ã¥
Ñĥ Ðº
Ñĥ Ð´Ð¸
Ñĥ ÑģÐ¿Ðµ
Ð¿ ÑģÐ¸
Ð¼ Ð½Ð¸
at te
on ta
on go
on ale
re a
re y
Ø± Ø¬
ÙĦ Ùģ
Ñĸ Ñģ
Ñĸ Ð»
Ð³ Ð»
Ð³ ÑĢÐ¸
ÙĨ Ú©
Ùħ ÙĪÙĦ
ÙĪ Ø§Ø¨
Ð± Ò¯ÑĢ
Ð± ÑĬÐ»
is o
et y
et ter
ra b
ra c
ra j
áĪ Ģ
áĪ ľ
Ã¡ ch
Ã¡ si
ÙĬ Ø§ÙĨ
ÑģÑĤ ÑĬ
un u
un ge
Ã© ho
Ã© ben
ol un
Ø¯ Ø§Ùħ
Ø¯ ÙĬØ¯
am s
am in
Ñĩ ÐºÐ¾
Ñĩ Ð½Ð¸Ñħ
ci pi
di h
di men
di ca
di fer
Ä± k
Ä± sÄ±
li y
li ke
li che
áĥĲáĥ «
Î¿ Î¹
Î¿ Î¹ÎºÎ¿
ÐµÐ½ ÑĤ
Ø³ Ø³
Ø³ Ùĥ
Ø³ Ø§Ùħ
Ø¨ Ûķ
à« ĥ
Îµ Î³
Îµ Ïĩ
Ð¶ Ð½
ent er
àŃ ¨
áī ĭ
si mo
à¸² à¸Ĺ
ÑĪ Ð½Ð¾
ed o
ed z
ãĥ ¯
ãĥ Ĭ
à¤¨ à¤ķ
áĥĶáĥ ¨
Ïģ ÎµÎ¯
Ïģ Î¹Î±
po k
po v
Ã¶ m
Ã¶ ÄŁ
à¤ķ à¤¸
à¤¤ à¤ª
Ã¼ gy
ek e
Ùĩ Ø¯
áĬ ŀ
Ñį ÐºÐ¾Ð½Ð¾Ð¼Ð¸
ut at
Ð½Ð¸ Ð½
áĥĺáĥ «
à´ķ à´²
ÑĢÐ¾ Ð¼
de fin
ing an
te en
la ik
Ïĥ ÎºÎ¿
ÑĢÐµ Ð´Ð¸
ÑĢÐµ Ð·ÑĥÐ»ÑĮ
ÐºÐ° Ð¹
ÐºÐ¾ Ðµ
ÐºÐ¾ Ð»Ð°
im pi
im ento
à¦¾ à¦Ĥ
da Å¾
ÙĤ ÙĪ
ÙĤ Ø¯
ÙĤ Ùĩ
ÙĤ Ø·
à¤® à¤ķ
à¤® à¤²
Ð»Ð° ÑĤ
Ð»Ð° Ð´Ñĭ
×Ķ ×ĸ
vi h
vi es
ka ik
Îº ÏģÎ±
Õ¶ Õ¡Õ¯Õ¡Õ¶
Õ¶ Õ·
Õ¶ Õ¹
Ùī Ø²
Ùī ÙĦÙī
Ùī ØªÙī
ni o
ni ec
ni co
na Å¡
×¨ ×Ļ×Ŀ
Ò¯ Ðº
ÏĢ Î¹
ma y
ma il
ma ya
à°° à°¤
ov o
×ŀ ×ķ
×ŀ ×ķ×¨
×ŀ ×ķ×ĵ
Ø§ÙĨ ÛĴ
ab sol
Ð»Ð¸ Ðº
Ð»Ð¸ Ñı
Ð¼Ð° ÒĽ
Ó© Ð´
×Ĳ ×ķ
se c
à²° à²£
ÑĤÐ¸ Ð»
ÑĤÐ¸ ÑĢÐ°
Ð·Ð° ÑħÐ¸
Ð·Ð° ÑīÐ¸
×ľ ×¤
Ð²Ð¸ ÐºÐ¾ÑĢÐ¸
ge st
ge sti
à¸¡ à¸ŀ
à¦° à¦®
à¦° à¦£
pro g
pro m
pro ces
pro jek
áĥĿáĥ Ļ
iz m
Ïħ Î½
id u
id ent
ÑĤÐ¾ ÑĤ
ÑĤÐ¾ Ð¹
ØŃ Ø©
ØŃ Øµ
Õ¡Õ¶ Õ¯
Õ¡Õ¶ Õ£
áĮ µ
Î¯ Î´
áĢ¹ áģĭ
Ñİ ÑĤÑĮÑģÑı
äº ī
äº ļ
ist Ã¤
à¶» à·Ģ
à¶» à¶ļ
à¶» à¶§
×¢ ×ľ
à´Ł à´ķ
Ð»Ð¾ Ð³Ñĸ
sa h
sa hi
Ã§ Ãµes
à¤¹ à¤£
à´¯ à´ķ
Ùĥ ÛĲ
qu a
à´ª à´ķ
Ð³Ð¾ ÑĢ
Ð³Ð¾ Ð´
Ð³Ð¾ Ð²Ð¸
à¶ļ à¶¸
×© ×Ľ
×© ×Ļ×Ŀ
Ð´Ð¾ ÑĢ
à¶¸ à·Ħ
àª° àª¤
ba ar
Î¬ Î¶
sz em
à¬° à¬¹
áº ©
áº »
à¸§ à¸Ķ
Ù¾ ÙĪ
à¤Ĺ à¤£
áĥĽ áĥĲáĥľ
×ł ×§
Ø® ÛĮ
áĥ¡ áĥŀ
pre mi
pre par
pre ven
est ra
pr Ã©s
à´² à´¯
ÐºÐ¸ Ð½
ok s
tu ri
Õ´ Õ¡ÖĢ
ÎŃ Ïĩ
ÅĤ at
à´µ à´¸
ÒĽ Ñĥ
ac k
ac t
ac ces
áĢ± áĢ»
à®® à®ķ
Ãº l
Ãº bli
à¸ª à¸ĩ
à¸ª à¸Ķ
Ú¯ ÙĪ
Ú¯ Ø²
Ð¿Ð° Ð´Ð°
Ð¿Ð° ÑĢÐ°ÑĤ
ru ar
áŀļ áŀŁ
Ð¼Ð¾ Ð²
Ð¼Ð¾ Ð³Ñĥ
ca st
ÏĮ ÏĦÎµÏģ
ÏĮ ÏĦÎ·ÏĦÎ±
Õ¡ÖĢ Õ¡Õ¶
à°µ à°ļ
áĥļ áĥĶ
å® ¤
å® ĺ
Ð¾Ð± Ð¸
Øµ Ùģ
ku ri
for sk
Ð¼Ðµ ÑĤÐ¾
ÄŁ Ä±nÄ±
ec z
áĥķ áĥĲ
Ð¼Ð¸ Ð»
×Ĺ ×©
×Ĺ ×ª
wa y
×ĵ ×Ļ×Ŀ
Ðļ Ñĥ
Ø¦ Ø§
Ð¿ÑĢÐ¾ Ð´ÑĥÐº
mi ento
Ã¥ t
áĥĺáĥ¡ áĥ¢áĥł
ÑĩÐ° Ð¹
áŀŁ áŀĵ
áĥĵ áĥĺ
áĥĵ áĥĶáĥĳáĥĲ
Ð½Ñĸ Ð·Ð°
cz as
Ðŀ Ðł
Ðŀ ÐĶ
Ð¶Ð° Ð½
Ð»Ñĸ Ð½
à²¯ à²ķ
ÄĽ l
kon tak
Ïĩ Î®
Ð¿ÑĢÐµ Ð´Ð¾
Ð¿ÑĢÐµ Ð´Ð¸
ãģŁ ãģ¡
nd Ã«r
à®± à®¤
ÐĶ Ñĥ
×Ĵ ×ĵ
à¤ħ à¤Ń
å° İ
çĶ ¢
çĶ ·
Ð¿ÑĢÐ¸ Ð¹
Ð¿ÑĢÐ¸ ÑĺÐ°
ff e
à¸¸ à¹ī
Ø³Øª Ùĩ
wy d
ÅĽ l
Ø§Ø¯ ÙĬ
ãģ¨ è¨Ģ
Î¸ Î½
Î¸ Î®
íķ ł
ÑĤÑĭ ÒĽ
Ð¿Ðµ ÑĢÐµÐ´
ÚĨ Ú¾
Øº ÙĦ
Øº ÙĬØ±
Ð´Ñĥ Ð²Ð°
åĬ Ł
à¸Ľ à¸¥
ÑģÑĥ Ð´Ð°ÑĢ
bu h
àºĶ àºķ
à¹ģ à¸ļ
are a
gu e
Ð»Ñı ÑĢ
Ð¿ÑĢÐ° ÐºÑĤÐ¸
gen s
à±ĭ à°Ĥ
áĢ¼ áĢ¸
ÙĪÙĨ Ùĩ
ä¼ ĳ
ä¼ Ĺ
åį İ
à¬¸ à¬¨
à¹Ħ à¸¥
pen s
å¾ ®
éĢ ī
ìĹ Ń
Ûĩ Ø´
ä¹ ł
Ø§ÙĦÙħ Ø¹
Ð¶Ð¸ Ð²Ð°
Ø§Ø¦ Ø±
Ø§ÛĮ Ø´
Ð»Ñĭ Ðº
à»Ģ àºª
Ðķ Ðł
éģ Ķ
ll er
Õ£ Õ¶
Õ£ Õ¿
à¨ķ à¨¤
Ã¢ nd
æĹ ħ
ck er
Ð¾ÑĤ ÑĢÐ¸
à²¬ à²¹
Ð´Ñĸ Ð²
ç» Ń
à¤Ĩ à¤°
à¤Ĩ à¤¤
à¤Ĩ à¤«
Ã¤n der
áĥ¨ áĥĶáĥĽ
àº§ àºĩ
Ðĵ Ð°
áĢ· áĢ¹
áīł áī°
à´ħ à´Ń
ÑĢÐ°Ð· Ñĥ
è¯ Ĩ
ren di
ren de
mar t
æĢ İ
à¶ħ à¶´
ìĦ ¤
ãĥ³ ãĥĪ
à®ħ à®µà®°
Ð·Ð½Ð° ÑĩÐµÐ½
ker es
Ð£ ÐºÑĢÐ°
Ò¯Ò¯ ÑĢ
col o
Ù¹ Ú¾
áĭ« áĬķ
áĥŀ áĥĲáĥł
Ã¼n Ã¼
å¤§ çļĦ
è§ Ģ
Ã´ i
ÑħÐ° Ð¼
sy stem
ÑģÐºÐ° ÑĤÐ°
ÑģÐºÐ° Ð·Ð°
åĮ ħ
nik a
gr und
ê² ł
à¤ĩ à¤²
áĥĶáĥľ áĥĺ
åĵ ª
à®ĩ à®¤
ÑģÑĤÑĢÐ° ÑĤÐµ
áĬ¥ áĪµ
è¾ ¼
à¤Ľ à¤¨
áĪ¨ áīµ
ÏĢÎ± Î¹Î´
Õ¡Õ¾ Õ¡ÖĢ
zd ra
zd rav
ÑģÐ¿Ð¾ ÑĢÑĤ
×Ļ×Ļ× ł
áĥ£áĥł áĥĹ
bes ch
ÐºÐ¾Ð½ ÑģÑĥ
Õ¬ Õ«
à°· à°¨
ÙĪÚ ĵ
çº ¿
çķ Ļ
áĢĨ áĢĦ
ç« Ļ
tri bu
ket a
é¢ ¨
è² »
à®´ à®ķ
áī£ áĪĪ
áĥĺáĥĹ áĥ®
Ð¤ Ðµ
Ð¾Ð´ Ð½Ð¾
à¦ĩ à¦¨
ÏģÎ¹ Î¿
áĥ§ áĥĿáĥ¤
Õ¡Õ¼ Õ¡Õ»
tig t
emb re
áº¡ n
áĢ¾ áĢŃ
éł Ĳ
íķĺ ëĬĶ
ìĤ¬ ëŀĮ
yor um
éĤ Ħ
à¬ĩ à¬¥
åŁ Ł
è© ¦
ãģĽ ãģ¦
Õ«ÖĢ Õ¡Õ¾
è½ ¬
áº£ ng
rel se
ÕĢ Õ¡Õµ
èŃ ·
áīħ áĪŃ
Ø§Ø® Øª
dem ok
ë© °
ì² ĺ
íĬ ¹
ÒĽÑĭ Ð·
ÑĴ Ñĥ
áĥĲáĥª áĥĺ
èĩª å·±
ë² Ħ
Ð³Ñĭ Ð½
fre m
é© Ĺ
ãģĿ ãģĨ
íĺ Ħ
ÙĤÙī ÙĦÙī
Õ¡Õ· Õ¿
tÃ¶ Ã¶
ãĥ© ãĥ³
fy l
åĦ ¿
ê± ´
Ð¿Ð¾Ð» Ð·Ð²Ð°
Ôµ ÖĢ
áĪª áĭ«
áĢĿ áĢĶ
áĥĺáĥķ áĥĺ
à¨ĩ à¨Ĩ
à§¦ à§§
á»ģ u
ãģĦãģŁ ãģł
åł´ åĲĪ
slu Å¾
å© ļ
áĥĲáĥ¨ áĥĺ
!! !!
çħ §
ÑģÑĮÐºÐ¾ Ð³Ð¾
ÑģÑĮÐºÐ¾ ÑĹ
rend el
ç¿ Ĵ
áĤı áĢ½
ÉĻlÉĻ ri
ç¤¾ ä¼ļ
Un ter
Ð¿Ð¾ÑĤÑĢÐµ Ð±
áŁĬ áŀ¸
progra m
áĭļ áĪħ
prez ent
ÅĽwi ad
Ð¾Ð±ÑĢÐ°Ð· Ð¾Ð²Ð°
áĢ¶áĢ¯ áĢ¸
çłĶ ç©¶
ãĥ¥ ãĥ¼
keÃ§ ir
Ä«b Äģ
Ð±Ð»Ð° Ð³Ð¾
íĴ Ī
Î¼Î±ÏĦÎ¿ ÏĤ
Î³Î½ Ïī
upor ab
à¸ªà¸²à¸¡ à¸²à¸£à¸ĸ
áĤĢ áĢĢ
0 4
B I
B aÅŁ
C A
C E
C li
C ap
D O
D ur
E st
F e
G ro
H ab
J an
K I
K es
K ad
K Ã¶
K os
L in
L is
L Ã¤
M y
M ÉĻ
M ak
O p
P O
P i
P ag
Q U
R us
S in
S om
S ab
S ig
S tu
S tr
S tat
T a
T y
T ri
T Ã¼r
U t
V en
V ol
W i
a ud
b um
b og
b end
b ÄĻ
b ind
b ry
c ob
c Ä«
c rÃ©
d ak
d hi
d itu
d Ã´
d Ã¼r
f n
f Ã¡
f os
f od
f ter
f ÉĻr
f all
f ej
g ÉĻ
g om
g ek
g eg
h h
h Ã³
h ere
i u
j og
k Äģ
k Ãª
l ant
l Äĵ
l Ãµ
m ic
m iz
m ud
m Äĥ
m ÉĻr
n in
n Ã¼
n Ã¦
n Ã¥
n jo
n Ã¦r
o ci
o cu
p Ã¡
p Ã³
p Äĥ
p Äĵ
p ect
q Ã«
r Ã¶
r Äĥ
r Ã¡s
r ation
s ov
s ap
s ung
s op
s Ã½
s co
s ell
s ÉĻr
s Ã£o
s emb
t ang
t Ä±r
u stu
v s
v ang
v Äĥ
w ala
w szy
x an
x al
x we
y st
y il
y dd
z al
z wy
z lich
Î Į
Ð ¬
Ñ Ł
æ «
é ®
é ¯
ë ®
ë »
ì ·
ï Ĵ
à¤ Ĳ
à¤ Ķ
Ð° ÑĢÐ¸
Ð° ÑĢÑĭ
Ð° Ð³ÐµÐ½
à¸ Ĵ
Ð¾ Ð¹
Ð¾ ÑĩÐµ
Ð¸ ÑĤÐ°
Ð¸ Ð³ÑĢÐ°
Ð¸ ÑģÐº
ÑĤ ÐºÐ°
ÑĤ Ó©ÑĢ
ÑĤ ÑįÑĢ
ÑĤ Ó©Ð»
áĢ ı
à² ı
en se
Ñģ Ñİ
Ñģ Ð¿ÑĢÐ¾
Ñģ Ð½Ñĸ
Ñģ Ð»Ñĸ
er ta
er to
Ð» ÑįÐ³
Ð² Ð½Ðµ
Ð² Ð»Ðµ
in ci
in im
ãģ ĸ
Ðº ÑĢÐµÑĤ
Ð´ ÑĮ
Ð´ ÑįÐ³
à¬ ĵ
ar bet
àº Ł
Ñĥ Ð»Ð¸
Ñĥ Ð±Ð¸
Ð¿ ÑĬÑĢ
à¨ Ĳ
à¨ Ľ
à¨ ł
Ð¼ Ð»ÐµÐºÐµÑĤ
at lar
al es
al ak
al ter
re cu
Ø± Ø§ÙĨ
Ø± Ø§Ùħ
Ø± Ú©Ú¾
or s
or ig
Ð³ Ó©Ð½
ÙĨ Ø§ÙĨ
ÙĨ Ø§Ùħ
it os
it Äģ
Ð· Ð½Ð¾
Ð· Ð½Ð¸
Ð· Ð²Ð¸
ÙĪ ØŃ
ÙĪ Ø§ÙĤ
Ð± ÑĢÐ¸
Ð± ÑĬ
is z
is on
is ch
is mer
es col
et ta
il s
il y
Ñı Ð²Ð°
Ã¡ i
Ã¡ ÅĻ
Ã¡ ciÃ³
ch an
ch ten
ÙĬ ÙĬ
ÙĬ Ø³
ÙĬ ÙĪÙĨ
ÙĬ Ø¡
un o
Ã© e
Ã© ly
Ø¯ Ûģ
Ø¯ ÙĪØ±
ad at
ad da
ad ap
ÑĢÐ° Ð´Ð¸
ro Äį
Ñĩ Ó©
ÉĻ ri
di j
di ag
di rec
em pre
Ä± t
li it
li yi
Ø³ Ø¹
Ø³ Ù¾
Ø¨ Ø®
Ø¨ Ø±ÛĮ
Ø¨ ÙĪØ¯
áŁ Į
Îµ Î´
Îµ ÏĨ
Ð¶ ÑĥÐ²Ð°
ent lich
Î¹ Î»
Ð½Ð° Ðº
Ð½Ð° Ð¼Ð°
Ð½Ð° ÑĢÑĥ
Ð½Ð° ÑģÐµ
×ķ× £
áī ´
si r
Ñħ Ðµ
Ñħ Ð°Ð»
Ñħ Ò¯Ò¯
ÑĪ Ð»Ð¸
ed y
Ð²Ð° ÑĢ
ãĥ ¢
ãĥ į
ãĥ Ļ
ãĥ Ŀ
ãĥ ł
×Ļ× £
áĥĶáĥ Ŀáĥĳ
áĭ ¶
áĭ ľ
po sa
po zy
à¤¤ à¤¸
à¤¤ à¤²
Ã¼ s
Ùĩ ÛĮ
Ùĩ Ø§ÛĮ
áĬ ¤
áĬ ®
Ð½Ð¾ Ðº
Ð½Ð¸ ÑĺÐ°
áĥĺáĥ ŀ
Ð¿Ð¾ ÐºÐ°
Ð¿Ð¾ Ð½Ñı
Ð¿Ð¾ ÑģÑĤÐ°Ð²
à¤¸ à¤¤
ik t
le c
le x
le y
le ga
le het
Ø§Ø ¤
Ø§Ø ¸
ÑĢÐ¾ Ðº
de b
à¸Ļ à¸ķ
à¸Ļ à¸ĺ
te a
te is
Å¡ nj
os z
ÐºÐ° ÑĢÐ°
ÐºÐ° Ð½Ð°
ÐºÐ¾ Ð²Ð¾
ÐºÐ¾ Ð¼ÐµÐ½
im en
im por
ÑĤÐ° Ð¶
da pat
ÙĤ Ø¨
à¤® à¤¦
à¤® à¤ļ
Ð»Ð° Ñĥ
Ð»Ð° Ð´Ð¸
Ð»Ð° ÑģÑı
Äį k
Äį ne
Äį ia
vi er
vi ol
vi ce
Îº Î®
Îº Î»Î·
à·Ĵ à¶Ĥ
Ð´Ð° Ð²
Ð´Ð° ÑĤÐ°
Ùī Ùħ
Ø¹ ÙĬ
Ø¹ ÙħÙĦ
na ud
à®ķ à®£
×¨ ×ĺ
Ùģ ÙĦ
Ò¯ ÑĪ
ÏĢ ÏĦ
ÏĢ Î¯
ÏĢ ÏģÏī
ÅŁ kil
à¸Ń à¸°
ma in
à¤ª à¤Ľ
à¤ª à¤¢
Î» ÎµÏħ
Î» ÏĮÎ³
×ŀ ×¤
×ŀ ×Ļ×Ŀ
à¸ģ à¸²
Ø§ÙĨ Øª
Ø§ÙĨ Ûģ
ab an
Õ« ÖĦ
Ð»Ð¸ Ð³Ð¸
od at
Ð¼Ð° ÑĤÐ°
Ó© Ñħ
zi al
ne y
ÑĤÐ¸ ÑĤÐµ
ÑĤÐ¸ ÑģÑı
Ð·Ð° Ð³Ð°
Ð·Ð° Ð»Ðµ
ic kÃ©
Ø¬ ÙĦ
Ø¬ Ø²
Ø¬ Ûģ
iz za
va j
ÐµÑĢ ÑĤ
ver n
×ĳ ×§
×ĳ ×ĵ
sk up
Õ¡Õ¶ Õ¸ÖĤÕ´
áĮ Ń
ha i
ang o
ve Äį
äº Ĵ
ist en
ist in
Ð»ÑĮ ÐºÐ¸
Ð»ÑĮ Ð½Ñĭ
Ð»ÑĮ ÐºÑĸ
à¸¢ à¸ļ
con ver
no ti
×¢ ×ķ×ª
Ð»Ð¾ Ð²Ðµ
za j
à¶º à¶¸
Ùĥ Ùħ
Ùĥ ÙĪÙħ
Ùĥ ÛķÙĨ
to p
ko st
qu is
qu Ã©
Ð³Ð¾ ÑĤ
à¶ļ à¶½
Ð´Ð¾ Ð²Ð°
Ð´Ð¾ ÑģÑĤÐ°
à®ª à®ķ
ÑĦ Ð¾Ð½
ÑĦ Ð¸Ð·Ð¸
à®° à®®
sz Ã¡g
à¬° à¬£
áº ¹
ÑĨÐ¸ Ð¹
ÑĨÐ¸ Ñİ
Ù¾ ÙĦ
áĥĽ áĥĲáĥłáĥĹ
Ø® ÙĪØ¯
áĥ¡ áĥ¬
pre vi
Ð´Ðµ Ð»ÐµÐ½
ya h
à¸Ķ à¸ª
Ð²Ðµ Ð´Ð°
ÅĤ e
æľ ĭ
Î³ ÎµÎ½
Î³ ÏģÎ¬
ÑģÑĤÐ° Ð½Ð¾Ð²Ð¸
×ª ×¨
à¤ľ à¤²
à¤¬ à¤¹
ke zd
ac om
à·ĥ à¶Ń
à®® à®¤
Ð±Ð° Ñģ
Ãº r
åħ ©
åħ ¸
åħ »
åı ¤
åı ²
å¤ «
å¤ Ħ
å¤ ĩ
à¸ª à¸£
à´® à´¤
áŀļ áŀĢ
áŀļ áŀĩ
Ð¼Ð¾ ÑĢ
Ð¼Ð¾ Ð»Ð¾
Ð¼Ð¾ Ð¶Ðµ
ÑĢÑĥ Ñĥ
lo cal
Ã¸ m
Ã¸ y
ÏĮ Î»
Ä« g
Øµ ÙĨ
Øµ ÙĪØ±
à¨° à¨¹
à¶¯ à¶ļ
áĥķ áĥĺáĥļ
áĥķ áĥĺáĥĹ
áĥķ áĥĺáĥļáĥĺ
ÐŁ Ñĥ
×§ ×ķ×ŀ
à¸Ĺ à¸²à¸ĩ
×ĺ ×Ĳ
Ð±Ð¾ ÑĢÐ°
bi bli
Ð¿ÑĢÐ¾ ÐµÐº
áĢĲ áĢħ
åĪ »
he z
à¤ļ à¤°
ÑĩÐ° ÑĢ
par e
Ðľ Ñĥ
áŀĵ áŀĢ
Õ¯ Õ¡Õ¼
com ent
áį ķ
ÑģÐ¾ Ð³Ð»Ð°
ÑĢÑĭ Ð¿
ÑĢÑĭ Ð¼Ð°
áŀŁ áŀĦ
ëĭ ¬
áĥĵ áĥĴ
áĥĵ áĥĲáĥ¡
Õµ Õ¡Õ¬
Ð»Ñĸ Ð³Ñĸ
áŀĶ áŀī
åĲ ¦
åĲ «
ji em
kon fer
áĢĶ áĢļ
à¦ª à¦¤
Ã¡l nÃŃ
à¨¸ à¨¤
pl ement
Õ° Õ¡Õ¾
Õ° Õ«Õ´
åľ Ĵ
ah kan
àª® àª¹
ãģª ãĤĬ
ãģª ãģ£ãģ¦
Ðĳ Ð¸
áĥĴ áĥĲ
áĥĴ áĥł
çĶ »
à¬¤ à¬°
Ñŀ ÑģÑı
ä¸Ģ å®ļ
ä¸Ģ åĢĭ
wy kon
Ø§Ø¯ Øª
Î¸ ÎµÏģ
íķ Ń
th er
ÏĨ Î±
àª¤ àª°
pu b
pu ol
ÑĤÑĭ ÑĢ
ÑĤÑĭ Ðº
áĥĲáĥł áĥ¡
è¿ İ
Ð´Ñĥ Ð¼
mu ut
wi el
Ð²Ñĸ ÑĢ
Ð²Ñĸ Ñĩ
åĬ ¿
bu at
Ä±n Ä±z
tra g
tra s
à¤Ń à¤°
àºĩ àº²àºĻ
ili b
ada u
jo it
sen y
sch en
Õ¤ Õ«
åį °
åį Ī
àº± à»Ī
ty cz
ä¹ Ĳ
×¦ ×¨
à¶ľ à¶Ń
à¶ľ à¶º
kom ment
Ð¶Ð¸ Ð²Ð¾
å¹ ¶
à»Ģ àº§
áĥĲáĥľ áĥĺ
ÑĨÑĸ Ð²
áĬł áĭŃ
áĬł áī¥
æī ¹
àª¿ àªĤ
å¸ ¦
å¸ ¶
áĢĽ áĢĦ
tar Ã«
Ð¸Ð½ Ð²ÐµÑģÑĤÐ¸
Ã¢ r
ser va
hu y
ning ar
ìķ ĺ
äºº æ°ĳ
ÏĥÏĦ ÏĮ
bl og
áĥĻ áĥķ
áĥĻ áĥĿáĥľ
Ð¾ÑĤ Ð½Ð¾
áĢ¡ áĢĲ
Î±Î½ Î¬
Õ¡Õµ ÖĢ
ç» Ħ
à¤Ĩ à¤µ
åĩ Ĩ
Ð²Ñĭ ÑģÐ¾
è® ¸
áĪĿ áĬķ
áĪĿ áĪŃ
å¯ Ł
áīł áīµ
Äĳ i
Å« s
Å« ra
çĽ ĳ
åº §
åº ·
åº ľ
è¯ ķ
ado res
è¡ ĵ
å¥ ¹
áĤ Ī
Ð³ÑĢÐ° Ð¶Ð´Ð°
è¨ ±
áī° áĬĽ
ÐĽ Ðµ
ÐĽ ÐĲ
ÑĪÐ¸ Ð¹
à¤ı à¤¸
à°ħ à°°
áĢģ áĢĦ
áĢ½ áĢ²
br uk
br Ä«
à®ħ à®Ł
à®ħ à®µ
ÑįÑį Ð´
ger ek
ÎµÎ¯ ÏĤ
In form
Ø±ÙĬ Ø¯
ÑĸÐ½ Ð´Ðµ
å· ®
àªľ àª°
Ø§Ùģ Ø©
å½ ¼
inn en
nÃŃ k
áĥŀ áĥĿáĥļ
Õ¢ Õ¥ÖĢ
Ã¼n k
å¤§ å®¶
áĥĲáĥļ áĥ£áĥł
ê¸ ī
inter net
cor por
è§ ī
è§ Ĵ
àºµ à»ī
æĬ Ĭ
Ø§Ùĩ Ø±
åĢ Ł
pod ar
ÑĻ ÐµÐ½
Ô± Õµ
Ô± ÕĨ
åĨ į
ÓĻ ÑģÑĸ
çľ ¼
ëĤ ľ
ãģį ãģ¾ãģĹãģŁ
ë¦ ½
àº« àº¥
áĥ¬ áĥĲáĥł
áĥ¬ áĥĶáĥł
à©ģ à©°
An t
kÃ¶ vet
ãĤĵ ãģª
à®ĩ à®²
à®ĩ à®©
à®ĩ à®¨
è´ ¹
Õ¶Õ¥ÖĢ Õ¯Õ¡Õµ
æİ §
è¾ ¹
Ð²ÐµÑĢ ÑģÐ¸
ei x
ei ro
áĮĪ áĪŃ
æĭ ħ
Ð»ÑĮÐ½Ð¾ Ð³Ð¾
ÑģÐ¿Ð¾ ÑģÐ¾Ð±
×Ļ×Ļ× ¢
cy j
Î»Î¿ Î½
mÃ¼ ÅŁ
Î¼Îµ Î³
é¡ ĺ
áĥ¥ áĥĲáĥļ
ann on
ÑĤÑĢÐ° Ð´Ð¸
ord in
ë¡ Ŀ
ÒĽÐ° Ð»Ð°
æµ İ
stan te
Ð±Ñĸ ÑĢ
Ð±Ñĸ Ð»ÑĮ
çº Į
çķ ¥
Ar be
ãĢ į
×Ļ×¨ ×Ķ
Ø§ÙĦØ£ Ùħ
ÏĦÎ¹Îº ÏĮ
×Ļ×ł ×Ķ
cul a
cul ar
AR A
çİ ¯
éļ ¾
emb ro
áº¡ t
ç¾ ©
Ä±m Ä±z
ÎºÎ¿ Î¹Î½ÏīÎ½
çµ ±
çµ Ĥ
éł Ĥ
éł ħ
ê· ¼
ÐºÐ¾Ð¼ Ð¿
uj Ãº
à¤¼ à¥Ģ
ÑģÐ»Ðµ Ð´Ñĥ
Ä±l dÄ±
Ø§ÙĬ Øª
Ð·Ðµ Ð¼Ðµ
åģ ¥
åģ ĩ
åģ ľ
à¬ĩ à¬Ľ
åŁ ¹
éĺ Ł
ÑĨÑĭ Ð¹
è© ķ
Ð´ÐµÑĢ Ñĸ
ÑģÑĤÑĥ Ð¿Ð°
è¶ £
×Ķ×ŀ ×©
Õ«ÖĢ Õ¡Õ¯Õ¡Õ¶
ÎµÏĢ Î¹ÏĥÏĦ
hel y
mil li
Ð¦ ÑĢ
Ð¦ ÐµÐ½
à®İ à®¤
íĻ ĺ
íĻ ľ
åĸ ®
åĸ Ħ
è£ ¡
à¸¶ à¹Ī
áº£ n
×Ļ×§ ×Ķ
nj Ã«
èŃ ī
ih in
Öĥ Õ¸
à¸£à¸² à¸Ĭ
jum i
Ð·Ñĭ Ð²Ð°
fan ta
pÃ¤ i
éħ Ĵ
ÛĶ ÛĶ
ÑģÐ¾Ð± ÑģÑĤÐ²ÐµÐ½
æĤ ¨
é© ¬
ëį Ķ
à²ĩ à²¦
indi vidu
cap ac
ãĥª ãĥ¼
prof esi
Õ¥Õ² Õ®
ÐºÑĭ Ð·
áº¥ n
æŁ ¥
ÈĻ te
Ø§Øµ ÙĦ
å°± æĺ¯
à´ī à´ª
ÑħÐ¾Ð´ Ñı
Úı ÙĬ
àº¹ à»ī
cid ad
ç± »
×ķ×Ļ ×ķ×ª
So ci
áº¯ c
áĬ¥áĬķ áĭ°
Õ¸ÖĤÕµ Õ©
Ad minist
mÃ¡ ny
ìĻ ¸
ãĤĪãģĨ ãģª
å®ī åħ¨
ÑıÐ² Ð»Ñı
à¶ĩ à¶Ń
prz ed
Or gan
dim ento
áĥĺáĥĿ áĥľ
Ñľ Ð°
ÙĨÙī ÚŃ
qi q
à¹Ģà¸ķ à¸Ńà¸£
autom at
Õ¡Õ¢ Õ¥ÖĢ
à´Ĵ à´°
ÑģÑĤÐ²Ñĥ ÐµÑĤ
euro pe
gru p
lji v
ë£ Į
íĽ Ħ
ç° ¡
á»± c
Ð»Ð¾Ð³Ð¸ Ñı
gov or
mah dol
áģĤ áģĢ
ÑħÑĸ Ð´
ç®¡ çĲĨ
Ñĵ Ð°
haz Ä±r
éĿŀ å¸¸
ëķ Į
áĪĺáĬķ áĮį
ê¶ Į
ÑģÑĥÑīÐµ ÑģÑĤÐ²
ÃŃo cht
ãĤ·ãĥ§ ãĥ³
áĬ¢áīµáĭ® áĮµ
1 00
3 2
4 2
5 6
5 8
9 0
A h
B O
B or
B et
B ro
B lo
C a
C y
C an
C hi
D ar
D ec
E d
E du
E gy
F a
F o
F ot
G a
G re
H I
H u
H en
H ol
I t
J ed
J ah
K E
K el
K as
K Ã¤
K ir
K ap
L eg
L ie
M el
M or
M is
M et
M ich
N E
N H
N Ã¤
O d
P I
P an
P on
P OR
P rin
R ed
R ah
S O
S Z
S c
S an
S on
S tar
S tor
T an
T re
T ÉĻ
T OR
W o
b Ã¶r
b ina
c Ã³
c ka
c og
c res
c ita
c yn
c Ã³w
d ri
d Ã³
d ne
d Ã®
d ÉĻr
e o
e en
e ch
e vi
e ÅŁ
e ÄŁ
e qui
f is
f la
f ru
f tig
g it
g Ã©
g Ã³
g na
g ere
g jen
g Ã¥r
g Ã¶z
h ri
h Ã¼
h iz
h Ã¦
h Ã¤n
h Ä¾ad
i ar
i fic
j y
j or
j ol
j im
j ot
j egy
k ka
k yn
k art
k ata
k Ã«r
k red
k Äģr
l d
l Ã³
l uk
m ÃŃ
m ana
m ada
m isi
m yn
m Ã´
m ys
m ÃŃn
n it
n Ã³
n asi
o or
o ka
p Ã¼
p ek
p ung
p ec
p Ã¥
q e
q o
q q
r s
r ul
r zy
r hy
s ci
s vi
s og
s pot
t v
t Äģ
t Äĥ
t ze
u c
u el
u es
u us
u vi
u za
u ud
u ju
v us
v os
w l
w on
w ch
w ol
w ic
w end
w are
w ard
y la
y ir
z g
z z
z it
z ent
z ÃŃ
z ek
z ut
z ir
z Äħ
z ÄĻ
z Ã¡s
z ami
Ã Ģ
Î ©
Ó ĺ
Ô ¸
Õ Ĥ
Õ ĩ
Õ ĵ
Ú Ħ
á ¿
â Ĭ
â Ľ
å µ
ê ¼
ë ¿
ë Ń
ì Į
Ģ ìĿ´
à¤ ±
Ð¾ Ñĩ
Ð¾ ÐºÑĥ
Ð¾ Ð½Ñĥ
Ð¾ Ð²Ñĭ
Ð¾ ÑģÑĥÑīÐµÑģÑĤÐ²
Ð½ Ñİ
Ðµ ÑĤÐµ
Ðµ ÑĨÑĨÐ°
Ð¸ ÑĤÐµ
ÑĤ ÐºÐ¸
à² ł
à® ¹
Ñģ ÑĨ
Ñģ Ð¼Ð¸
Ñģ Ð¿Ð¸
Ñģ Ð½Ð¸Ðº
Ñģ ÑĢÐ¿
an ie
an Ã§a
à¶ ķ
Ð² ÑĮ
Ð² ÑĢÐ¸
Ð² ÑįÑĢ
à· Ĩ
in v
in ut
in ig
in to
in cl
Ðº ÑĢ
Ðº Ð½Ð¸
Ðº ÑĤÐ¾ÑĢ
Ð´ ÓĻ
áŀ ĥ
à¬ ¢
ar b
ar s
ar y
st ur
st ill
Ñĥ Ñİ
Ñĥ ÑĩÑĥ
Ð¿ ÑĬ
à¨ ı
Ð¼ ÑĮ
at ing
al s
al ta
al ka
al ia
al iza
re si
re vi
re cor
Ø± Ø§Ùĩ
ÙĦ ØŃ
ÙĦ Øº
ÙĦ ÛķØ±
à¹ ĭ
el li
el ik
el ement
or ie
Ñĸ Ð·
Ð³ ÑĢ
Ð³ Ð»Ð¸
Ð³ Ð»Ñĥ
Ð³ ÑĸÐ½
it ali
Õ¡ Öĥ
Ð· Ð´Ð¾
Ð· Ð±Ðµ
Ð· Ó©Ð²
Ùħ Ùģ
Ùħ Ùĥ
Ùħ Ûģ
Ùħ Ø§ÛĮ
Ùħ ÙĨØ¯
ÙĪ Ø§Ú©
à³ ¦
à³ §
Ð± Ð¸Ð·
Ð± Ò±
is esti
es en
es et
es se
es cu
es sÃ¤
Øª Ø¹ÙĦ
Øª Ø±ÛĮÙĨ
et r
et s
ra u
ra da
il ar
il li
il ig
áĪ ´
áĪ ¸
áĪ Ĳ
Ã¡ v
Ã¡ ri
Õ¡Õ ¹
as y
ÛĮ Ø³
ch Ã©
ch am
ch ang
ÙĬ ØŃ
ÙĬ Øº
ÙĬ ÛĲ
ãĤ Ģ
un s
un ut
Ã© d
Ã© re
à§ Į
ol gÃ¡l
Ø¯ ÙĪÙĦ
ad d
ad y
ri ce
ri ca
Ã¤ ng
Ã¤ nd
Ã¤ hr
Î± Î¯
Î± ÏĥÏĦ
Ñĩ Ðº
Ñĩ Ð½Ð¸Ðº
ci ent
ci Äħ
ti f
ti mo
ti ck
di b
di an
di da
di per
em p
em er
em el
li f
li r
li st
li je
li mit
Ø³ Ø§Ø¨
Ø³ Ø§Ø²
Ø§ÙĦ Ø©
Ø§ÙĦ Ø°
Ø§ÙĦ Ø¹ÙĦ
Ð¶ Ñĸ
Ð¶ Ð½Ð°
Ð¶ Ò¯
Ð¶ ÑįÑį
Ð¶ Ð½Ð°ÑĢÐ¾Ð´
Ð¹ Ð¼
ak tu
Ð½Ð° Ð»Ð¸
Ð½Ð° ÑģÑĤÐ¾Ñı
×ķ× ¥
áī Ĥ
si Ã³
si ma
si cht
Ñħ ÑĢÐ°Ð½
ÃŃ Ã°
ÑĪ ÐµÐ½Ð¸Ñı
ÖĢ Õ«
ãĥ ļ
ãĥ ľ
áĥĶáĥ ¤
áĭ İ
Ïģ Îº
Ïģ Ïĩ
po ur
po ja
po sto
po treb
ÏĦ ÎŃÏĤ
ur al
ur nal
à¤ķ à¤¹
à¤ķ à¤¡
ul is
Ã¼ ks
ek Å¡
ek onom
Ùĩ ÙĦ
Õ¸ Õ£
áĬ ¦
áĬ Ĵ
áĬ Ķ
Î½ ÎŃ
us z
Ð½Ð¸ Ð¼
Ð½Ð¸ ÑĨ
Ð½Ð¸ ÑĤÐµÐ»
Ð¿Ð¾ Ð²Ðµ
Ð¿Ð¾ ÑģÑĤÐ°
Ð¿Ð¾ Ð²ÑĸÐ´
Ð¿Ð¾ Ð·Ð²Ð¾
à´ķ àµ¾
à¤¸ à¤Ń
ik ka
te g
la ge
ä¸ ¥
Å¡ ko
Å¡ ke
ÑĢÐµ Ð´Ð°
ÑĢÐµ Ð¶Ð¸
ta b
ta h
ÐºÐ° Ð´Ðµ
im ag
ÑĤÐ° Ð»Ð°
à´¨ à´®
à¦¾ à¦ģ
da u
ÙĤ Ø¶
ÑĢÐ¸ ÑģÑĤÐ¸
Ð»Ð° Ð»
Ð»Ð° ÑĢÑĭ
×Ķ ×ľ
×Ķ ×¤
Äį as
Äį aj
à¤² à¤¨
ÑĤÐµ Ð³Ð¾
vi je
ka i
Ð´Ð° Ñħ
Ð´Ð° ÑĢÑĭ
Ð´Ð° ÑĶ
Ùī Ø±Ùī
à¤¯ à¤¦
Ø¹ Ø§
Ø¹ Øª
Ø¹ Ø§Ùħ
na ch
ir d
Ùģ Ø¹
ÏĢ Î®
ÏĢ ÎµÎ¹
ÅŁ ek
Î¼ Î¹Îº
ov n
Ø´ Ø¨
Ø´ Ú©
×ŀ ×ķ×ª
à¸ģ à¸£à¸£à¸¡
Ú© ÙĪØ±
Ú© ÙĪÙĦ
Ð»Ð¸ ÑĤ
Ð»Ð¸ ÐºÐ¾
od u
à®¤ à®µ
Å¾ it
Å¾ ÃŃ
×Ĳ ×Ķ
×Ĳ ×Ĺ×¨
ap kan
zi en
se x
à²° à²®
ÑĤÐ¸ Ðº
ÑĤÐ¸ Ð¿
Ð·Ð° Ð¿Ð°
Ø¬ Ø§Ùħ
Ð²Ð¸ ÐºÐ¾
à¸¡ à¸Ļ
pro v
pro iz
pro vo
áĥĿáĥ ŀ
à°¨ à°Ł
ja w
ja va
va i
ver il
×ĳ ×ł
sk at
sk ol
id s
id Åĳ
ob ili
ÑĤÐ¾ Ð»
áĮ «
áĮ Ĭ
áĮ İ
à¹Ģà¸ ¨
Ñİ Ð·
ig o
à¥ģ à¤ģ
sp esi
ist r
à¶» à·ĥ
Ð»ÑĮ Ð·Ñĥ
à¸¢ à¸²
con d
con te
con ta
con os
con sum
×¢ ×Ķ
ie ct
Ð»Ð¾ ÑĤÐ¾
sa j
Ã§ i
Ã§ ar
à´¯ à´¨
ko a
Ð³Ð¾ Ð»
×© ×§
Ð´Ð¾ ÐºÑĥ
Ð´Ð¾ Ð·Ð²Ð¾
à¶¸ à¶º
à¶¸ à¶ļ
Ð³Ð° Ð·
à®ª à®²
ÑĦ Ð°Ðº
à°ķ à°¨
áĥł áĥ£áĥ¡
ba ha
ba ÄŁ
sz t
Ø² ÙĦ
à¬° à¬®
Ù¾ Ø§ÛĮ
áĢ¬ áĢ·
à¤Ĺ à¤³
áĥĽ áĥ¡
áĥĽ áĥĻ
áĥĽ áĥĲáĥ¡
ag i
ag gi
×ł ×¢
Ø® Ø·
Ø® Ø¨Ø±
Ø® Ø¯Ùħ
pr v
pr il
and in
Ð²Ðµ ÑĢÐ¾
Î³ Î±
Î³ Î¼Î±
ÑģÑĤÐ° ÑĤÐ¸
ÒĽ Ð¾Ð»
Ð¡ Ð¿Ð¾
Ð¡ ÐµÑĢ
Ð¡ Ðł
ke a
ac ter
ac com
ac ji
ac tual
à·ĥ à¶±
à·ĥ à¶½
à·ĥ à·Ħ
men d
Ð±Ð° ÑĢÐ°
Ð±Ð° Ð»Ð°
Ð±Ð° ÑģÑĤÐ°
åħ °
åħ į
å¤ ®
Ú¯ Ø§ÙĨ
Ú¯ Ø§Ø±
Ð¿Ð° Ð¹Ð´Ð°
ÐĲ Ð´
ÐĲ Ð¼ÐµÑĢÐ¸
ber i
ber o
áŀļ áŀĺ
áŀļ áŀĸ
Ð¼Ð¾ Ð¶Ð½Ð¾
ÑĢÑĥ Ñģ
ÑĢÑĥ Ð³
ÑĢÑĥ ÐºÐ¾
Î´ Î¹Î¬
ÑģÐ° ÑĤ
à²ķ à²²
Õ¡ÖĢ Õª
áĥļ áĥĲ
tr ze
å® ¡
Ð¾Ð± ÑīÐ¸
be hand
Øµ ÙĪØ¨
ku u
op ort
à¨° à¨®
sta Ã°
à¦ķ à¦²
su per
ec er
ec ta
pa y
Ð½Ñĭ Ñı
ÐµÐ½Ð¸ Ñİ
gi an
ga h
×ĺ ×ķ×ĳ
×Ĺ ×ĳ×¨
wa x
wa ÅĤ
wa Äĩ
Äħ cy
hi ri
Ø¦ Ø±
Ø¦ Ø§ÙĦ
×¤ ×ķ×¨
Ð¿ÑĢÐ¾ Ð´Ð¾Ð»
ho ud
pi an
à¶´ à¶±
à¶´ à¶ļ
áĥĺáĥ¡ áĥĺ
Ø· Ø§ÙĨ
Ðľ ÐĲ
Ðľ Ð°ÑĢ
à°¯ à°¤
Õ¯ Õ¡Õ¿Õ¡ÖĢ
Ø£ Ùħ
à¦¤ à¦°
com pro
com par
à¦¸ à¦¨
ÐºÑĥ Ñİ
áį ī
áį ĸ
Î¹Îº Î¿Ïį
ÑģÐ¾ ÑĢ
ÑĢÑĭ Ñı
áģ ļ
áĢķ áĢĶ
Õ¥ÖĢ Õ©
áĥĵ áĥĶ
áĥĵ áĥ¦
ÑĩÐ¸ Ðº
lar a
Ðŀ ÑĢ
Ðŀ Ñģ
Ðŀ Ðĵ
Ðŀ ÐĽ
ju de
à°ļ à°°
åĲ ĥ
à°® à°¹
ji an
ÑģÐ¸ Ð¼
ÑģÐ¸ Ð³Ñĥ
ÑģÐ¸ ÑģÑĤÐµ
co u
kon struk
ä½ İ
Ïĩ Ïİ
Ïĩ ÏģÎ¿
×¡ ×§
ÑģÐµ Ð»Ðµ
ÑģÐµ Ð¼Ðµ
pl y
pl ant
åľ Ł
àª® àª¨
àª® àª³
nd ry
Äĩ en
à·Ħ à¶»
à·Ħ à¶¸
ÐĶ Ð°
×Ĵ ×ķ×¨
à¤ħ à¤®
à¤ħ à¤µ
ãģª ãĤĵ
æĸ Ń
áĥĴ áĥķ
áĥĴ áĥĲáĥķ
çĶ £
Ð¿ÑĢÐ¸ ÑĶ
ÑĩÐµ ÑģÐº
ÑĩÐµ ÑģÑĤÐ²Ð¾
à²® à²¤
min a
æĺ ¾
ÅĽ my
ÐĴ ÐĲ
pri v
ÑĤÑĭ Ð»
ÚĨ Ø§Ûģ
à¬¬ à¬¸
áĥĲáĥł áĥ©
Ð´Ñĥ Ð¼Ð°
wi ÄĻ
ex ec
ex pli
à¹ģ à¸«
res se
tra bal
ãĤĭ ãģ¨
gu ar
Ð»Ñı Ð½
Ãł o
Ãł nh
áĪŃ áĪµ
áĢ¼ áĢ¬áĢ¸
áĢ¼ áĢ®áĢ¸
Å¼ li
ãĥ¼ ãĤ¸
sch ap
ÙĪÙĨ ÙĪ
åį ³
åį Ģ
åį ļ
éĢ Ĥ
ty w
×¦ ×Ļ
àºŃ àº²
Ø§ÙĦÙħ ÙĪ
Ø§ÙĦÙħ ØŃ
å¹ ²
å¹ ħ
å¹ ķ
Ð»Ñĭ ÒĵÑĭ
pra vi
we j
ÑģÑĤÐ¾ Ð¹
à¦¦ à¦°
ÑĨÑĸ Ñİ
ÑĨÑĸ Ð¾Ð½Ð°
áĬł áĪĪ
áĬł áĪĽ
Ðķ Ð¢
æī ¾
å¸ Į
ll en
åĽ °
kl er
ÅĻ i
ÅĻ ed
Ã¢ u
Ã¢ nt
à´Ļ àµ¾
Ø§Ø¨ ÙĦ
ãĤĴ è¡Į
ini o
ÙĨØ¯ ÙĬ
Ð¼ÐµÐ½ Ðµ
bo ok
è¦ ª
Ð¾ÑĤ Ð²Ðµ
gy ven
áĢ¡ áĢĽ
asi h
ÏĢÎ¿ Î¹Î¿
Ø¢ ÙĨ
ç» ´
ÏĥÎ· ÏĤ
mÉĻ s
Ð¼Ñĸ ÑĢ
bil d
ÑĶ Ñİ
à¤ī à¤®
áīł áĪŃ
Úª Ø§Ø±
den s
ÑĢÐ°Ð· Ð²Ð¸
æĿ ¿
Ø§Ø³ Ø©
Õ¸ÖĢ Õ¸Õ·
sl ut
ãģĭ ãĤĤ
å¼ µ
å¥ ĩ
à¶ħ à¶¸
×ĸ ×Ĳ
×ĸ ×Ľ
×ķ×¨ ×Ļ
×ķ×¨ ×Ķ
ÑĪÐ¸ Ð»
ÑĪÐ¸ Ð¼
ÑĪÐ¸ Ñħ
ì§ ĳ
à¤ı à¤°
à°ħ à°§
à°ħ à°Ń
Õº Õ¡Õ¶
Õº Õ¥Õ½
vÃ¤ Äį
pol ÃŃ
æŃ Į
Ð¶Ðµ Ð»Ð°
Ø±ÙĬ ÙĨ
Ø±ÙĬ Ø¨
vel op
Õ¸ÖĤÕ¶ ÖĦ
str Ã¡n
Ã¼l t
à»Ģàº Ī
gra d
ê¸ Ģ
201 0
ãĤĤ ãĤī
åĳ ¼
àª¦ àª°
ÑħÐ° Ð¹
sy ll
Ø§Ø¹ Øª
Ø§Ø¹ Ø©
ÑģÐºÐ° Ð³Ð°
à¦¶ à¦¨
eh en
gr at
åĨ µ
ê² ©
Ð»Ñİ Ð±Ð¾
éĻ ©
áĮį áī£
áĥ¡áĥĲáĥ ¥
áĥ¡áĥĲáĥ ĳ
æĻ ļ
àº« àº§
à°ľ à°¨
åĵ Ī
ìĸ ¸
ØªØ± Ùĥ
Ð½Ð´Ð° Ð³Ñĭ
len g
ç§ ĺ
AN G
Ch rist
è´ £
Õ¶Õ¥ÖĢ Õ¨
æİ ¢
àª¬ àª°
åī µ
ë° °
ë° Ľ
cer ti
ÑĤÑĸ ÑĢ
het er
áĥª áĥĶáĥľ
à²ħ à²§
hl ed
æĭ ī
æĭ Ľ
æł ¸
×ķ×ľ ×Ŀ
×Ļ×Ļ× ĺ
ç´ °
Î»Î¿ Î¹
tel u
áĪ« áīµ
åĩº æĿ¥
uni versit
mal Ä±
àª¶ àª¨
tam ente
tam ento
Õ¬ Õ«Õ¶
Îł Îĳ
æ¸ ©
æ¸ ¬
æ¸ ¸
áŀĩ áŀĵ
åİ Ĩ
áĢ« áĢ¸
cre t
Õ· ÖĢÕ»
áĪĭ áĪį
ÑĩÑĭ Ðº
iy at
Ar ti
zn am
áĢĸ áĢħ
Î¼Î¿ Î½
é¢ Ħ
èģ ŀ
ãģĳ ãģ¦
×Ļ×ł ×Ļ
×Ļ×ł ×Ĵ
tro u
æ¬ ¢
Ð¾Ð´ ÑĢ
ÑĤÐ¸Ð² Ð½Ð¸
ÑģÑĤÐ°Ð² Ð»Ñı
àºŀ àº°
AR I
kul u
ç¾ ¤
nÃ¡ v
éł ĺ
à¶¢ à¶º
æ± Ł
ê· ľ
Ð°Ð¹ Ñĭ
ãģĪ ãģ¦
18 8
uj em
à´¬ à´¨
pres enta
×ķ×¢ ×ĵ
áº¿ u
åŁ İ
éĺ ¿
åĲĪ ãĤı
Ð§ Ðµ
æŀ Ħ
à´ľ à´¨
Õ¡Õ£ Õ¸ÖĢÕ®
Îļ Î±
Ø³ÙĦ Ø§Ùħ
áĥĿáĥľ áĥĺ
ÅĨ a
ÅĨ Äĵm
å» £
á»ĩ u
nes s
ç® Ģ
èĪ Ī
ãĤı ãĤĮ
ÑĩÐ½Ð¾ Ð³Ð¾
ãĥĥ ãĥĹ
áĪļ áĭ«
è£ ħ
è£ Ŀ
èŃ ¦
èŃ ĺ
roz hod
è° ĥ
ÑģÐ»Ð¾ Ð²
×ķ×ŀ ×Ļ
Õ¸Õ² Õ¸Õ¾
Ä¼ a
æ¨ Ĥ
æ¨ Ļ
çŃ ĸ
×¤×¨ ×ĺ
ÑĴ ÐµÐ½
ÑģÐ»Ñĥ ÑĩÐ°
èĩª åĪĨ
ë² Ī
Î¿Ïį Î½
Î¿Ïį Î¼Îµ
Ú¯ÛĮ Ø±
fan y
yy at
à¬ħ à¬Ń
ç¬ ĳ
çı Ń
áĥĶáĥķ áĥł
mod er
à¸į à¸²
dz Ä«
lÉĻ ri
åĤ Ļ
æ» ¡
ëį ĺ
íĺ ¸
íĺ ĳ
gj ith
ÐºÑĭ ÑĢ
ØªÙĤ Ø¯
ØªÙħ Ø§Ø¹
fy r
ÈĻ ti
àº½ àºĩ
Î¹Î½ Î®
áĥĺáĥĵ áĥĲáĥľ
æĹ¶ åĢĻ
Å£i i
èĲ ¥
nos Å¥
à´ī à´£
rez er
ç· ļ
ÙħØ³ Ø¦
æĴ Ń
åĪ© çĶ¨
è¼ ī
á»Ļ i
éĮ Ħ
íĶ ¼
íĶ Į
æĦŁ ãģĺ
mul ti
áĥĿáĥĵ áĥĲ
rÃ³ Å¼
ç± ³
çģ «
íĮ Į
àªķàª° àªµ
áº¯ n
mek te
Ã¹ ng
Õ¸ÖĤÕµ Öģ
produ c
ÐľÐ¸ Ð½Ð¸
èĻ ķ
sid ent
ãĤĪãģĨ ãģ«
çĩ Ł
Te ch
Úĳ Ú¾
èĮ ĥ
sist em
ÐłÐµ Ñģ
ãģĤãĤĬ ãģ¾ãģĽãĤĵ
finan ci
íİ ĺ
Î¿Î» Î®
Î¸Î· ÎºÎµ
è¬ Ľ
Å¡an as
á»į c
ä½¿ çĶ¨
fÃ¼ hr
áĥĲáĥ¥ áĥ¢
kj Ã¸
Ð±Ò¯ ÑĤ
Î¸Îµ ÏĥÎ·
Ù¿ ÙĬ
ìħ ĺ
àºĸ àº°
Õ¡Õ¢ Õ¡Õ¶
Ð´ÐµÐ¹ ÑģÑĤÐ²Ð¸
ÏĩÏģ Î·
fam ili
íĹ ĺ
hÃ¥ ll
ì½ ľ
Ð¿Ð¾Ð»Ñĥ ÑĩÐ°
ÏĥÎ¹ Î¼Î¿
Õ«Õ½ Õ«
ãĤŃ ãĥ£
ÑĩÐ¾ Ð²Ðµ
teri or
ÑĦÐµÑĢ ÐµÐ½
Ð¼ÐµÐ´Ð¸ ÑĨÐ¸
æ³¨ æĦı
ì¦ Ŀ
áŁ¢ áŁł
áĮĢ áĪĺ
Ð°Ð²ÑĤÐ¾ Ð¼Ð¾
ì´ Ī
áĥłáĥĿáĥĽ áĥĶáĥļ
æĬĢ æľ¯
Æ°á»Ľ c
econ om
Îĺ Îµ
ÏĮÎ¼Îµ Î½Î¿
íĤ ¤
Ð´ÑĬÑĢ Ð¶Ð°
odpo wied
szcz eg
íĸĪ ëĭ¤
á»« ng
Ð·Ð´ÑĢÐ° Ð²
Ð½ÐµÐ¾Ð± ÑħÐ¾Ð´Ð¸
ë¸ Į
íĭ °
ÖĦÕ¶ Õ¶
íĳ ľ
distri bu
à¥¨à¥¦ à¥§
pta ut
Ð¶Ò± Ð¼Ñĭ
fav or
æľĭ åıĭ
pub bli
Õ«ÖĢÕ¡Õ¯Õ¡Õ¶ Õ¡Öģ
5 4
A p
A ce
B la
B eg
B ang
B est
B ah
B ay
B rit
C r
C u
C ri
C um
C ab
C op
C ast
D re
E k
E ur
E us
E nt
F ri
F am
F ac
F Ã¶r
G O
H AN
I D
J a
J er
K en
K an
K or
K ul
M E
M it
M un
M us
M ir
M od
M ari
M aj
M art
M eng
N ar
N at
N Ã¡
N ic
N av
P D
P H
P e
P op
P ost
P eng
R u
R as
R ek
R os
R od
S S
S r
S y
S ar
S ÉĻ
S ur
S im
S ha
S ve
T T
T or
T ut
T ir
T he
T ran
U T
U l
V ir
W eb
Y E
a po
a ha
a val
a zione
a Ã§Ã£o
b Ã¶
b he
b ili
b und
c ing
c eg
c ja
d l
d Ã¤
d um
d lo
d Ã¸
d Åĳ
d yn
d Ã«r
e el
e ven
e bil
f em
f ed
f ang
f Ã¦
f ry
f eb
f Ã¤l
g li
g ing
g end
g Äĥ
g ond
h ÃŃ
h Ã«
h ari
h Ã¡z
i on
i eg
i che
j it
j ke
j Ã¸
j Ã¡n
j Å¡ÃŃ
k k
k ik
k Ãº
k ho
k Ã©r
l ob
l Ã¡s
m Ãº
m eli
m und
m ise
m Ã³d
n un
n us
n Ä«
n jen
o ur
o Å¡
o ce
o wy
p ent
p ÃŃ
p ÄĽ
q or
q ur
q da
r ut
r je
r uk
r ati
s s
s je
s Ã¦
s he
s man
s red
s jed
s ett
s sÃ¤
s dag
s Ã¶z
t Å³
t ale
t Ã¶l
t ash
u ur
u ut
u han
v v
v Åĳ
v ara
v ÉĻt
v jer
v Äģr
v last
w z
w ur
w ord
w ort
y un
y Ã¼k
z ÉĻ
z ul
z ni
z are
Â «
Ã ĭ
Ð ©
Ð Ħ
Ò °
â ı
é °
é µ
é ¶
ê ½
ë ī
ì ©
ì ģ
ì ı
ì ĵ
ì Ł
í Ī
Ð° Ñħ
Ð° ÑĪÑĭ
Ð° Ð¼ÐµÑĢÐ¸
à¸ ı
à¸ ĳ
à´ ł
Ð¾ ÑĤÐµ
Ð¾ Ñİ
Ð¾ Ð±Ð°
Ð¾ ÑĩÐ°
Ð¾ Ð·Ð½Ð°
Ð¾ ÐºÐ°Ð·Ð°
Ð½ ÐµÑĢ
Ð½ ÑĨÐ¸
Ðµ ÑĢÐ°
Ðµ Ð¼Ð°
Ðµ ÐºÐ¾Ð½Ð¾
Ðµ ÑĦÐµÐº
Ð¸ Ð¼Ñĥ
Ð¸ ÑģÐºÐ°
Ð¸ ÑģÑĤÑĢÐ°
Ð¸ ÑĤÐµÐ»ÑĮ
à° ĺ
ÑĤ Ó©Ð³
áĢ ¦
áĢ ī
à® ĵ
Ñģ ÑĢÐ¾
Ñģ Ò¯
Ñģ Ó©
Ñģ Ð²Ð¸
Ñģ Ð²Ñĸ
Ñģ Ò±
Ñģ ÑĨÑĮ
Ñģ Ó©Ð·
er an
er al
er ed
er Åĳ
Ø§ Ú¾
an im
Ð» Ð½
Ð» Ñį
Ð» Ð½Ð¾
à¶ ¹
in u
in es
in san
Ðº ÓĻÑģÑĸ
Ð´ ÑįÑį
Ð´ ÑįÐ½
áŀ ¯
áŀ ¿
st ÃŃ
st ven
Ñĥ Ñĭ
Ñĥ ÑģÐ»Ð¾Ð²Ð¸
Ð¿ ÑĢÑı
à¨ Ĭ
at r
at os
al u
al er
al le
al og
al gun
al mente
re ak
re le
re ich
re fle
ÙĦ ÙħØ§ÙĨ
ÙĦ ÙĪØ¨
el or
or an
or um
or szÃ¡g
Ð³ Ð»Ð¾
ÙĨ Ú«
it es
it ie
Ð· Ð¼
Ùħ Ø³ÙĦ
Ùħ Ø¨Ø§Ø±
ÙĪ Ú©
ÙĪ ÙĬÙĦ
is er
is se
is mo
Øª Ø§Ø±
Øª Ø²
Øª ÙĪØ±
Øª Ûĩ
Øª Ø§Ø¨
et ar
ra it
il t
il ÉĻ
il ia
áĪ ¶
áĪ Ķ
áĪ ł
Ñı Ð·
Ñı Ñħ
Ã¡ o
Ã¡ Äį
Ã¡ ng
Ã¡ nd
Ã¡ tica
Õ¡Õ ©
Õ¡Õ ±
as on
as Ä±nda
ÛĮ Ø§Øª
ch c
ch r
ÙĬ Ø´
ÙĬ Ùĥ
ÙĬ Ø²
ÙĬ Ø§Øª
ÙĬ Úª
ÑģÑĤ Ñİ
ãĤ º
un to
Ã© ta
ol du
Ø¯ Ú¾
ad u
ad ÉĻ
ad Ä±
ad Ã³
à¤° à¤¶
ri es
ri je
ri que
am is
ÑĢÐ° ÑģÑĤ
ro u
ro bi
Î± Îº
Ñĩ ÑĮ
Ñĩ Ð²Ð°
Ñĩ Ð»ÐµÐ½
Ñĩ ÐµÐ½Ð¸Ñı
Ñĩ Ð½Ð¸Ð¹
ci ÄĻ
ci jo
×ķ ×ķ×Ļ
ÉĻ dÉĻ
di z
di yi
em u
li er
li ko
li ga
li ÄŁi
áĥĲáĥ Ŀáĥĳ
Ø³ Ø©
Ø³ Ø·
Ø³ ÙĨØ¯
Ø¨ Ø·
Îµ Î¸Î½
om e
om at
om ba
ÑĨ ÑĢ
ÑĨ ÐºÐ°
Ø§ÙĦ ÙģØ±
Ð¶ Ð½Ð¸
Ð¹ Ñģ
Ð¹ ÑĤÐ¸
ak se
ak ter
Ð½Ð° Ñı
Ð½Ð° Ð²Ñĥ
si de
Ñħ ÑįÐ½
Ñħ ÑįÐ¼
ÑĪ Ð½Ð°
ÑĪ ÐºÐ¸
ÑĪ Ð°Ð»
ÑĪ ÑĩÑĭ
ÖĢ Õ¸
ãĥ Ħ
ãĥ ı
ãĥ Ľ
à¤¨ à¤²
à¤¨ à¤Ĺà¤°
áĥĶáĥ §
áĭ ī
áĭ Ļ
Ïģ Ïħ
Ïģ Î¯Î±
po h
po ka
po sk
po der
po tra
po pol
po tre
po zn
po wied
ÏĦ Ïī
ÏĦ Î¿Ïħ
Ã¶ t
ur ri
à¤ķ à¤ª
ek en
Õ¸ Õ¤
áĬ ©
áĬ ĥ
áĬ ĺ
Ñį ÐºÑģ
Ã³ j
Ã³ ria
us o
Ð¿Ð¾ Ð½Ðµ
Ð¿Ð¾ Ð»Ðµ
Ð¿Ð¾ ÑĩÐ¸
Ð¿Ð¾ Ð½Ð¸Ð¼Ð°
à¤¸ à¤ŀ
ik s
le i
de cy
à¸Ļ à¸Ħà¸£
ing kat
à¸£ à¸²à¸¢
te ur
ä¸ ¦
Å¡ al
Å¡ ki
Ïĥ Î¯
Ïĥ Î¹Î±
ÑĢÐµ Ð¶Ðµ
ÑĢÐµ Ð³Ñĥ
ÑĢÐµ Ð°Ð»Ð¸
ta f
ta han
ta ble
os sa
um an
ÐºÐ¾ Ñĺ
ÐºÐ¾ Ð»Ðµ
im b
im an
im pin
da i
da x
ÙĤ Øª
ÑĢÐ¸ ÑĤÐµ
Ð»Ð° Ñħ
Ð»Ð° ÑĤÐ°
Äį il
Äį un
Äį lan
à¤² à¤¡
vi ik
vi da
ka it
ka Å¼
Îº Î¹
Îº Î»
Õ¶ Õ«
Õ¶ Õ¸ÖĢ
Ð´Ð° Ð¹
eg t
Ø¹ Ùĩ
na ha
na sta
na cional
ir ÃŃ
à¶± à¶§
×¨ ×©
Ùģ ÙĪ
Ùģ Ø§Ø±
Ùģ Ø©
à¸Ń à¸Ńà¸ģ
Î¼ Î¿Ïħ
à¥Ģ à¤Ĥ
ma xim
Î» Î¯Î±
Ø´ Ùģ
Ø´ Ø®Øµ
à´¤ à´²
×ŀ ×Ł
×ŀ ×Ļ×ľ
à¸ģ à¸ķ
Ú© ÛĲ
Ø§ÙĨ Ø§
ab b
Õ« Õ³
Ð»Ð¸ Ð¿
Ð»Ð¸ Ñĩ
od n
à®¤ à®ķ
Å¾ n
Å¾ u
Å¾ ai
Ó© Ðº
à¤µ à¤¡
×Ĳ ×Ļ×ł
ap art
Î· ÏĦ
zi ona
Ã« si
se z
se ben
à²° à²¦
à²° à²µ
ÑĤÐ¸ Ð¹
Ð·Ð° Ð²ÑĢ
Õ¸ÖĤ Õ¿
Ø¬ ÙĪ
Ø¬ Ø¨
Ð²Ð¸ Ð»
Ð²Ð¸ ÑĢÐ¾Ð±
ge z
à¦° à¦¬
pro pi
pro vin
ter a
áĥĿáĥ ¥
ja i
iz del
va jad
ver sch
×ĳ ×Ķ
×ĳ ×ľ
×ĳ ×¦
ob a
ob ser
ÑĤÐ¾ Ð°
ÑĤÐ¾ Ð¿
ØŃ Ùħ
ØŃ ÙħÙĦ
ha ha
ha gy
ve Ä¾
Ñİ ÑĢÐ¸
ig t
sp ort
ist y
ist ri
ist ik
Ð»ÑĮ Ð½ÑĭÑħ
à¸¢ à¸£
à¸¢ à¸Ķ
con du
con segu
no u
no te
×¢ ×ª
à´Ł à´¤
à´Ł à´Ļ
Ð»Ð¾ ÑĢ
Ð»Ð¾ Ð¶
Ð»Ð¾ Ð³Ð¾
Ð»Ð¾ ÑģÑı
Ð»Ð¾ Ð¶ÐµÐ½
sa an
Ã§ u
Ùĥ Ø¯
qu at
qu el
qu id
ud d
ud o
ud ar
Ð³Ð¾ ÑģÑĥÐ´Ð°ÑĢ
à¶ļ à¶§
Ð´Ð¾ Ðº
Ð´Ð¾ Ð²Ðµ
Ð´Ð¾ Ð¿Ð¾Ð¼Ð¾
per s
per t
Ð³Ð° ÑĤ
àª° àªķ
Ð½Ðµ Ðµ
ÑĦ ÑĢÐ°
áĥł áĥ£áĥļ
sz et
sz ÃŃn
Ø² Ùī
Ø² Ø´
Ø² Ø§ÙĨ
Ø² ÙĨØ¯
ng a
ng h
uk si
ÑĨÐ¸ Ð¾Ð½Ð°
Ù¾ Ú¾
áĥĽ áĥĿáĥľ
×ł ×¤
Ð´Ðµ Ð¼Ð¾
Ð´Ðµ Ð¿Ñĥ
est ar
est ab
and en
and ra
ãģĦ ãģį
tu ot
à¸Ķ à¸ķ
Õ´ Õ¥Õ¯
à¸¥ à¸Ķ
ÎŃ Îº
ÅĤ od
ÒĽ ÑĤÐ°
ÒĽ Ð¾ÑĢ
à¤ľ à¤ķ
àºĻ àº°
à°¤ à°¨
à°¤ à°²
à°¤ à°®
à·ĥ à¶ļ
men i
Ð±Ð° Ð°
Ð±Ð° ÑĤ
áĥ£ áĥĳ
åħ ´
åı ¦
åı ·
åı Ī
à¸ª à¸²
à¸ª à¸ļ
à¸ª à¸ĸ
Ú¯ Ûķ
Ú¯ ÛķÙĨ
Ð¿Ð° Ñģ
Ð¿Ð° ÑĢÑĤ
áŀļ áŀĻ
lo Å¾en
Î´ ÎµÏĤ
Î´ Î¹Î¿
Ã¸ v
à²ķ à²Ł
à²ķ à²³
Õ¡ÖĢ Õ¡Õ¯
à°µ à°¸
à°µ à°¡
end is
end ele
áĥļ áĥĲáĥĽ
tr ol
å® £
å® ĥ
be c
be w
ä» ħ
à¤Ł à¤²
for der
for ts
à¦ķ à¦®
Ð¼Ðµ ÑĢÐ°
Ð¼Ðµ ÑĢÐµ
à¸ļ à¸²à¸ĩ
su ff
su unn
pa Ã±
ÐŁ ÐµÑĢ
ÐŁ ÐµÑĤ
×§ ×ĵ
ant ar
Ð±Ð¾ Ð´
Ð±Ð¾ Ð»Ð¾Ð²
Ð¼Ð¸ Ð½
Ð¼Ð¸ ÑĢ
Ð¼Ð¸ Ð»Ð¸
ki i
×Ĺ ×Ļ
Ãª s
Ãª u
×ĵ ×Ĳ
×ĵ ×¢×¨
Ðļ ÐĲ
Ø¦ ÙĨ
Ø¦ Ø©
Ø¦ ÛĪ
×¤ ×Ļ
Ð¿ÑĢÐ¾ Ð´Ð°
áĢĲ áĢĢ
áĢĲ áĢĶ
à®© à®°
pi el
pi ra
à¶½ à¶±
áĢĻ áĢĶ
áĥĺáĥ¡ áĥ®
Ø· ÛĮ
ÑĩÐ° ÑģÑĤ
Ïī ÏĦ
par te
par lam
com er
com mun
so ur
à¦¸ à¦°
à´± à´Ļ
ÐºÑĥ Ð»ÑĮ
áį ĵ
ÑģÐ¾ Ð¾ÑĤÐ²ÐµÑĤ
ÑĢÑĭ Ð»
ÑĢÑĭ Ñħ
Õ¥ÖĢ Õ¯ÖĢ
áĥĵ áĥĺáĥļ
Ð½Ñĸ ÐºÐ°
à¦® à¦¹
cz enia
Õµ Õ¸ÖĤÖĢ
ju si
áŀĢ áŀļ
Ð¶Ð° Ð¹
×Ľ ×ĺ
×Ľ ×Ł
pe w
ji en
ÙĪØ± ÙĪ
ÙĪØ± ÙĬ
ÑģÐ¸ Ñı
ãģ¾ ãĤĬ
co re
co Ã±
Ïĩ Ïī
à¦ª à¦¦
à¦² à¦ķ
ÑģÐµ Ðº
Ã¡l ne
Ðł Ðŀ
Ðł Ðķ
Ðł Ð¾Ñģ
Õ° Õ¡Õ¿
Õ° Õ¡Õ·
sh ir
sh me
åľ ĺ
Ð¿ÑĢÐµ Ð·ÐµÐ½
Ïį ÏĦÎµÏģ
áĥľ áĥĿáĥĳ
à·Ħ à¶½
à¤ħ à¤ķ
à¤ħ à¤²
à¤ħ à¤Ĺ
ãģª ãģ©
áĥ¢ áĥ£áĥł
áĥ¢ áĥĶáĥ¥
à®ļ à®¨
ÑĩÐµ Ð»Ð¾Ð²Ðµ
Ø³Øª ÛĮ
Ñŀ Ð½Ñĭ
wy s
Ø§Ø¯ Ø§Ø±
íķ ¨
ay Ä±
ÏĨ Î¯
ÏĨ ÎµÏģ
ÖĦ Õ¥ÖĢ
pri e
pri or
val Ã³
ìŀ Ħ
Ð¿Ðµ ÑĢÐ¸
Ð¿Ðµ Ð´Ð¸
ÚĨ Ûķ
à¬¬ à¬¨
áĥĲáĥł áĥĶ
Øº Ø±Ø¨
è¿ °
è¿ ½
ãģ« åħ¥
ãģ« ãģ¤
Ð´Ñĥ Ð½Ð°ÑĢÐ¾Ð´
wi j
æĪ ĸ
Ð»Ñĥ Ðº
Åĳ r
à¹ģ à¸ŀ
ran e
ran i
ran k
tra d
gu a
Ð»Ñı Ð²Ð°
Ð¿ÑĢÐ° Ð´
av at
Ãł y
à¤Ń à¤ıà¤ķ
ven s
ìł Ī
sch lie
ÙĪÙĨ ÙĬ
ãģ§ ãģĹãĤĩãģĨ
Õ¤ Õ¥Õº
ä¼ ¼
åį Ķ
à¹Ħ à¸ĭ
Ð½Ñĥ ÑĤÐ¸
à¸Ī à¸Ļ
à¸Ī à¸£
å¾ Ģ
ty Ã¶
Ûĩ ÙĤ
ä¹ Ŀ
ara f
ara q
àºŃ àº¡
Ð³Ð¸ Ñı
Ø§ÙĦÙħ Ø±
Ø§ÙĦÙħ Ø³
kom p
Ð¶Ð¸ Ð»ÑĤ
Ø§Ø¦ Ùħ
Ø§Ø¦ ÙĬÙĨ
å¹ ¸
Ø§ÛĮ ÙĨ
we i
we it
à©Ģ à¨Ĥ
man if
àªª àª¹
à¬® à¬¹
ÑģÑĤÐ¾ ÑĢÐ¾
à»Ģ àºĶ
ÑĨÑĸ Ð¹Ð½
ìĿ´ ëĿ¼
ìĿ´ ìļ©
éģ ĩ
áĢĽ áĢĶ
au gu
áĪĺ áĪĪ
Ð¸Ð½ Ð´Ð¸
áĢľ áĢĢ
aj at
æĹ ı
áĢŀ áĢĦ
Ø§Ø¨ ÛĮ
ãĤĴ è¦ĭ
ser t
áĢħ áĢĢ
ÏĥÏĦ Î¬
ÏĥÏĦ Î®
bl y
ry ch
Ð¾ÑĤ ÐºÑĢÑĭ
à²¬ à²³
Ø±ÛĮ Ú©
Î² Î¬
Î² Î¬Î»
gy an
áĢ¡ áĢķ
áĢ¡ áĢĶ
iti es
à¸Ĭ à¸²à¸ķ
ÑģÑĮ ÐºÐ¸Ð¹
Ð´Ñĸ Ð»
Ð´Ñĸ Ðº
Î±Î½ ÏĦÎ¹
Î±Î½ ÏĦÎ¯
áĥĲáĥĽ áĥĳ
áĥĲáĥĽ áĥĺáĥĲáĥľ
Ø¢ Ø±
à¤Ĩ à¤²
à¤Ĩ à¤ª
à¤Ĩ à¤§
mÉĻ h
Ð²Ñĭ Ñħ
áĪĪ áīµ
è® ²
àº§ àº¡
à´ħ à´Ł
àº¡ àº²
å¿ Ĺ
å¿ ĺ
å¿ ľ
áĢ» áĢ¾
Ïİ Ïĥ
Ø§Ø³ Ø¨
ÏģÎ¿ Ïį
åº ķ
à¨¨ à¨µ
è¯ Ħ
è¯ ī
ä¸į æĺ¯
19 7
ren g
bli Å¾
áĤ Ĭ
Ð°Ð» Ð½Ð¾
à¶ħ à·Ģà·ĥ
×ĸ ×Ķ
×ĸ ×ķ×¨
ite v
ite Ä¾
mat eria
è¨ ¼
è¨ İ
az Äĥ
ÐĽ Ð¸
dis poni
des envol
à°ħ à°²
ÑģÑĭ Ð½
ãģĵ ãģ®
ãģĵ ãĤį
ÑģÑĸ Ð½
Õº Õ¡Õµ
Õº Õ¥Õ¿
Õº Õ¡Õ·Õ¿
æĺ¯ ä¸Ģ
vy o
vy t
à¶¶ à¶±
æķ ħ
In forma
à¹Ĥ à¸Ľà¸£
Ò¯Ò¯ Ð½
Ò¯Ò¯ Ð´
Ø« ÙĬØ±
àªľ àª¨
ÑĪÐ° Ð²Ð°
kt Ã³
ye v
Ò± ÑĢ
ìļ ¸
Ø§Ùģ ÙĬ
Ø§Ùģ Ø¸
áĥĲáĥĵ áĥĲáĥĽáĥĺáĥĲáĥľ
ë§ İ
inn ov
à¤« à¤°
Ð¿Ñĥ Ð½
Ð¿Ñĥ ÑģÐºÐ°
Ð¿Ñĥ Ð±Ð»Ñĸ
Õ¢ Õ¶
Õ¡Õ¿ Õ¾
à»Ģàº Ħ
à»Ģàº ķ
æĦ ¿
áĥĲáĥļ áĥ£áĥłáĥĺ
201 1
ÑħÐ° ÑĢÐ°Ðº
sy m
ä¿ Ĥ
çī Į
ÑģÐºÐ° Ñı
àŃŁ à¬ķ
ÃŃt Ã©s
à°¬ à°¡
pod at
gr atu
à¤ĩ à¤¤
by gg
Îĳ Î½
Îĳ Ïħ
å± ħ
red ak
pas s
éĿ ©
ÑģÐº Ð»Ð°
Ð³Ñĸ Ð·
ÛĮÙĨ ÛĮ
áĥ¡áĥĲáĥ ¨
áĥ¡áĥĲáĥ ĸ
ë¦ Ħ
ÑĨÐµ Ð¿
àª¹ àª¤
sel f
ht Ã«
ph y
Ð½Ð´Ð° Ð¹
ÑģÐºÐ¾ Ð²
rit o
tem ent
tem per
ç§ °
ç§ Ł
kol a
Îķ Ïħ
ÙĦÙī Ø±Ùī
sin in
è´ ¢
áĥĺáĥľ áĥĴ
áĥĺáĥľ áĥ¢áĥĶáĥł
æİ Ĵ
zen ie
éĽ £
åī ¯
à¨¼ à¨¿
ãĤī ãģªãģĦ
áĪ¨ áĭį
Î½Î¿ Î½
à²ħ à²Ń
ÑįÑĢ Ð³Ñį
ÏĢÎ± ÏģÎ¬
hl t
hl as
æĭ į
æł ¹
×ķ×ľ ×Ķ
áĭµ áĬķ
ÑģÐ¿Ð¾ ÑĢ
ÑģÐ¿Ð¾ Ð´Ð°ÑĢ
×Ļ×Ļ× ª
×Ļ×Ļ× ľ
kat eg
Ø¸ Ùħ
ç´ ¹
çĻ Ĥ
Î»Î¿ Ïį
kr at
ÑįÐ» ÑĤ
ìĺ Ģ
Ð¼Ñĭ Ð½
uni ver
hal ten
æ¯ į
ãģĬ ãĤĬãģ¾ãģĻ
ÒĽÐ° ÑĤÑĭ
à¦ļ à¦¨
à¦ļ à¦²
Îł Î±
æµ ĭ
ëı ħ
ãĤ¹ ãĤ¿
Ø§Ú ³
Ø§Ú ¼
à¨Ĩ à¨°
ÑĩÑĭ Ð½
ÈĽ a
çº ª
ÕŃ Õ¸Õ½
âĢ ¬
mis sion
ç« ¯
Õ¡Öģ Õ«
zu je
ÑĪÑĭ Ð»Ð°ÑĢ
Õ¸ÖĤÕ©ÕµÕ¸ÖĤÕ¶ Õ¨
Õ¸ÖĤÕ©ÕµÕ¸ÖĤÕ¶ Õ¶Õ¥ÖĢÕ«
èģ ¯
èģ ·
Ø§Ø¬ Ùĩ
å¤ļ ãģĦ
çĶŁ æ´»
jel en
jel ent
à¦Ĩ à¦®
à¦Ĩ à¦²
ì§Ģ ë§Į
EN T
ãģķ ãĤĮãģ¦
àºŀ àº§àºģ
Ø¹ÙĦ Ø§Ùħ
Ð¿ÑĢÐµÐ´ ÑģÑĤÐ°Ð²Ð¸
Î£ Ïħ
éļ ı
éļ ľ
à¬ľ à¬¨
Õ¡Õ¼ Õ¶
áº¡ c
à²· à²£
çµ ¦
Ð°Ð¹ ÑĤ
ãģĪ ãĤĭ
ãģĪ ãģ°
Î¼ÎŃ Î½Î±
18 9
uj ÃŃ
à¤¼ à¥ĩ
Ä±l mÄ±ÅŁ
Ò¯Ð½ Ð´
dom a
tal Ã¡l
Ã» n
à¸ĵ à¸°
à¬Ĩ à¬¸
dzi aÅĤ
Ð§ ÐµÑĢ
à´İ à´´
unt za
ÅĨ u
å» ¶
è½ »
mil it
ë¥ ¸
åĽ½ å®¶
èĪ ª
à®İ à®´
àªĸ àª°
yar an
×Ļ×© ×Ķ
Com un
det er
pÅĻ ed
áº£ o
edi a
ÃŁ e
æ´ ²
Ø§ÙĦØ¹ ÙħÙĦ
wan ia
é£ ²
à·ģ à¶º
à¹Ģà¸¥ à¸¢
ÑģÐ»Ð¾ Ð±Ð¾
àªħ àª¨
Ð±Ñĭ Ð»
ÏĢÏģÎ¿ Î²
cl es
dh Ã«
dem oc
sig ur
à¸£à¸² à¸Ħà¸²
ÑģÑĤÐµ Ð¹
à®ī à®£
à¹Ģà¸Ľ à¸¥
à¸Ľà¸£à¸° à¹Ģà¸Ĺà¸¨
ãĤģ ãģ¦
Æ¡ i
Æ¡ n
dol go
ÐĨ Ð½
200 9
pom o
æĤ £
áĥ© áĥĶáĥĽ
á»ĳ c
sat is
çĿ £
à¶ī à¶Ń
æĥħ åł±
dÃ¼ zen
dru Å¾
é¦ Ļ
szer et
Ãĸ n
stÃ¤ ll
ãĥ© ãĤ¤
áĥĽáĥĿáĥ ¡
ovan je
æ® ĭ
çł ´
Ð½ÐµÐ½ Ð½Ñı
Ð´ÑĢÑĥ Ð³Ð¾
àº½ àº§
Î¹Ïĥ Î¼ÏĮ
áĥĺáĥĵ áĥĲ
Ø§Øµ Ø±
æĹ¶ éĹ´
à¦ī à¦¦
à·Ĥ à¶«
ski ego
ãĥ¼ãĥ ł
éĶ Ļ
ãģ¡ ãĤī
ÎµÎ» Î»Î·Î½
à°İ à°¨
rez ult
×ķ×¤ ×Ķ
è« ĭ
éľ ²
ÑĤÒ¯ ÑĪ
æĻĤ éĸĵ
ÅĪ a
ç¦ ®
ç¦ »
à¦ı à¦ķ
Î¿Î½ ÏĦÎ±Î¹
kap csol
ÑĦÑĸ Ð½Ð°Ð½
à²İ à²²
àº¹ à»Ī
áĪĨ áĬĳ
áĥĺáĥĻ áĥĲ
á»Ļ c
á»Ļ t
Ã«n Ã«
à°ī à°¦
áĢĿ áĢĦ
Li et
ÄĿ o
vez et
Ð»ÐµÑĢ Ñĸ
ÑģÐ»ÐµÐ´ Ð²Ð°
ê´ ĳ
à¶ĭ à¶Ń
Ò¯Ò¯Ð» ÑįÑħ
Õ¨Õ¶ Õ¿ÖĢ
Õ¨Õ¶ Õ¯Õ¥ÖĢ
áĬ¥áĬķ áĭ³
hed en
szy ch
áī¸áĭį áĬķ
ëĶ °
åĢĭ äºº
dest in
á»ĭ ch
áº§ u
Ser vi
èİ ·
íİ ¸
ÙĨÙħ Ø§ÛĮ
åıĸ ãĤĬ
Õ°Õ¡Õ¶ ÖĢ
ç»ı æµİ
Res publi
gÃ¶ st
ÑĤÐµÑħ Ð½Ð¸
á»© ng
ãģ§ãģį ãĤĭ
ì¤ Ģ
á»ĥ u
ãĤį ãģĨ
idad es
Ø®Øµ ÙĪØµ
Õ¡Õ½Õ¿ Õ¡Õ¶
bos h
wen ye
Ð³ÑįÑį ÑĢ
laÅŁ dÄ±r
Å¾a va
hist ori
ÑĥÑĩÐ° ÑģÑĤ
itel j
Ð¿Ð¾ÑĤÑĢÐµ Ð±Ð¸
itate a
çĨ ±
stell t
à§¨ à§¦à§§
Euro pe
ì¢ ħ
ãĤµ ãĤ¤ãĥĪ
Î¯Î½ ÎµÎ¹
à¸«à¸¡ à¸²à¸¢
à¸¥à¸² à¸Ķ
Pu bli
kÃ¼l Ã¶n
visi on
áº· t
Õ¿Õ¡ÖĢ Õ¡Õ®
à¹ģà¸¥ à¸°
æ¹ ĸ
è¤ ĩ
Î±Ïħ ÏĦÎ¿
Õ¶Õ¡ÕŃ Õ¡Õ£
Ð¾Ð±Ðµ ÑģÐ¿Ðµ
áĥ§áĥķ áĥĶáĥļ
å¦Ĥ æŀľ
Ñĵ Ñĥ
Ð°Ð¼ ÑĮ
sio oni
ÃŃst ica
ÐĳÐµ Ð»Ð°ÑĢÑĥ
âĤ ¬
ëĪ Ħ
sep tem
pier w
gos podar
tÃ¶r t
à¸ģà¸© à¸²
Æ°á»£ c
ped ag
èŀ į
à´ªà´± à´¯
å·² ç»ı
áĥĲáĥĵáĥĴ áĥĶáĥľ
áĥĲáĥĵáĥĴ áĥĺáĥļ
á»Ľ i
Õ¿Õ¥Õ² Õ¥Õ¯
Õ¸Õ¬ Õ¸ÖĢ
ÑĦÐ¸Ð½Ð°Ð½ ÑģÐ¸
deÄŁ iÅŁ
bay can
exper ien
éľĢ è¦ģ
espe cial
àŃ§ àŃ
à¹Ĥà¸Ķ à¸¢
possi bil
à®ı à®±
resta ur
ãĥ» ãĥ»
Ò£Ñĭ Ð·
à¹Ĥà¸¥ à¸ģ
ãĥķãĤ ©
á»ħ n
åŃ© åŃĲ
abilir siniz
Ð±Ð°Ð¹Ð³Ñĥ ÑĥÐ»
wÅĤ as
à«§ à«
ÑħÐ¾Ð» Ð±Ð¾
Hr vat
à°Ĵ à°ķ
ÑģÑĤÑĬ Ð¿
Î¿Î¹ÎºÎ¿ Î½Î¿Î¼
ÑĢÐµÐ·ÑĥÐ»ÑĮ ÑĤÐ°
ì· ¨
Õ¶Õ¥ÖĢÕ¯Õ¡Õµ Õ¡Öģ
áĬ¢áīµáĭ®áĮµ áĭ«
2 000
6 4
A ÄŁ
A zÉĻr
B E
B an
B at
B ol
B os
B ab
B iz
B ras
C er
C la
C ho
C han
D y
D er
D on
D ig
E ti
E le
E con
E ner
F i
F ar
F ol
F ed
G I
G y
G am
G az
G eb
G ener
H D
H ot
H ist
H and
I h
I l
I r
I z
J I
J en
J es
K it
K li
K ab
L ab
L ib
M O
M c
M Ã¡
M ul
M eg
M ot
M eh
M IN
N I
N et
N az
N ew
O ri
O ut
O per
P el
P la
P ok
P red
P ER
P oli
P arti
R usi
R oz
S M
S it
S ti
S ing
S um
S Ã¸
S ep
S ub
T al
T ak
T im
T ag
U kra
V u
V is
W y
W er
W al
Z i
Z o
Z ah
\ \
a ik
a ge
a za
a jo
a ÄŁÄ±
a ÅŃ
b n
b Ä±
b ik
b Ã¦
b bi
b Ã½
b ÉĻt
c ke
c lar
c ciÃ³n
c ale
c art
c ato
c Ã©l
d he
d ana
d ara
d jel
d Å¯
e an
e us
e ing
e jo
e fici
f um
f lo
f Åĳ
f ili
f Ã¤r
f ei
f Ã¦r
g ur
g ob
g ag
g ele
g ara
g las
h ek
h ing
h ic
h og
h op
h Ãª
h ind
h eder
i es
i ad
i va
j us
j ang
j ist
j ie
j Ã¶r
j Ã¤n
j Ã³r
k ni
k ig
k ru
k ny
k Ã½
k ell
k Ã³w
l Ã«
l Åĳ
l ine
l leg
m w
m ba
m est
m Ã¦
m ÄĻ
m Ã¡n
m ite
m lad
m Äĵr
m obil
m ÅĤod
n an
n ud
n hi
n Ãµ
n Ã¡s
n esi
n olo
o a
o in
o ta
o sti
p Ã©
p Ã«
p ig
p and
p pe
p ana
p ili
p Ã´
p Ãºbli
q an
q iy
r Ä±
r Ã¼
r ke
r era
r Ã¤n
r Å¯
s le
s Äģ
s end
s Äĥ
s Äĵ
s vol
s ult
s wo
s jon
s voj
t od
t ter
t za
t he
t Åĳ
t ate
u Ã§
u be
u ÄŁ
u cu
u Å¾i
u Äįen
v se
v Ã®
v Ã¡n
v ita
v zd
v Å¡e
w ik
w ali
x in
y ang
y rit
y ÉĻt
y ks
z v
z il
z us
z ett
z ako
z god
~ ~
Ã ĺ
Ä Ī
Ä ŀ
Å ģ
Æ ¯
Î Ĩ
Ð ª
Ð ī
Ð ı
Ò Ĵ
Ô ¶
Ô ½
Õ ķ
× ²
Ù ĳ
ë ·
ë ĺ
ì «
ì ³
ì ĩ
ì Ń
í Ģ
ï ľ
Ð° ÑģÑĥ
Ð° ÑĪÐ¸
Ð° Ð»ÑĮÐ½
à¸ İ
Ð¾ Ñħ
Ð¾ ÑĪ
Ð¾ ÑĢÑĭ
Ð¾ ÑĩÐ¸
Ð½ Ð³
Ð½ Ñį
Ð½ ÑįÐ¼
Ðµ Ð»Ðµ
Ðµ Ð´Ð¸
Ðµ Ò£
Ð¸ Ð²Ð°
Ð¸ ÑĤÐ¾
ÑĢ Ð²Ð°ÑĤ
Ñģ Ð¼Ðµ
Ñģ ÑĨÐµ
Ñģ Ó©Ð½
Ñģ Ð¼ÐµÑĢ
er b
Ø§ Úª
Ð» ÑĬ
Ð» ÑįÑħ
à¶ ¡
à¶ Ĵ
Ð² Ð·Ð°
Ð² Ð½Ñĥ
in c
in Ã¤
in da
in Äĥ
in scri
in spir
ãģ ¶
Ðº Ð»Ñĸ
Ðº ÑĤÑĭ
Ðº Ð»Ñĥ
Ðº Ó©Ð½
Ð´ ÑĢÐµ
áŀ §
áŀ º
à¬ Ŀ
ar ra
ar te
ar Äĥ
àµ º
st il
st Ã¡
st as
st va
st ag
st Ã¶r
st vÃŃ
Ñĥ Ñĸ
Ñĥ Ð·
Ñĥ ÐºÐ°
Ñĥ ÑģÑĤÐ°
Ñĥ ÑĥÐ»
Ð¿ Ñı
Ð¿ Ð»Ñı
Ð¿ ÑĢÑį
à¨ Ŀ
Ð¼ Ó©
Ð¼ Ð¿Ð°
at s
at ri
at ed
at ge
at kan
al g
al de
al eg
al kal
on ia
on gan
re h
re tar
re publi
re Ä£
Ø± Ø´
Ø± Ú©
Ø± ÙĪÙĨ
Ø± Ø§Ø¦
Ø± Ø§ØŃ
ÙĦ Øª
ÙĦ Ø§ÙĨ
ÙĦ ÛĲ
ÙĦ Ø§Ø¨
ÙĦ ÛĮÙĨ
ÙĦ ÙĪÙħ
el es
el ing
or g
or k
Ð³ Ð½Ðµ
Ð³ ÑįÑĢ
ÙĨ ÛĲ
ÙĨ ÙĪÛĮ
it ra
Ð· Ò¯
Ð· Ð¸Ð½
Ùħ Ùħ
Ùħ Ø§Øª
Ùħ Ø¯ÛĮ
ÙĪ Ø§
Ð± Ð»
Ð± ÐµÐ½
Ð± Ñİ
Ð± Ð»Ñİ
Ð± Ó©Ð»
is in
is la
is san
es ku
Øª Øº
Øª ÙĪÙĨ
Øª Ø¶
Øª ÙĨÙĩ
et an
et len
ra f
ra q
ra si
áĪ İáī½
Ñı Ñģ
Ñı ÐºÑĸ
Ã¡ in
Ã¡ ci
Ã¡ Å¡
Ã¡ cie
Ã¡ bb
Õ¡Õ ³
as si
as yon
ÙĬ Ûķ
ãĤ ¬
ãĤ ½
un un
Ã© ment
à§ İ
ol ar
ol Ã³g
Ø¯ ÛĲ
Ø¯ Ø±ÛĮ
Ø¯ Ø§Ø´
ad en
ad er
ad Ã¡s
à¤° à¤Ń
ri d
ri f
ri co
ri ft
ÑĢÐ° ÒĽ
ro g
ro w
ro pa
ro man
Ñĩ Ð»
Ñĩ ÐµÐ½Ð¸
Ñĩ ÑĥÐ²Ð°
ci os
ci pe
ci pl
ci pal
ti in
ti ya
ti dig
ÉĻ f
di i
di y
di jel
di fic
em s
em en
em an
em ente
Ä± q
Ä± na
Ä± lan
Ä± cÄ±
li b
ÐµÐ½ Ðµ
Ø³ Ø§ÙĦ
Ø³ Ø§ÙĨ
Ø³ Ø®
Ø³ Ú¯
Ø³ Ø§Ø³
Ø³ ÙĬÙĨ
Ø¨ ÙĤ
Ø¨ Ø´
Ø¨ Ø¬
Ø¨ ÙĪØ±
Ø¨ Ø§Ø¯
Ø¨ ÚĨ
Ø¨ ÙĬÙĨ
Ø¨ ÙĬØ±
Ø¨ ÙīØ±
om b
om men
om Ã¡ny
ÑĨ ÐµÑĢ
Ø§ÙĦ Ø§
Ø§ÙĦ ÛĮ
Ø§ÙĦ Ø§ÙĨ
Ø§ÙĦ Ø´Ø±
ak in
ak at
ent os
Î¹ ÏĦ
Î¹ Ïİ
Ð½Ð° Ð»Ð°
Ð½Ð° ÑģÑĤÐ°
Ð½Ð° Ð·Ð¸
Ð½Ð° Ð»ÑĮÐ½
Ð½Ð° Ð¿ÑĢÐ°Ð²
Ð½Ð° Ð¿Ð¸ÑģÐ°
Ð½Ð° ÑĨÐ¸Ð¾Ð½Ð°Ð»
áī ¹
si p
si da
si ja
à¸² à¸Ħ
à¸² à¸°
à¸² à¸«à¸£
ÃŃ ch
ÃŃ na
ÑĪ ÐºÑĸ
ÑĪ ÐµÐ½Ð¸Ðµ
ÑĪ ÑįÐ½
Ð²Ð° Ð¹
Ð²Ð° ÑĢÐ¸
Ð²Ð° Ð»Ð¸
Ð²Ð° ÑĨÑĮ
ÖĢ Õ¡Õ¶
ÖĢ Õ¡Õ´
ÖĢ Õ¡Õ£ÖĢ
po jen
po ved
ÏĦ Ïİ
ÏĦ Î¯Î±
ÏĦ Î¹Î±
ur y
à¤ķ à¤¨
à¤¤ à¤¤
à¤¤ à¤µ
Ã¼ d
Ã¼ st
áĬ ª
Ñį Ðº
Ñį ÑĦ
Ã³ k
Ã³ p
Î½ ÏĮ
Î½ ÎµÎ¹
ut an
ut ar
ut or
ut ak
us s
Ð¿Ð¾ Ð·
Ð¿Ð¾ ÑĢÐ°
Ð¿Ð¾ Ð²Ð¸
Ð¿Ð¾ ÐºÑĥ
Ð¿Ð¾ ÑģÐ¾
Ð¿Ð¾ ÑĩÐµ
Ð¿Ð¾ Ð²ÐµÑĢ
Ð¿Ð¾ ÑĢÑĤ
Ð¿Ð¾ Ð´Ð°ÑĤ
à´ķ à´Ł
à¤¸ à¤ļ
ik ut
ik us
le id
ÑĢÐ¾ Ð±Ð¾
ÑĢÐ¾ ÑģÑģÐ¸
de el
de cor
de jt
de pend
à¸Ļ à¸ª
ä¸ ¾
ÑĢÐµ ÐºÐ¾Ð¼ÐµÐ½
ta is
ta pa
os nov
um en
um Äģ
ÐºÐ° Ðº
ÐºÐ¾ ÑĤ
ÐºÐ¾ Ð²Ð°
im is
à´¨ à´¨
da je
da ug
ÙĤ Øµ
ÙĤ ÙĬÙĤ
ÑĢÐ¸ Ð¼
Ð»Ð° Ð°
Ð»Ð° Ð¹
Ð»Ð° Ð¼Ð°
Ð»Ð° Ð½Ñĭ
Ð»Ð° ÑģÑĮ
Äį u
Äį nÃ©
Äį uje
ÑĤÐµ Ð¿
vi ja
vi sta
vi Äĩ
ka u
ka in
Îº Î¬Î½
Ð´Ð° Ð°
Ð´Ð° Ð½Ð½Ñı
à¤¯ à¤ª
eg u
eg ar
eg Ã©sz
Ø¹ ÙĤ
Ø¹ Ûģ
Ø¹ Ø·
Ø¹ Ø§Øª
Ø¹ Ø¶
na f
à®ķ à®µ
à®ķ à®©
Ùģ ÙĤ
Ùģ ÙĦØ³
Ò¯ Ð¿
ÏĢ Î¬
ÏĢ Î»Î±
ÅŁ i
ÅŁ ÉĻr
ÅŁ eh
à¸Ń à¸§
à¸Ń à¸Ľ
ma x
ma an
ma ga
à¤ª à¤¯
à°° à°¸
Î» Î»
Î» Ïħ
Î» Î¹Îº
Î» ÎµÎº
à¹Ģ à¸Ńà¸ĩ
ov at
ov Ã©
ov ol
Ø´ Ø§ÙĨ
Ø´ Ûĩ
×ŀ ×ľ
×ŀ ×Ĵ
×ŀ ×¢×¨
×ŀ ×ķ×¦
à¸ģ à¸Ĺ
Ú© ÙĦÛĮ
Ú© ÙħÛĮ
Ø§ÙĨ ÙĬØ©
ab ad
ab ili
Õ« Õ¦
Ð»Ð¸ ÐºÐ°
Ð»Ð¸ Ð²Ñĸ
Ð¼Ð° ÑĤÐµÑĢÑĸ
à®¤ à®±
Ð²Ð¾ Ð»Ð¾
Ð²Ð¾ Ð³Ð¾
á» ¡
á» ¹
Ó© Ð¼
×Ĳ ×ķ×ł
ap er
ap or
ap pro
ap pe
zi v
ne u
Äģ cija
Ã« t
Ã« sis
se ura
ÑĤÐ¸ Ð½Ð°
ÑĤÐ¸ ÑĤÑĮ
ÑĤÐ¸ ÑĩÐ½
Ð·Ð° ÑĤ
Ð·Ð° Ðº
Ð·Ð° Ð¼
Ð·Ð° Ð¿Ð¾
Ð·Ð° Ð´Ð°
Ð·Ð° Ð»Ð¸
je j
ic al
ot ra
×ľ ×ĵ
Õ¸ÖĤ Õ¬
Ø¬ ÛĮ
Ø¬ Ûķ
Ø¬ ÙħØ¹
à¸ĩ à¸ģ
à¸ĩ à¸ª
à¸ĩ à¸Ħ
à¸ĩ à¹ģà¸£
à´° à´µ
Ð²Ð¸ Ð´Ð¸
ge bo
ia usi
à¦° à¦¸
pro to
pro ced
ter itori
ja h
ja vi
iz o
iz en
iz ra
va ar
va Å¾
va sta
va zh
áĢº áĢ¬áĢ¸
×ĳ ×ĺ
×ĳ ×Ł
×ĳ ×Ļ×¢
×ĳ ×Ļ×ĳ
sk ar
sk Ã³
sk og
sk Ã½
id an
ob b
ob r
ob ec
ob lig
ob raz
Ø§Ø± Ùģ
Ø§Ø± Ø§Øª
ÑĤÐ¾ ÑĢÐ°
ÑĤÐ¾ ÑĢÑĸ
à¤¦ à¤µ
ØŃ Ú©
áĮ ¡
áĮ »
ha g
Î¯ Î´Î±
ve j
ve Ã§
à¹Ģà¸ ī
Ñİ ÑĩÐ¸
äº ²
äº ŀ
sp let
sp ann
sp ira
sp olo
ist ÉĻ
à¶» à¶¯
con vi
con to
con cer
con sul
no ÅĽÄĩ
×¢ ×©
×¢ ×ĺ
ie f
Ð»Ð¾ Ð¿
sa ge
sa va
za ch
à¶º à¶½
ce j
à¤¹ à¤¸
à´¯ à´®
Ùĥ Ø§Øª
Ùĥ ÙĪÙĨ
qu am
qu ent
qu ier
à´ª à´¨
à´ª à´£
Ð³Ð¾ Ð²Ð°
à¶ļ à·Ģ
à¶ļ à·ħ
Ð´Ð¾ Ð¾
Ð´Ð¾ Ð¹
Ð´Ð¾ Ð±Ð°
per met
Ð³Ð° Ð¹
Ð³Ð° Ð°ÑĢ
àª° àª£
Ð½Ðµ Ð¼Ð°
à®ª à®¯
ÑĦ Ð°ÑĢÐ¼Ð°
çļ Ĩ
à®° à®£
à°ķ à°¡
áĥł áĥĲáĥ¤
Ð»Ðµ Ð¼
ba g
ba x
ba z
Ø² Ø§
Ø² ÙĪ
Ø² Ø§Ø±
à¬° à¬¸
áº «
ng u
Ù¾ ÙĨ
Ù¾ Ø§Ú¼
çļĦ æĺ¯
ìĿ ĳ
áĥĽ áĥĶáĥĵ
áĥĽ áĥĹáĥĲáĥķ
áĥĽ áĥĲáĥĴ
Ð´Ð¸ Ð¹Ð½
ag ri
ag em
×ł ×ķ×¡
Ø® Ø§Øµ
à¸´ à¹Į
áĥ¡ áĥĺáĥĽ
pre t
pre sen
Ð´Ðµ ÑĤÐµ
Ð´Ðµ Ð»ÑĮ
Ð´Ðµ Ð»Ñı
est Ã¤
est ro
est udi
est able
ya ar
pr Ã¤
pr Ã¼
pr Ã¦
ãģĦ ãģĦ
ati f
à´² à´ª
à´² à´Ń
Ð²Ðµ Ð·
Õ´ Õ¿
Õ´ Õ¢
Õ´ Õ¥Õ¶
à²¤ à²¦
Î³ Ïħ
Î³ Î³
à´µ à´ķ
à´µ à´¯
à´µ à´²
Ð¡ ÑĤÐ¾
Ð¡ ÑĤÑĢÐ°
Ð¡ ÑĢÐ±Ð¸
à¤ľ à¤¸
à¤ľ à¤®
à¤ľ à¤Ĺ
à¤¬ à¤¦
à¤¬ à¤ľ
àºĻ àºĹ
ac c
ac ti
ac Ä±
à°¤ à°ķ
à·ĥ à¶º
men er
à®® à®²
Ãº a
me z
åħ Ń
åı ĥ
å¤ ´
å¤ ľ
à¸ª à¸ķ
à¸ª à¸²à¸£
à´® à´°
Ú¯ Ø±ÛĮ
Ú¯ ÙĪÛĮ
vo ca
Ð¿Ð° Ð½
Ð¿Ð° Ð»Ñĸ
ÐĲ Ð²
ÐĲ Ñĥ
ÐĲ ÐĻ
à°ª à°¤
à°ª à°¦
lo h
Î´ Ïį
Î´ ÎµÎ¯
Ã¸ d
ca q
ca us
ÑģÐ° Ñĥ
ÑģÐ° Ð¼
ÑģÐ° Ð½Ð°
ÏĮ Ïĥ
ÏĮ ÏĤ
áĢĢ áĢĻ
Ä« k
Ä« ga
Ä« dz
Õ¡ÖĢ Õ°
Õ¡ÖĢ ÕµÕ¡Õ¶
à°µ à°²
tr z
å® Ī
Ð¾Ð± Ð¾
Ð¾Ð± Ð²Ð¸
be f
ku j
à²¸ à²¦
op en
op ini
à¶¯ à¶º
Ð¼Ðµ ÑģÑĤÐ¾
Ð¼Ðµ ÑĤÑĢ
Ð¼Ðµ ÐºÑĤÐµ
ÄŁ un
ÄŁ Ã¼
à¸ļ à¸Ļ
à¸ļ à¸£à¸£
à¸ļ à¸Ńà¸¥
su z
ec tiv
pa i
pa st
áĥķ áĥĶ
áĥķ áĥĶáĥľ
Ñī Ñĥ
Ñī ÐµÐ½Ð¸Ðµ
à¦¬ à¦¹
×§ ×¡
Õ¥Õ Ń
Ð¼Ð¸ ÑĤÐµ
ki ek
×Ĺ ×ĵ
wa h
Äħ Å¼
à¸ķ à¸¥
×ĵ ×ķ×¨
Ðļ ÑĭÑĢ
hi o
Ð¿ÑĢÐ¾ ÑĪ
Ð¿ÑĢÐ¾ Ð±Ð»Ðµ
Ð¿ÑĢÐ¾ Ð³ÑĢÐ°Ð¼
åĪ Ļ
Ð½Ñı Ð²Ð°
ny i
mi esz
du ra
pi o
à´¸ à´¨
à´¸ à´°
à´¸ à´¹
à´ļ à´°
áĢĻ áĢĲ
áĢĻ áĢĬ
à¤¶ à¤°
áĥĺáĥ¡ áĥ£áĥ¤
Ø· Ùģ
ÑĩÐ° Ñģ
ÑĩÐ° ÑģÐ¾
ÑĩÐ° ÑģÑĤÐ¸
par ten
Ã½ sing
à²Ĺ à²¤
à°¯ à°¨
à°¯ à°²
Ø£ ÙĬ
com pan
com ple
so cial
ÐºÑĥ Ñģ
áį £
Î¹Îº ÏİÎ½
áŀŁ áŀł
ëĭ ´
áĥĵ áĥĶáĥĳ
áĥĵ áĥĶáĥľ
áĥĵ áĥĿáĥĽ
áĥĵ áĥĲáĥª
ÑĩÐ¸ Ð¼
ÑĩÐ¸ Ñħ
lar da
Ð½Ñĸ Ð²
Ð½Ñĸ Ð¼
Ð½Ñĸ ÑģÑĤÑĮ
à¦® à¦¤
cz Äħ
Ðŀ ÐĿ
Ð¶Ð° ÑĢ
Ð»Ñĸ Ð²
×Ľ ×Ĳ
×Ľ ×Ŀ
à²¯ à²¨
à²¯ à²µ
áŀĶ áŀİ
pe dia
åĲ ¸
ÙĪØ± Ø©
ÑģÐ¸ Ð²
ÑģÐ¸ ÑĺÐ°
àªµ àª¸
co in
kon na
àªķ àª²
ÄĹ k
ÄĹ ti
ÑĤÑĥ ÑĢÑĭ
à¬ķ à¬®
à¬ķ à¬¹
ten i
à¦ª à¦¡
à¦² à¦¨
à¦² à¦¯
ÑģÐµ Ð¹
Ã® m
à¨¸ à¨ķ
à¨¸ à¨²
pl as
àª¨ àªµ
ãģ® ä¸Ń
sh Ã«
Ð¿ÑĢÐµ ÐºÑĢÐ°
áĥľ áĥĺ
áĥľ áĥĶáĥľ
áĥľ áĥĶáĥĳáĥĺáĥ¡
nd ar
ÐĶ ÐĲ
ÐĶ ÑĢÑĥ
ÐĶ Ð¾Ð±
à®¯ à®®
ãģª ãĤĭ
ell es
Ðĳ Ñĥ
àºģ àº°
à±ĩ à°Ĥ
áĥ¢ áĥĶáĥļ
Õ¡Õ¯ Õ¥ÖĢ
Õ¡Õ¯ Õ¡ÖĢÕ£
å° Ħ
å° ĩ
áĥĴ áĥĸ
à¬¤ à¬¨
Ð¿ÑĢÐ¸ Ð½Ñı
à²® à²°
à²® à²¹
min d
min en
min ut
ä¸Ģ æŃ¥
wy korzy
ÅĽ ni
ÅĽ red
ÅĽ nie
ÅĽ wie
ÐĴ ÑĬ
íķ Ħ
à®³ à®°
ÖĦ Õ¸ÖĤÕ´
pu h
pri me
pri jat
pri ekÅ¡
val t
ÑĤÑĭ ÑĪ
ÚĨ Ø§Ø±
Øº Ø±
è¿ ·
è¿ ľ
ÑħÐ¾ Ð²
wi ch
à°Ĺ à°°
Åĳ sÃ©g
åĬ ¹
ex em
ex pres
ex clu
sti an
à¹ģ à¸Ī
à¹ģ à¸ľ
Ð¸Ð· Ð´Ð°
Ð¸Ð· Ð¿Ð¾Ð»Ð·Ð²Ð°
ÑĺÐ° Ð²Ð¸
áĥĹ áĥĲ
ze it
à¤Ń à¤¯
à¤Ń à¤µ
gen o
áĪŃ áīµ
ali an
Ðĺ ÑģÑĤÐ¾
Å¼ Äħ
Å¼ ej
Å¼ yt
ãĥ¼ ãĥ³
ãĥ¼ ãĤ¹
jo ur
fi zi
ãģ§ ãĤĤ
ere a
ä¼ °
åį ±
åį ĥ
åį ĩ
à¬¸ à¬¹
por ter
à¹Ħ à¸Ĥ
pen di
à²ª à²¤
à¦¼ à§ĭ
éĢ ı
Ûĩ Ù¾
Ð±Ð¸ ÑĢ
×¦ ×¢
à¶ľ à¶½
àºŃ àºĶ
àºŃ àºį
Ø§ÙĦÙħ ÙĨ
Ø§ÙĦÙħ Ø¬
Ø§ÙĦÙħ Øµ
Ø§ÙĦÙħ Ø¤
kom is
kom ent
kom and
Ã¡s ok
Ø§Ø¦ ÙĨ
Ø§Ø¦ Ø¯
Ø§ÛĮ ÙĦ
Ð»Ñĭ Ñģ
pra kt
pra cov
we za
we ise
ÑģÑĤÐ¾ Ð²
à»Ģ àº¡
à»Ģ àºļ
à¦¦ à¦¨
áĬł áĮĪ
tÃ¤ n
tÃ¤ vÃ¤
Ø¶ Ø§
à¬ª à¬£
ê° Ļ
ê° Ŀ
å¸ Ń
éģ Ĭ
Õ£ Õ«Õ¿
åĽ ¾
åĽ Ń
ÅĻ ej
Ð¸Ð½ ÑģÑĤÐ¸ÑĤÑĥ
áĢľ áĢĦ
Ã¢ l
áĢŀ áĢĲ
Ø§Ø¨ Øª
ini ci
ini zi
ÙĨØ¯ Ø§
hu bung
Ð¼Ñĥ Ð·Ðµ
ning er
ìķ Į
Ð¼ÐµÐ½ Ñı
Ð¼ÐµÐ½ Ð½Ð¾
áĭ¨ áĪĺ
isi on
ÏĥÏĦ Î¹
ÏĥÏĦ ÏģÎ±
bl and
ry d
è¦ º
áĥĻ áĥļ
Ð¾ÑĤ Ð²Ð¾
Ø±ÛĮ Ùģ
Î±Î½ Î¸
ãģĮ ãģĤãĤĭ
ãģĮ ãģĤãĤĬãģ¾ãģĻ
Õ¡Õµ Õ¬
ÐºÐµ Ð´Ð¾
ÐºÐµ Ò£
asi da
Ø¢ Ùħ
Ø¢ Ø®
ç» Ĩ
ç» Ī
à¤Ĩ à¤¦
à¤Ĩ à¤¶
mÉĻ lum
åĩ »
Ð²Ñĭ Ðµ
Ð²Ñĭ Ñı
Ð²Ñĭ Ð¿Ð¾Ð»
è® Ĭ
áĪĿ áĬŃ
àº§ àºį
Ø±ÙĪ Ùģ
Ð¿Ð¸ ÑģÐ°Ð½
lig ht
ai an
Ã¨ me
ÑĶ Ð¼Ð¾
áīł áĪĺ
Äĳ u
à´ħ à´§
Úª ÙĨ
Úª Ø±ÙĬ
à²¹ à²²
Å« k
å¿ Ļ
çĽ £
çĽ Ł
à©ĩ à¨Ĥ
æĿ ĳ
æĿ Ł
Ø§Ø³ Ùħ
à¨® à¨°
ÏģÎ¿ ÏĤ
mer k
sl and
åº ĥ
åº ı
int ro
int ele
af ir
Õ¸ÖĤÕ´ Õ¶Õ¥ÖĢ
tor ia
å¥ ¶
å¥ ĸ
ill et
ill Ã¤
vol e
Ð°Ð» Ð½Ð¸
à¶ħ à¶»
à¶ħ à¶©
Ð³ÑĢÐ° Ð½Ð¸
éĩ ĩ
ÐĽ Ñİ
ì§ Ī
à°ħ à°ª
à°ħ à°¯
áĢģ áĢĶ
ëĭ¤ ëĬĶ
áĢ½ áĢŃ
áĢ½ áĢ±áĢ¸
br itan
Õº Õ¡ÖĢ
Õº Õ¡Õ°
vÃ¤ nd
vy k
Ø° Ùĩ
Ø° ÙĦÙĥ
pol ic
æŃ ¡
à®ħ à®ª
à®ħ à®²
Ã©r dek
Ð·Ð½Ð° ÑĩÐ¸
Ø±ÙĬ Ø§Ø¶
ÑģÑĤÐ² ÐµÐ½Ð¸
vel se
áŀĻ áŀĢ
à¹Ĥ à¸Ļ
Ð±Ñĥ ÑĤ
áĥĲáĥķ áĥ¡
Õ¸ÖĤÕ¶ Õ¥Õ¶
Ä° ÅŁ
str on
Ø« ÙĦ
vis e
Ø§Ùģ ÛĮ
ÑĺÐµ Ð´Ð¸
ug ht
æĶ »
áĭ« áĪµ
Ã¼n de
Ð»ÐµÐ½ Ð¾
à¨ª à¨°
à¨ª à¨¤
Ã´ m
ä¿ ĥ
ÑĢÑĸ Ð·
æĬ ¤
æĬ Ĺ
ÑģÐºÐ° Ð¹
ama an
àŃŁ à¬°
áī½ áĪģ
ÑĪÐµ Ð¹
ÑĪÐµ Ð³Ð¾
à°¬ à°°
ÑĨÑĮ Ðº
pod r
nik Ã³w
Æ° a
åĨ Ľ
ê² Ģ
ëĬ Ĳ
à¤ĩ à¤¸
à¦¹ à¦¯
à¦¹ à¦¤
by t
mem ber
çľ ¾
çľ Į
å± Ĥ
å± ŀ
ëĤ ł
Õ¸Õ ¹
pas a
éĻ ħ
del se
del ig
jed h
áĮį áĪŃ
áĮį áĪį
æĻ º
ë¦ °
èĩ º
àº« àº²
Î¾ Îµ
Î¾ ÎµÎ¹
Î¾ ÎµÎ¹ÏĤ
ment a
ph one
åĵ ¥
atu ur
reg ul
Å¾i vot
Ð¥ ÐµÑĢ
ç§ »
sc en
sc rit
uz ÅĨÄĵm
An al
àªĹ àª°
ãĤĵ ãģł
ow any
Îķ ÎĻ
à®ĩ à®¯
Ð´Ð· ÑıÑĢ
ÛĮØ¯ Ùĩ
Ch ar
à¸²à¸¢ à¸Ļ
ÑģÑĤÐ²Ð¾ ÑĤÐ¾
ef ter
è¾ ĥ
Ð¾Ñģ Ð½Ð¾Ð²Ð°
ÎºÎ± ÏĦÎ¿
ÎºÎ± ÏĦÎ¬
Ã± os
à¨¬ à¨£
áĥª áĥľáĥĿáĥĳ
à²ħ à²¤
à²ħ à²µ
ä¸Ń å¿ĥ
ÏĢÎ± ÏģÎ¿Ïħ
æĭ ¿
àº¥ àº²
×ķ×ľ ×Ļ×Ŀ
Pro gra
ev entu
×Ļ×Ļ× Ķ
áĥ£áĥł áĥľ
hat Ã¡
hat Ã³
æ² ¹
Å£ Äĥ
ç´ ¢
ç´ §
ç´ ļ
à¤ķà¤° à¤¤
Î»Î¿ ÏĤ
isk Äģ
kr ing
áĥ¥ áĥĲáĥłáĥĹ
à²ļ à²°
ìĺ ¬
Ð¼Ñĭ Ð·
Ð¼Ñĭ ÑĪ
ÐºÐ¾Ð½ ÑĤÑĢÐ¾
ÐºÐ¾Ð½ ÑģÑĤÑĢÑĥÐº
ÐºÐ¾Ð½ ÐºÑĢÐµÑĤ
æ¯ «
àª¶ àªķ
ãģĬ é¡ĺ
oc cu
sÃ¤ Ã¤
tam ent
Õ¬ Õ¸ÖĤ
ìĥ µ
sol id
Îł ÎµÏģ
Ñĳ Ð½
Ñĳ Ð¼
æµ ª
æ¸ ¯
ÑĦÐ¸ ÑĢ
gar an
gar anti
kar ÅŁÄ±
ÙĪÚ ĺ
ÙĪÚ ļ
Ã¶l d
Ã¶l k
Ø§Ú Ń
stan e
à¨Ĩ à¨¨
Õ® Õ¡Õ¼
Ð´ÐµÐ½ Ðµ
áĪĽ áĪµ
lÃ¤ ng
ÕŃ Õ¡Õ²
âĢ Ļ
èª ŀ
èª Ń
Ð¿Ñĸ Ñģ
ÙħÛĮ Ø±
ÙĬØ¯ Ûĩ
Î¼Î¿ Ïģ
gel se
gel ig
Ã¸r er
ÑħÐ¸ Ð¹Ð½
ÑħÐ¸ Ð¹Ð»
è² ¡
è² ¸
è² ł
ãģĳ ãĤĭ
ãģĳ ãĤĮãģ°
ami ento
×Ļ×ł ×ķ
×Ļ×ł ×ª
Ø§Ø¬ ØªÙħØ§Ø¹
à»į à»ī
ë³ ¸
ÐµÐº Ñģ
ØªÙĪ ÙĤ
×ķ×ł ×Ļ
ib us
ib le
zt at
ê°Ģ ëĬ¥
fic o
eni u
à¦ĩ à¦²
ÏģÎ¹ Ïĥ
Ø¹ÙĦ Ø§ÙĤ
pla y
áº¡ o
áº¡ ch
ks om
Ã©n ek
ÑįÐ³ Ð´
form ul
ãģĵãģ¨ ãĤĤ
ãģĵãģ¨ ãģ¯
áŀ¢ áŀĵ
sim mÃ¤
ÎºÎ¿ Î¼
ÎºÎ¿ Ïį
çµ Į
éł Ń
áīĢ áĪŃ
×ķ×ĳ ×Ķ
Î¼ÎŃ Î½Î·
ìĬ¤ íĬ¸
18 7
íķĺ ìĹ¬
hr vat
pon t
yi ÅŁ
Ð°Ð´ Ð¼Ð¸Ð½Ð¸ÑģÑĤÑĢÐ°
Ä±l Ä±r
fr on
fr Ã¥
ç¶ Ń
áĬĵ áĪį
Ã» r
à¸ĵ à¸ĳ
áĥĶáĥ¡ áĥĺ
bas h
mit tel
pal vel
ÏĥÏħ Î³Îº
à»ģ àºĻ
à»ģ àº¡
à»ģ àºĤ
æı Ľ
æŀ ģ
à¶° à¶±
áĬŃ áĪį
à´ĩ à´°
à´İ à´¤
àºĦ àº§
Ð¿Ð¾Ð´ Ð´ÐµÑĢ
Ð²ÑĸÐ´ Ð±Ñĥ
Ð²ÑĸÐ´ Ð¿Ð¾Ð²Ñĸ
çŁ ³
çŁ Ń
à´Ń à´µ
Ø³ÙĦ Ø³ÙĦ
dal y
Ã² ria
è½ ī
ÑĤÑĢ Ñı
à¥Į à¤Ĥ
ÎµÏĢ Î¯
áĬ¨ áīµ
áĬ¨ áī°
Î¤ ÎŁ
Ð²Ñı ÑĢ
iza ciÃ³n
AL I
ç® ±
èĪ ¬
à¸ĺ à¸£à¸£à¸¡
ÑĩÐ½Ð¾ ÑĹ
å£ °
å£ ²
ëª »
à´Ĩ à´¶
ãģĹãģ¦ ãģ¿
Per son
Re publi
pÅĻ i
Ðĸ Ð°
è£ ģ
ëŀ ĳ
tir ish
ÑģÑĤÐ²ÐµÐ½ Ð¾
ÃŁ er
è· Ł
×Ļ×§ ×¨
nj eg
é£ İ
kes k
è° Ī
Ð³Ðµ Ð¹
×ķ×ŀ ×¨
Õ¸Õ² Õ»
kam pan
ë© Ķ
ìĪ ł
à¶ĳ à·Ħ
à¨Ł à¨°
cam bi
ç© ¿
ÎµÏħ Î¸
dra u
Úĵ ÛĮ
à®ī à®°
à¦ĸ à¦¨
ÑģÐ»Ñĥ Ð³
ÑģÐ»Ñĥ Ð¶Ð¸
áĥĲáĥª áĥĺáĥĲ
ÑĩÐµÐ½ Ð½Ñı
Ð²ÑĢ ÑĬ
æĹ¥ æľ¬
à¬ħ à¬§
áĥĶáĥķ áĥĲ
ìĹĲ ê²Į
Ã¢n Äĥ
àºĤ àº°
Õ½Õ¿ Õ¥Õ²Õ®
200 7
200 8
æ» ¿
à²ĩ à²²
á»ĳ n
à¶ī à¶¯
inst ru
Ã¡z al
æĥħ åĨµ
cent r
dru Å¡t
Ù½ ÙĬ
Õ¡Õº Õ¡Õ°
Õ¡Õº Õ¥Õ½
ãĤ¯ ãĥª
szer Å±
ÕµÕ¡Õ¶ Õ¨
AM A
ç¥ ¨
ì° ¸
áĭ³ áĬķ
Ø®ÙĪ Ø§ÙĨ
Ø®ÙĪ Ø§Ùĩ
å¢ Ĺ
×ķ×§ ×¨
áº¥ u
áº¥ y
ÎŃÏģ Î³
åŃ¦ çĶŁ
ovan ja
ç¼ º
ÑĤÑį Ð¼
à²Ĩ à²°
rig ht
Î¹Ïĥ Î¼Î¿Ïį
Å£i onal
nÃ½ ch
èĬ ±
à¦ī à¦ª
à¬Ľ à¬¨
Ø¯Ø§Ø± ÛĮ
Ø¦Ùī Ø´
Sh qip
ÐµÐ² ÑĢÐ¾
cri p
jan je
æº ĸ
à®Ĩ à®©
ÐºÑĢÐ¸ ÑĤÐ¸
ÑĤÐµÑĢÐ¸ ÑĤÐ¾ÑĢÐ¸
ÑĤÐµÑĢÐ¸ ÑĤÐ¾ÑĢÑĸ
person al
les zt
Ôµ ÕĲ
Ù¼ ÙĪÙĦ
è¼ ķ
Ð·Ñĸ ÑĢ
á»Ļ ng
éĮ ¯
wor k
åĶ ±
é¤ Ĭ
íı ī
Ð½ÑĮ Ð¾Ð³Ð¾
Ð¹Ñĭ Ð¼
zia ÅĤ
mÃ¶ v
rÃ³ d
zel f
Ð« ÐĿ
ÚĻ ÙĪ
æ§ ĭ
ç± į
vÃµ r
vÃµ imal
Õª Õ¡Õ´
à¶ĭ à¶¯
rek tor
à·Ģà¶» à¶º
pred sta
å¾Ī å¤ļ
áĬ¥áĬķ áĭ²
Uni ver
çĥ Ī
çĥ Ń
à¤ħà¤¸ à¤¤
beg yn
çĭ ¬
ìĻ Ħ
ÐºÐ²Ð° Ð»Ð¸
à»ĥ àº«
à¶ļà¶» à¶±
íķ´ ìĦľ
ÑħÐ¾Ð´Ð¸ ÑĤ
bul un
gÃ¶r Ã¼ÅŁ
áĥĺáĥª áĥĺ
à»Ħ àºĶ
Öħ Õ£Õ¿
ç¸ £
ç¸ ½
à¨ī à¨£
posi bil
à¹Ģà¸Ħ à¸¥
dok ument
ëĦ Ī
Ð¾Ð¿ ÑĪÑĤÐ¸
áĪ® áī½
nji h
çª ģ
èı ¯
inte gr
à¸Ļà¸Ĺ à¸²à¸ĩ
Äģd Äģ
Î¬Ïģ Ïĩ
prÃ¡ v
cr ÃŃ
íģ ´
á»į n
ÏħÏĢ Î¿ÏħÏģÎ³
gem ein
jÃ¤r jest
ÎºÏĮ Ïĥ
cep tion
tech ni
áĥĴáĥĲáĥĽ áĥĿáĥ
yÄ± b
æ¦ Ĥ
éĨ «
à¹Ģà¸§ à¸¥à¸²
æıĲ ä¾Ľ
éĬ ·
ÏĥÏĩ Îµ
ÅŁÉĻ x
ãģ«ãģª ãĤĬ
ãģ«ãģª ãģ£ãģ¦
Bi bli
fot ografi
zna cz
Û± Û³
çĨ Ł
posl ed
Ã¶s sz
á»ĵ ng
hÃ¥ nd
Ð³Ð»Ðµ Ð´
Ð³Ð»Ðµ Ð´Ð°
ãĤĦ ãģĻ
áŁĬ áŀ»
Ð¿Ð¾Ð»Ñĥ ÑĩÐ¸
Î³ÏģÎ± Î¼
Õ¿ÖĢ Õ¸Õ¶
Õ°Õ¡Õµ Õ¿Õ¶
ìĥĿ ê°ģ
lÃ¦ g
Î¥ ÏĢ
æ¾ ³
ë£ ¨
à²ī à²¦
ãĤ³ ãĥ³
á»ķ i
æĶ¿ åºľ
Ð¿ÑĢÐ¾Ð¸Ð· Ð²Ð¾Ð´
ied r
Ð¸ÑģÐ¿Ð¾ Ð»ÑĮÐ·Ð¾
ãĥĨ ãĤ£
áģĤ áģ
Ð¢Ðµ Ñħ
dÃ¼ÅŁ Ã¼n
stÄģ v
ÏĥÏĦÎ± ÏĥÎ·
áģ¿ áĢķ
Û² Û°
sio on
ãģ¨æĢĿ ãģĦãģ¾ãģĻ
ÏĨÎ¿ ÏģÎ¬
ÎµÎ¯Î± ÏĤ
____ ____
ÉĻcÉĻ k
Õ°Õ¡ÖĢ Öģ
Ø§Ú» ÙĬ
àºŀàº² àºļ
lok al
Ð¼Ò¯ Ð¼
Ø¯Ø§ÙĨ Ø´
owan ie
åª Ĵ
æª ¢
ì± ħ
ìĶ ¨
Ð¾Ð¿ÑĢÐµ Ð´ÐµÐ»ÐµÐ½
Å¡te vil
Î´Ïħ Î½Î±
àº°àºĻ àº°
ÎµÏģÎ³ Î±Ïĥ
Ð±ÐµÐ· Ð¿Ðµ
== ==
leÅŁ tir
ÑĦÐ¸Ð½Ð°Ð½ ÑģÐ¾
Ges ch
Pat ri
gle ich
Ð¾ÑĢÐ¾ Ð»
Ð¾Ð³ÑĢÐ° Ð½Ð¸
ÏĢÏģÏĮ Ïĥ
Ð·Ð°Ð²Ð¸ ÑģÐ¸
baga i
Ú¯Ø° Ø§Ø±
Ð¿ÑĢÐ°ÑĨ Ñİ
Ð¿ÑĢÐ°ÑĨ Ð¾Ñŀ
éĹ® é¢ĺ
fÃ¶ re
indu stri
Ð½Ð¾ÑĢ Ð¼Ð°
cele br
Õ´Õ«Õ» Õ¸Öģ
gÃ¥ ng
geli ÅŁ
áī¦ áī½
pouÅ¾ ÃŃ
suc ces
à»ĢàºĹ àºĶ
æ¥½ ãģĹ
respons abil
Õ¡Õ·ÕŃÕ¡Õ¿ Õ¡Õ¶ÖĦ
drÅ¾ av
áº± ng
ä»ķ äºĭ
ä¼ģ ä¸ļ
Ð±ÑĬÐ» Ð³Ð°ÑĢ
áĬŀ áī½
Ð¤Ðµ Ð´ÐµÑĢÐ°
ÒĽÑĭÐ· Ð¼ÐµÑĤ
keÃ§ir il
Õ¤Õ« Õº
mahdol lis
mekte dir
ÏĩÏģÎ· ÏĥÎ¹Î¼Î¿
ì½ľ ê±¸
Õ°Õ¡Õ· Õ¾
tÃ¶rt Ã©n
ÐļÑĭÑĢ Ð³ÑĭÐ·
ãģĬé¡ĺ ãģĦ
) .
5 00
A g
A x
A ra
A si
A ir
A qu
A gen
A lex
B B
B l
B y
B ed
B ur
B ul
B Ã¼
C C
C O
C e
C al
D a
D Ã©
D ol
D zi
D ow
E U
E c
E li
E ver
E lek
F l
F u
F on
F el
F ili
F OR
F eder
F unda
F ern
G E
G R
G U
G em
G Ã¼
H an
H il
H Ã¶
H op
H az
I o
J or
J am
J ak
J os
J uli
K r
K y
K in
K ay
K ult
L ang
L and
L ok
L au
M I
M Ã¶
M os
M id
M ada
M usi
N Y
N y
N as
N ak
N eg
N ap
N ag
N gu
N au
O li
O ff
P G
P L
P es
P un
P ad
P om
P ir
P av
P art
P EN
R et
R ol
R ak
R ap
S H
S U
S at
S et
S ak
S ay
S ara
S tre
S vet
S zer
T el
T il
T un
T ek
T ot
T ru
T ele
T ex
V ie
V ER
W I
W is
Z Ã¡
Z ak
Z us
a ci
a zi
a id
a sta
b Ã¤
b Äĥ
b Ã¡l
b ÉĻr
b ele
b res
b Ã¡r
b Äĵr
c te
c ta
c Ãº
c ca
c Ã®
c ine
c ult
d ul
d Äĵ
d eli
d bir
d ÅĤu
e ir
e ig
e ya
e volu
f us
f Äĥ
f lu
f ill
f Ã©r
f eh
f red
f ond
f esti
f Ã©l
f att
f ull
g ja
g ud
g res
g Ã¡r
g esi
g ÉĻl
g Ã©n
h li
h na
h va
h ig
h uk
h ana
h Ã£
h und
h art
h rad
h lav
i di
i ent
i vi
i ja
i res
i Ã§Ã£o
j no
j ell
j ard
j adi
j ema
j Ã¼k
j Ã¡k
k ent
k te
k lo
k ant
k wi
k ind
k Å«
k sy
k Ã©n
k kel
k nji
k vÃ¦
k elijk
k ÅĤad
l s
l w
l el
l ul
l je
l ud
l Äĥ
l lu
l Ã©s
l ement
l ish
m re
m ati
m men
m lu
m ali
m Ã£
m Å«
m ult
m Ã©n
m ula
n on
n Äģ
n ju
n Ã¡l
n Åĳ
n ada
n ata
n Ã¤r
n Ä±z
n dih
o it
o de
o ud
o sta
o ÄŁ
o res
o fre
p Ã¶
p Äģ
p je
p ÅĤ
p ada
p ate
p jes
p Äĥr
q Ã¼
q ab
q ey
q ytet
r g
r Äħ
r ind
s g
s si
s ut
s qu
s Åĳ
s Ã©r
s pos
s Ä±z
s ÅĤu
t w
t tu
t Ãª
t Ã¼r
t wor
u Äĩ
u ff
u res
u pra
u ste
u Å¼yt
v Ä«
v ant
v ÄĹ
v ning
v jet
v Ã¥r
v rij
w s
w et
w ek
w ing
w ag
w ili
x id
y w
y ng
y ana
y Ã®
y ty
y kl
y ib
y Ã¼z
y bos
y bÄĹ
z es
z ur
z Ã¼
z za
z ati
z bi
z Äĵ
z ale
z vl
z aman
Ã Ĥ
Ä İ
Ð ĩ
Õ Ľ
Ö °
Ø Į
â Į
é ·
ê ¾
ë ¤
ë º
ë ½
ë İ
ì ¥
ì ª
Ł ng
Ð° Ð¶
Ð° Ð´Ð°
Ð° Ð²Ð¸
Ð° ÑĨÐ¸
Ð° ÒĽ
Ð° Ð±Ð°
Ð° Ñŀ
Ð° ÑģÑĭ
Ð° ÑĤÐ¸Ð²
Ð° ÒĽÑĭ
Ð° Ð·Ñĭ
à¸ ¯
Ð¾ Ð½Ð¸
Ð¾ ÑħÐ¾
Ð¾ Ð¶Ð¸
Ð¾ Ð²Ð°Ð½
Ð¾ ÑĦÐ¸
Ð¾ ÑĨÐµÐ½
Ð¾ Ð³ÑĢÐ¾
Ð½ ÑįÑį
Ð½ ÐµÐ½Ð¸Ðµ
Ðµ ÑĤÐ¾
Ðµ Ð´Ð¸Ð½
Ð¸ Ð³
Ð¸ Ñı
Ð¸ Ñĺ
Ð¸ ÑģÑĤÐ°
Ð¸ Ð³ÑĢÐ¾
ÑĤ Ð²
ÑĤ Ðº
ÑĤ ÑįÑħ
ÑĤ ÑĢÑĭÐ¼
áĢ ´
à² ŀ
à® Ĭ
en skap
à¦ ¢
Ñģ Ð½Ð¾ÑģÑĤ
Ñģ Ð²ÑĬÑĢ
Ñģ ÑĦÐµÑĢ
Ñģ ÑĩÐ¸ÑĤÐ°
Ñģ Ð´ÐµÐ»Ð°
er in
er on
er ik
er ie
er ung
an se
Ð» Ð½Ð¸
Ð» Ð´Ðµ
Ð» ÑģÑı
Ð» Ð´Ñĭ
Ð» Ð´Ñĸ
Ð² Ð·
Ð² ÐºÐ°
Ð² Ñĳ
Ð² ÑĢÐµÐ´
Ð² Ð½Ð¸Ð¼Ð°
in y
in et
in as
in ve
in ud
in iti
in vit
ãģ ¥
ãģ ²
Ðº ÑĤÐ°ÑĢ
Ðº ÑļÐ¸
Ð´ ÑĢÐ¾
Ð´ Ð²Ð¾
Ð´ Ð¶Ðµ
Ð´ Ð¶ÐµÐ½
Ð´ Ð¶ÐµÐ½Ð½Ñı
Ð´ Ð²ÑįÑĢ
ar am
ar ren
ar asÄ±
st s
st es
st om
st ik
st im
st Äħ
st Ã¤n
st ret
st jÃ³r
Ñĥ Ðµ
Ñĥ Ð±Ð°
Ñĥ Ð½Ñĥ
Ñĥ ÐºÑĢÐ°
Ñĥ ÐºÐ°Ð·Ð°
Ñĥ Ð¼ÐµÑĤ
Ñĥ Ð²ÐµÐ»Ð¸
Ñĥ ÑģÑĤÐ°Ð½Ð¾Ð²
Ð¿ ÑĢÐµÐ½
Ð¼ Ò¯Ò¯
at y
at us
at ia
at ud
at mos
al am
al em
al om
al ik
al kan
al Ä±n
al ue
al tern
re Å¾
re kl
re cht
re volu
Ø± ØŃ
Ø± Ûķ
ÙĦ ÙĤ
ÙĦ Ø¹
ÙĦ Ú©
ÙĦ ÙĪÙĨ
ÙĦ ÛĴ
ÙĦ Ø§Ø¹
el f
el et
el im
el mÃ¤
or ang
or den
Ñĸ Ð¼Ñĸ
ÙĨ Ø©
ÙĨ Ø²
ÙĨ Ûķ
ÙĨ Ûģ
ÙĨ ÙĬØ©
ÙĨ ÙĬÙĨ
it ÉĻ
it ur
it ik
it ung
Ð· ÐµÑĢ
Ð· Ð¼Ñĸ
Ð· Ð¾Ð½
Ùħ Ú©
Ùħ Ø§Ùħ
Ùħ ÛĮÙĨ
Ùħ Ø¸
Ùħ Ø¯Ø±
Ùħ Ø´Ø±
Ùħ ØªØ¹
ÙĪ ÙĪ
ÙĪ Ø§Øª
ÙĪ Ø§Ø³
ÙĪ Ø«
ÙĪ Ø²ÛĮ
Ñĭ Ð²Ð°
Ð± ÑĢÐµ
Ð± ÑĢÑĥ
Ð± ÑĬÑĢ
is Ã©
is ia
is ht
es er
es im
es sen
Øª Ø·
Øª ÙĪÙĦ
Øª ÛķØ±
Øª ÛĩØ±
Øª ÛĪØ±
et ab
et tu
et ari
et Ãł
et mÉĻ
ra st
ra ci
ra ÃŃ
ra sk
ra do
ra ken
il ma
il lu
il ÉĻr
Ñı Ð»
Ñı Ð¼
Ã¡ p
Ã¡ ra
as zt
as sist
ch or
ch ia
ch ine
ÙĬ ÙĪÙĦ
ÑģÑĤ ÑĢÑĸ
ÑģÑĤ ÑĥÐ²Ð°
ãĤ ®
ãĤ ¶
un den
un ea
Ã© le
ol t
ol at
ol la
Ø¯ Ø®
Ø¯ ÙīÙĨ
Ø¯ Ø§Ø´Øª
ad ar
ad as
ad ol
ad hi
à¤° à¤ľ
ri ed
ri us
ri ka
ri ÅŁ
ri ge
ri ff
am y
am it
am ic
am pli
am ely
Ã¤ ll
ÑĢÐ° Ñħ
ro st
ro om
Ñĩ Ð»Ð°
Ñĩ Ð½Ñĸ
Ñĩ ÐºÐµ
ci c
ci i
ci ju
ci ji
ci mento
×ķ ×ķ×Ķ
ti en
ti gen
ti jd
ÉĻ mÉĻk
di za
di ba
di ÄŁ
di mo
di pl
di stan
di cat
em y
em at
em ia
em pat
Ä± la
li on
li ku
li gen
li kl
li cht
li cen
áĥĲáĥ Ķ
áĥĲáĥ Ŀ
Î¿ Î¯
Î¿ ÏĨ
Î¿ ÏĢÎ¿Î¹
ÐµÐ½ ÑĤÐ¸
Ø³ Ø§
Ø³ ÛĴ
Ø³ Ø±ÙĪ
Ø³ Ù¹
áŁ Ĺ
à« Ī
Îµ Ïī
om ni
om ina
ÑĨ ÐµÐ½Ð¸
ÑĨ ÐºÑĸ
Ø§ÙĦ ÙĪ
Ø§ÙĦ Ø³ÙĦ
Ø§ÙĦ Ø§Ø³Øª
Ð¶ ÐºÐ°
Ð¶ Ó©Ð½
Ð¶ ÑĥÑĢ
Ð¹ ÑĪ
Ð¹ ÑģÐºÐ¸
ak er
ak or
ak kan
ak hir
ent lig
Î¹ Î²
Ð½Ð° Ð¼
Ð½Ð° Ñħ
Ð½Ð° ÑĪ
Ð½Ð° ÑĤÐ¸
Ð½Ð° Ð¿ÑĢÐ°
Ð½Ð° Ð·Ð²Ð°
Ð½Ð° ÑĩÐ¸Ð½Ð°
si c
si ÄĻ
si gu
si cher
Ñħ Ó©Ð³
Ñħ Ó©Ð´
à¸² à¸Ķ
à¸² à¸«à¸Ļ
ÃŃ k
ÃŃ nh
ÑĪ Ð½
ÑĪ ÐµÑĢ
ÑĪ Ñļ
ÑĪ Ð°ÑĢ
ed or
ed es
Ð²Ð° Ñħ
Ð²Ð° Ð¶Ð°
ãĥ İ
à¤¨ à¤°
à¤¨ à¤¸
áĥĶáĥ Ŀ
Ïģ ÎµÏĤ
po p
po re
po is
po Å¡
po sti
ur ban
à¤ķ à¤Ł
ul le
ul ta
Ã¼ b
ek in
ek ar
Ùĩ Ø³Øª
Ùĩ ÙĪÙĨ
Õ¸ Õ´
Õ¸ Õµ
Õ¸ Õ½Õ¿
áĬ Ļ
Ñį ÑĨ
Ñį Ð»ÐµÐºÑĤÑĢÐ¾Ð½
Ð½Ð¾ Ðµ
Ð½Ð¾ Ð²Ðµ
Ã³ c
Î½ Î®
ut as
Ð½Ð¸ Ñİ
áĥĺáĥ ®
Ð¿Ð¾ Ð½
Ð¿Ð¾ ÑĢÑĥ
Ð¿Ð¾ ÑıÐ²Ð¸
Ð¿Ð¾ ÑģÑĢÐµÐ´
Ð¿Ð¾ Ð»ÑĮÐ·Ð¾
à¤¸ à¤ª
à¤¸ à¤µ
à¤¸ à¤¬
ik ia
ik asi
le j
le iÃ°
ÑĢÐ¾ Ð²Ð°
ÑĢÐ¾ ÑģÑĸÐ¹
de put
ing u
ing gal
ing redi
à¸£ à¸ĸ
te at
la u
la z
la ya
la sti
la ug
la yi
ä¸ İ
Å¡ li
Å¡ ne
Å¡ ten
Å¡ kol
Ïĥ Î±Î½
Ïĥ Î¹Î¿
Ïĥ ÏĮÏĦÎµÏģ
ta il
ta vo
os eb
um ie
ÐºÐ° Ñı
ÐºÐ° Ñħ
ÐºÐ° Ð¶Ðµ
ÐºÐ° Ð·Ð²Ð°
ÐºÐ¾ Ð½Ð°
ÐºÐ¾ Ð²Ð¸
ÐºÐ¾ Ñİ
ÐºÐ¾ Ð¼Ð°Ð½
im us
im port
ÑĤÐ° ÑĢÐ¸
ÑĤÐ° Ð»Ñĸ
ÑĤÐ° Ð±Ñĭ
da ÅŁÄ±
ÙĤ Ø¨ÙĦ
à¤® à¤ľ
ÑĢÐ¸ Ð¹
ÑĢÐ¸ ÑĤÐ¾ÑĢÐ¸
Ð»Ð° ÑĤÑĭÐ½
Äį et
Äį ak
Äį ni
Äį ki
Äį nost
Äį iau
à¤² à¤¤
à¤² à¤®
à¤² à¤²
à¤² à¤¬
ÑĤÐµ Ð»ÑĮÐ½
vi y
vi st
vi ew
vi eno
ka up
ka uf
Îº Î·
Îº ÏģÎ¹
Ð´Ð° Ñĥ
Ð´Ð° Ð»Ðµ
Ùī Øª
Ùī ÚŃ
Ùī Ø¯Ùī
à¤¯ à¤²
à¤¯ à¤¹
à¤¯ à¤µà¤¸
ni z
ni em
ni ct
Ø¹ ÙĪØ¯
Ø¹ Ø¨Ø¯
na z
na gy
na stav
na bÃŃ
à®ķ à®´
×¨ ×Ĺ
Ùģ Ø³
Ùģ Ø±ÛĮ
Ùģ Ø±ÙĪ
ÏĢ Î»
ÏĢ Î¬Î½
ÏĢ ÏģÎ¬
ÏĢ ÏģÏİ
ÅŁ ir
à¸Ń à¸ķ
Î¼ ÎµÎ¯
ma c
ma al
à°° à°µ
Î» Ïī
ov Ã¡
ov Ã½
Ø´ Ø§
Ø´ ÙĪ
×ŀ ×ĸ
×ŀ ×ķ×¡
Ú© Ø³
Ú© Ø±ÛĮ
ab at
ab ile
Õ« Öģ
Õ« Õ¹
Ð»Ð¸ Ð·Ð°
Ð»Ð¸ ÑĩÐ°
Ð»Ð¸ ÑģÑĮ
od no
od rÅ¾
Ð¼Ð° Ñģ
à®¤ à®¤
Ð²Ð¾ Ñģ
Ð²Ð¾ ÐµÐ½
Ð²Ð¾ Ð¿ÑĢÐ¾
Å¾ d
Å¾ up
à¹Ī à¹į
à¤µ à¤¹
à¤µ à¤£
×Ĳ ×©
×Ĳ ×¡
ap pli
Î· ÏģÎµ
zi cht
ne pie
Äģ vÄģ
Ã« l
se v
se en
à²° à²¸
Ð·Ð° Ð²
Ð·Ð° Ð½Ñı
Ð·Ð° ÐºÐ¾Ð½
Ð·Ð° Ð±ÑĢÐ°
Ð·Ð° ÑıÐ²
Ð·Ð° Ð½Ð¸Ð¼Ð°
Ð·Ð° ÐºÐ»Ñİ
Ð·Ð° ÑĪÑĤÐ¸
Ð·Ð° ÑıÐ²Ð¸
ot lar
Õ¸ÖĤ Õ¯
Õ¸ÖĤ Õ·
Õ¸ÖĤ Õª
Ø¬ Ø§Ø±
Ø¬ Ú¾
à¸ĩ à¸Ļ
à¸ĩ à¸Ĥ
à´° à´¨
à´° à´¹
Ð²Ð¸ Ð´Ñĥ
Ð²Ð¸ Ð·Ð¸
Ð²Ð¸ ÑĢÑĸ
ge stellt
pro x
pro Å¡
pro da
ter ing
áĥĿáĥ ¢
áĥĿáĥ ĸ
ja an
ja un
iz e
iz vÄĵ
à·Ģ à¶ľ
va c
va Å¡
va ir
áĢº áĢŃáĢ³
ver ej
×ĳ ×Ľ
×ĳ ×ķ×ª
×ĳ ×Ļ×Ŀ
×ĳ ×Ļ×¨
×ĳ ×Ļ×ĺ
sk er
sk il
sk ih
sk iej
id or
ob re
ob Äį
ob je
ob dob
ÑĤÐ¾ Ð¾
ÑĤÐ¾ Ð¼Ñĥ
à¤¦ à¤¸
ØŃ ÙĪ
áĮ ĥ
ha in
ha us
ha vn
Î¯ Î½Î·
à¹Ģà¸ ľ
äº «
äº ®
ig u
ig an
ig ra
ig us
ig az
sp er
sp ÄĽ
sp Ã¸r
sp rz
ist on
à¶» à¶«
à¸¢ à¸ģ
à¸¢ à¸Ńà¸Ķ
con ti
con ten
con fer
con cor
con clu
con fir
con fig
con tribu
à´Ł à´°
Ð»Ð¾ Ð¾
Ð»Ð¾ Ð¼
Ð»Ð¾ ÑģÑĤ
Ð»Ð¾ Ð¶Ð¸
sa a
sa u
Ã§ ÉĻ
za ÅĤ
za ji
za hl
za wod
à¶º à¶º
à´¯ à´°
Ùĥ Ø´
to h
to j
to ut
qu q
qu il
qu ant
qu ali
qu ip
à´ª à´Ł
à´ª à´Ļ
Ð³Ð¾ ÑĢÐ¸
à¶ļ à¶º
×© ×Ļ
×© ×¢
×© ×¤
×© ×ķ×ª
Ð´Ð¾ Ð²Ð¸
Ð´Ð¾ ÑģÑĤÐ¾
Ð´Ð¾ Ð¿Ð¾Ð»
per man
per mit
Ð½Ðµ Ð¼
Ð½Ðµ Ñĺ
Ð½Ðµ Ð³Ð¾
og rom
à®ª à®£
ÑĦ Ð°Ð½
à®° à®¤
à®° à®ļ
áĥł áĥĺáĥ¡
áĥł áĥª
áĥł áĥĿáĥĳ
áĥł áĥĿáĥ¡
áĥł áĥĺáĥķáĥĺ
à°² à°²
à°² à°¯
Ð»Ðµ Ð³
Ð»Ðµ ÑĢÐ¸
Ð»Ðµ Ð´Ñĸ
ba c
ba i
ba v
ba ck
Î¬ Ïĥ
sz ere
sz Ã¶n
sz Ã¡ll
sz olgÃ¡l
Ø² Ùĩ
Ø² Ø©
áº ¢
áº ³
áº ½
ng hi
à¸§ à¸Ī
Ù¾ Øª
Ù¾ Ùĩ
Ù¾ ÙĪÙĦ
Ù¾ Ø±ÛĮ
Ù¾ Ø±Ø¯
Ù¾ Ø±Ø³
çļĦ ä¸Ģ
çļĦ ãģ«
áĥĽ áĥĲáĥĵ
áĥĽ áĥĺáĥĽ
áĥĽ áĥĶáĥ¢
áĥĽ áĥĺáĥĸ
Ð´Ð¸ ÑĢ
Ð´Ð¸ ÑĤ
Ð´Ð¸ Ñģ
Ð´Ð¸ ÑĤÐ¸
Ð´Ð¸ ÑĢÐµÐº
ag er
×ł ×ķ×¢
Ø® Ûķ
áĥ¡ áĥĶáĥł
áĥ¡ áĥĺáĥ¢
pre j
pre st
pre zi
pre sa
pre cis
Ð´Ðµ Ð±
Ð´Ðµ ÑģÐµ
Ð´Ðµ Ò£
est rat
pr ise
and ar
and us
ãģĦ ãģı
àº² àº°
ati i
à´² à´ķ
ÐºÐ¸ Ðµ
ÐºÐ¸ Ð»Ð¾
ok e
ok t
ok re
tu j
tu y
tu ur
tu gu
à¸Ķ à¸²
Ð²Ðµ ÑĤÐ°
Ð²Ðµ ÑĤÐµ
Ð²Ðµ Ð´Ðµ
Õ´ Õ·
Õ´ Õ¡ÖĢÕ¤
ÎŃ Î±
ÎŃ ÏģÎ±
ÅĤ ow
æľ «
ÑģÑĤÐ° ÑĤ
ÑģÑĤÐ° Ð²Ð°
ÑģÑĤÐ° Ñŀ
ÒĽ Ð¸
×ª ×Ļ
×ª ×¤
×ª ×ķ×Ľ
Ð¡ Ð»Ð¾
Ð¡ ÑĬ
Ð¡ ÐŁ
Õ¿ Õ¥Õ´
à¤ľ à¤¯
à¤ľ à¤ª
à¤ľ à¤µ
ke hit
ac tu
áĢ± áĢ·
à·ĥ à¶§
à²¨ à²¨
à²¨ à²²
à®® à®±
à®® à®£
Ð±Ð° ÑģÑĭ
Ð±Ð° ÒĵÑĭ
áĥ£ áĥ¥
åħ Ĵ
åı İ
å¤ ı
à¸ª à¸§
à¸ª à¸²à¸§
à´® à´£
Ú¯ ÛĪ
Ú¯ Ø±Ùģ
vo u
vo st
vo ir
vo Ä¾
Ð¿Ð° Ð¼Ñı
ÐĲ ÒĽ
ÐĲ Ð»ÐµÐº
à°ª à°¨
à°ª à°ķ
ðŁ ķ
áŀļ áŀı
Ð¼Ð¾ Ð²Ð¸
ung s
ÑĢÑĥ ÑĥÐ»Ð°Ñħ
lo ka
Î´ Î¯
Î´ Ïī
Î´ ÏģÎ±
Ã¸ g
Ã¸ j
Ã¸ l
Ã¸ re
ca h
ca ÅĤ
ÑģÐ° Ñı
ÑģÐ° ÑĤÑĭ
ÏĮ Ïģ
à®µ à®Ł
à®µ à®©
à®µ à®¨
à°µ à°¤
à°µ à°¹
áĥļ áĥĶáĥĳáĥĲ
tr yk
å® ¿
å® ľ
å® Ŀ
be h
be eld
Øµ Ø§Ø¨
ku ch
ä» ¤
à²¸ à²²
for me
Ã¦ nd
op h
op i
à¶¯ à·Ģà·ĥ
à¶¯ à·Ħà·ĥ
Ð¼Ðµ Ñģ
Ð¼Ðµ ÑģÑı
Ð¼Ðµ ÑĴÑĥ
su ar
su st
su al
su re
su si
su ur
ec k
pa a
áĥķ áĥ¡
áĥķ áĥĶáĥļáĥĺ
ÐŁ Ð¾ÑĢ
ÐŁ Ð°ÑĢ
ÐŁ Ð°Ð²
Ñī ÐµÐ½Ð¸Ñı
×§ ×¢
Ûģ Ø±
Ûģ ÛĮ
à¸Ĺ à¸°
Õ¥Õ ¤
Ð±Ð¾ Ð¹
Ð±Ð¾ ÑĢÐ¾
Ð±Ð¾ Ð»Ñĥ
Ð¼Ð¸ Ñı
Ð¼Ð¸ ÑĢÐ°
Ð¼Ð¸ ÑĪ
ki o
ki em
ki Å³
×Ĺ ×Ķ
×Ĺ ×ķ×ª
à¸ķ à¸Ļ
à¸ķ à¸²à¸¡
×ĵ ×Ļ
Ðļ ÑĢÐ°
Ðļ Ðĺ
à²² à²ķ
à²² à²¯
Ø¦ ÙĪØ±
bi de
×¤ ×ĺ
×¤ ×Ĳ×¨
×¤ ×©×¨
Ð¿ÑĢÐ¾ ÑĺÐµ
ny il
à°¦ à°²
he f
he j
ãģ¦ ãĤĤ
ãģ¦ ãģĦãĤĭ
ãģ¦ ãģĹãģ¾
mi q
mi en
mi er
mi el
mi Ã°
du a
du y
du ÄŁu
pi en
pi on
à´ļ à´¨
áĢĻ áĢĦ
à¶´ à¶¯
à¶´ à¶§
Ø· Ø§Ø±
Ø· ÙĬÙĨ
à°Ł à°¨
ÑĩÐ° Ð½
ÑĩÐ° Ð»Ð°
ÑĩÐ° Ð½Ð½Ñı
der ing
Ðľ Ñĭ
Ðľ ÐµÐ½
Õ¯ Õ¥Õ¶
com pre
com por
com pli
do u
do or
do stup
áį Į
Î¹Îº ÎŃÏĤ
ÑģÐ¾ Ðº
ÑģÐ¾ Ð±Ð°
ÑģÐ¾ ÑĨÑĸ
ÑģÐ¾ ÑĤÑĢÑĥ
ÑĢÑĭ Ñģ
ãģĹ ãĤĮ
áĢķ áĢĲ
áĢķ áĢĦ
Õ¥ÖĢ Õ¯
ëĭ µ
Ð½Ñĸ Ñı
à¦® à¦²
à¸« à¸¢
cz ny
Ðŀ ÑĤ
Ðŀ Ð´
Ðŀ ÑģÐ¾Ð±
à°ļ à°¨
à°ļ à°¦
áŀĢ áŀĵ
Ð»Ñĸ Ð·
Ð»Ñĸ ÑģÑı
×Ľ ×ķ
×Ľ ×Ļ×Ŀ
×Ľ ×ĸ
áŀĶ áŀļ
Ð¢ Ð¸
Ð¢ Ñĥ
Ð¢ Ðŀ
ji h
ÙĪØ± Ú©Úĵ
ÑģÐ¸ Ð»Ð°
ÄĽ t
à¸° à¸Ļ
ãģ¾ ãĤĮ
ãģ¾ ãģĹãĤĩãģĨ
kon d
kon k
kon sum
àªķ àª¹
ÄĹ jo
Ïĩ Î¿
ÑĤÑĥ Ð»
×¡ ×ª
Öģ Õ¸ÖĤÖģ
ÑģÐµ ÑĢÐ¸
ÑģÐµ Ð¼ÑĮ
Ã¡l f
Ã® k
Ã® l
Ã® st
à¨¸ à¨µ
pl Äĥ
ãģ® ãģĭ
Õ° Õ¡Õ¯
Õ° Õ¥Õ¼
sh ar
sh tet
sh tÃ«
sh Ã«m
sh qip
åľ ĸ
áĥľ áĥĿ
áĥľ áĥĶáĥĳ
áĥľ áĥĶáĥĳáĥĲ
áĥľ áĥĲáĥ®
à´³ à´¤
×Ĵ ×Ļ×©
ãģª ãģĳãĤĮãģ°
Ðĳ Ð»Ð°
àºģ àº§
Õ¾ Õ¡
å° ĭ
Ð¿ÑĢÐ¸ ÑĢÐ¾
Ð¿ÑĢÐ¸ ÑĩÐ¸
Ð¿ÑĢÐ¸ ÑĢÐ¾Ð´
Ð¿ÑĢÐ¸ Ð½Ð¸Ð¼Ð°
Ð¿ÑĢÐ¸ Ð½ÑĨÐ¸
ÑĩÐµ ÑĤÐ°
à²® à²ķ
à²® à²Ĺ
min e
min al
min den
æĺ ¥
æĺ ł
ä¸Ģ èµ·
ä¸Ģ æ¬¡
ä¸Ģ çĽ´
wy ddi
ÅĽ rod
ãģ¨ ãģĵãĤį
Î¸ Î¼
ÐĴ ÑģÐµ
ay e
ay o
ay ÉĻt
ÏĨ Ïħ
ÏĨ ÏħÏĥ
pu an
pu ri
pu li
pu bl
pri mer
val g
val l
val sty
ÚĨ ÙĪÙĨ
áĥĲáĥł áĥĴ
Õ© Õ¾
è¿ Ķ
è¿ Ŀ
ãģ« ãĤĤ
ãģ« ãĤĪ
ÑħÐ¾ Ð´Ð·Ñĸ
ÑħÐ¾ Ð·Ñı
mu zi
à°Ĺ à°¤
Ð»Ñĥ ÑĤ
ex er
ex tre
ex peri
ex pect
bu ka
àºĶ àºĸàº°
à¹ģ à¸Ľ
à¹ģ à¸Ł
à¹ģ à¸ªà¸Ķ
res er
res ult
tra f
tra du
Ð¸Ð· Ð¿ÑĬÐ»
Ð¸Ð· Ð²ÐµÑģÑĤ
áĥĹ áĥĲáĥĽ
áĥĹ áĥĳ
áĥĹ áĥ¥áĥķ
gu z
ze j
ze ich
Ð¿ÑĢÐ° ÑĪÐ°
Ãł na
gen era
à®¨ à®®
ali ya
ven de
ven ir
ven tion
áĢ¼ áĢ±
Å¼ a
jo h
jo y
sen s
fi que
fi cial
sch n
cu re
cu ra
ä¼ Ļ
åį ĺ
por oÄį
à¹Ħ à¸§
à¹Ħ à¸Ł
à²ª à²Ł
à¦¼ à¦¿
ÙĪÙĦ Ø©
à¸ŀ à¸¢
à¸ŀ à¸¥
à¸ŀ à¸ļ
å¾ ©
å¾ Ĵ
éĢ Ģ
éĢ Ķ
Ð±Ð¸ Ð½Ð°
×¦ ×ľ
Ð³Ð¸ Ð¹Ð³
Ø§ÙĦÙħ Ø³Øª
kom pet
kom bin
Ð¶Ð¸ Ð½Ð°
Ð»Ñĭ ÑĪ
cia is
pra s
pra co
pra cti
we et
we iter
àª² àªĸ
man j
man u
man to
àªª àª¡
ÑģÑĤÐ¾ Ð»Ð¸
áĪį áĪĿ
à»Ģ àºĻ
à»Ģ àºŃ
áĥĲáĥľ áĥĲ
áĥĲáĥľ áĥĵ
áĥĲáĥľ áĥĴ
àª¯ àª®
ãģ£ ãģ¨
ìĿ´ ëĭ¤
ìĿ´ ìĬ¤
Ð°ÑĢ Ð³Ð°
Ð°ÑĢ ÑħÐ¸
áĬł áī£
à¬ª à¬¤
Ðķ ÐĽ
éģ ¿
áŀĦ áŀĵ
áŀĽ áŀĦ
áĪĺ áĪ¨
ll un
åĽ ¢
åĽ ´
à¨ķ à¨¸
tar tal
aj Äħ
áĢŀ áĢĢ
áĢŀ áĢĲáĢĦ
Ø§Ø¨ Ø·
all en
ãĤĴ ãģĶ
ck et
ck Ã©
ste a
ser ve
ÙĨØ¯ ÚĻ
hu ri
hu om
Ð¼Ñĥ Ð¶
Ð¼Ñĥ Ð·Ð¸
ning s
ning en
ìķ ŀ
ori al
áĭ¨ áĬł
äºº åĳĺ
bo ard
áĢħ áĢĬ
bl es
bl om
bl ÃŃ
è¦ §
è¦ ļ
áĥ® áĥĺ
áĥ® áĥĲáĥł
áĥĻ áĥł
Î² Î¿
Î² Î±Ïĥ
Ò£ ÒĵÑĭ
gy m
gy Åĳ
gy Å±
áĢ¡ áĢľ
áĢ¡ áĢĸ
à¸Ĭ à¸²à¸¢
Ð±Ðµ Ð¹
Ð±Ðµ Ð»Ðµ
Ð´Ñĸ Ñı
Ð´Ñĸ Ò£
ÑĹ Ð²
era z
Õ¡Õµ Õ¸ÖĤÕ´
ÐºÐµ Ð·
ÐºÐµ Ð´Ð¾Ð½
Ø¢ ÛĮ
Ø¢ ÙħØ¯
ìĭ ¶
à¤Ĩ à¤®
à¤Ĩ à¤¹
mÉĻ n
áĥ¨ áĥĶáĥľ
áĥ¨ áĥĺáĥł
áĥ¨ áĥĶáĥĵ
Ð²Ñĭ ÐºÐ°ÑĢÑĭ
è® Ń
Ð¼Ñĸ ÑīÐµÐ½
Ø±ÙĪ ØŃ
jen a
jen i
å¯ ©
å¯ ¶
Ð¿Ð¸ ÑģÑĮ
Ðĵ ÐĲ
Ðĵ Ð¾Ñģ
à²³ à²Ĺ
áīł áĪ¨
Äĳ a
à´ħ à´ķ
à´ħ à´ª
à´ħ à´¦
go ta
Å« t
çĽ Ľ
áĢ» áĢŃáĢ¯áĢ¸
æĿ ¡
Ø§Ø³ Ùī
à¨® à¨²
à¨® à¨¹
ÏģÎ¿ Î½
è¯ ·
è¯ »
int el
int za
ren ce
è¡ ¥
mar ka
å¥ Ĺ
bli j
æĢ ¥
æĢ ķ
Ð°Ð» Ð´Ñĭ
à¶ħ à¶°
Ð³ÑĢÐ° Ð¼Ð°
Ð³ÑĢÐ° ÑĦ
Ð³ÑĢÐ° Ð´Ð¸
éĩ İ
è¨ º
áī° áĪŃ
à¸Ńà¸ĩ à¸Ħ
az on
ÐĽ Ñĸ
Ð·Ð¸ ÑĢÐ°
×ķ×¨ ×ļ
dis k
dis cipl
à¤ı à¤¨
à¤ı à¤®
à°ħ à°ķ
à°ħ à°®
ÑģÑĭ Ð½ÑĭÒ£
ãģĵ ãģĵ
ãģĵ ãģ¡ãĤī
sam en
sam och
áĢ½ áĢ¬áĢ¸
itu ra
Õº Õ¡ÖĢÕ¿
vÃ¤ Ã¤
vy Å¡
vy uÅ¾
à¶¶ à¶»
ben i
Ø° Ø±
à¨¹ à¨°
æŃ ©
æŃ ·
à®ħ à®³
ãģı ãĤĮ
Ã©r tÃ©
ÑįÑį Ð½
Õ¥Õ¬ Õ«
ger Ã§ek
Ð·Ð½Ð° Ñĩ
In te
In vest
fa q
fa ce
Ø±ÙĬ ÙĤ
Ø±ÙĬ Ùĥ
ÑĸÐ½ ÑĦÐ¾ÑĢÐ¼Ð°
Õ¸ÖĤÕ©Õµ Õ¡Õ´Õ¢
vel ik
à¹Ĥ à¸ķ
å· ¨
Ð±Ñĥ Ñģ
áĥĲáĥķ áĥļ
áĥĲáĥķ áĥ¢
Ä° l
à¬¦ à¬°
str um
col e
ye z
Ø§Ùģ Ø±
ÑĺÐµ Ð´Ð½Ð¾
å½ ķ
ë§ ŀ
à´¦ à´°
Ù¹ ÙĪ
áŀĸ áŀĽ
Ð¿Ñĥ ÑģÑĤÐ¸
Ð¿Ñĥ ÑģÐº
tion s
áĥŀ áĥĶáĥł
áĥŀ áĥĲáĥ¢
Õ«Õ¶ ÖĦ
Õ¢ Õ¡Öģ
Õ¢ Õ¥ÖĢÕ«
gra Äĳ
inter nation
à¨ª à¨¹
cor d
è§ Ī
ani i
çī Ī
çī Ļ
ÑĢÑĸ Ð¿
à¦Ĺ à¦²
æĬ ±
ÑĪÐµ Ð»
pos ition
pod jet
Æ° ng
gr Ã¶
gr Äģ
åĨ Ļ
ëĬ ĺ
à¤ĩ à¤Ł
à¦¹ à¦²
Ð»Ñİ ÑĤ
mem ba
ä¾ µ
æ³ ģ
áĬĲ áĭį
met e
met od
Îĳ Î½Î±
å± ĭ
à¸£à¸° à¸ļ
éĻ Ħ
éĻ į
del ing
jed e
jed nod
éĿ Ī
éĿ Ĵ
éĿ ł
áĮį áĬķ
áĥ¡áĥĲáĥ ¤
lÄ± ÄŁ
Ø§ÙĤ Ø¨
Ø§ÙĤ ØªØµ
ÙĬÙĨ Ø§
àº« àº°
nÃ© l
sel v
sel la
sel ec
Õ¡Õ½ ÕŃÕ¡Õ¶
Å¾i o
áĥ¬ áĥĽ
áĥ¬ áĥķ
áĥ¬ áĥĲáĥķ
áĥ¬ áĥĺáĥľ
Ð½Ð´Ð° ÑĢÑĭ
ÑģÐºÐ¾ Ð¿
ÑģÐºÐ¾ Ð¹
ÑģÐºÐ¾ Ð³Ð¾
áī¥ áĪŃ
ÑįÐ½ ÐµÑĢ
ÑįÐ½ Ð½Ñı
len dir
Ð¥ Ð¾
Ð¥ ÑĢÐ¸
kol ek
ãĤĵ ãģ§ãģĻ
Îķ Îº
rÃ© t
è´ Ł
è´ Ń
Õ¶Õ¥ÖĢ Õ¸ÖĤÕ´
ach d
ach ta
pat ri
áĬ¥ áĪŃ
áĬ¥ áĬĲ
ef t
kor is
kor mÃ¡ny
æİ Ī
è¾ ²
è¾ ĵ
Ð²ÐµÑĢ ÐµÐ½
åī ²
à¨¼ à©Ģ
ÑĤÑĸ Ðº
het s
het en
à²ħ à²°
à²ħ à²¦
à²ħ à²ª
Ð»ÑĮÐ½Ð¾ Ð¹
Pro du
Pro duk
Ä¾ a
Ä¾ u
Î¶ Î®
Î¶ ÎµÎ¹
ÙĪÙħ Ø§Øª
×Ļ×Ļ× ¡
Äįi o
Äįi us
áĥĿáĥĳ áĥļ
bor a
bes onder
hat an
æ² Ļ
à¤ł à¤®
kat egori
ç´ Ģ
èĥ Į
leg es
áĪ« áĭĬ
kr Ã¡s
ÑįÐ» ÑĨ
ÐºÐ¾Ð½ ÑĦÐµÑĢÐµÐ½
hal b
æ¯ Ľ
ãģĬ ãĤĬ
áŀľ áŀı
ÙħÙĨ Øª
ÙĪØ¯ ÛĮ
eb b
oc uk
oc asi
ìĥ Ī
chi q
ÏĦÎ· Î³
sol ic
Îł ÏģÎ¿
Îł ÏģÏĮ
Îł Î¿Î»
Ñĳ ÑĢ
åĭ ĩ
æ¸ Ī
æ¸ Ľ
æĮ ī
æĮ ĳ
Ð½Ð¾ÑģÑĤ ÐµÐ¹
bet ro
à°· à°¯
à°· à°£
Ã¶l kÉĻ
ska b
Ð±Ñĸ Ð±Ð»Ñĸ
áĪĭ áĪĪ
áĪĭ áĭŃ
Ä±ÅŁ Ä±
iy yÉĻt
wo od
wo ord
wo ÅĽci
ÈĽ Äĥ
çķ ª
çķ «
çķ °
êµ °
áĪĽ áĪª
ÕŃ Õ¸ÖĢ
ãĢ ĭ
ãĢ Į
áĢĨ áĢĢ
áŀĤ áŀİ
ëĬĶ ëį°
×Ļ×¨ ×ķ×¢
car acter
ç« ¶
ç« ŀ
ç« Ł
Ð¿Ñĸ Ð²
ÙħÛĮ Ø²
ÙĬØ¯ Ø§
Ø§ÙĦØ£ Ø®
à²¶ à²¨
bel ir
bel ang
mel d
tan ul
tan to
é¢ Ŀ
ÑĤÐµÑĢ ÑĢÐ¸ÑĤÐ¾ÑĢÐ¸
à´Ĺ à´¤
Ø§Ø¬ Ø±
fun zi
fun cion
jet e
ë³ Ħ
Ð°Ðº ÑĤÑĥ
ÐµÐº ÑĤ
å¤ļ ãģı
ÑīÐ¸ Ñħ
ip s
mak tad
æ¬ §
æ¬ Ĭ
ë¶ ģ
naj lep
è³ ½
ëł ¨
à¦Ĩ à¦¨
à¦Ĩ à¦¬
à¦Ĩ à¦¸
à¦Ĩ à¦Ĺ
ÑĤÐ¸Ð² Ð½
seg ÃŃt
seg ui
ÛĪ Ø´
ãģķ ãĤĮ
ãģķ ãģĽãģ¦
×ķ×ĵ ×Ļ
AR T
çİ ©
éļ ¨
à¬ľ à¬£
áī³ áīµ
áī³ áĪį
áº¡ nh
ãĤ¤ ãĥ«
Ã®n t
wer s
Ð·Ð¾ ÑħÐ¸
ÎºÎ¿ Î»Î¿Ïħ
çµ ¡
áĪ° áī¥
áĥĲáĥ¡ áĥĺ
ê· ¹
ì¶ ķ
ÐºÐ¾Ð¼ Ð¼Ñĥ
uj Äħ
Ø§ÙĦØª ØŃ
ìĤ¬ ìĿ´
yor uz
éĤ Ĭ
ÑģÐ»Ðµ Ð´Ð¸
ÑģÐ»Ðµ Ð´Ð¾Ð²Ð°
×Ļ×ľ ×Ķ
kas ut
ÒĵÑĭ Ð½
åģ ¶
èĤ ī
èĤ Į
à¸¨ à¸²à¸ª
Î½Î± ÏĤ
áº¿ p
fo rel
tek int
à¦· à¦£
è© ¢
è© ³
à¤ĺ à¤°
ÙħØ§ÙĨ ÛĮ
áĭĪ áīħ
ÏĥÏħ Î¼
à»ģ àºģ
à»ģ àº«
æĸ¹ éĿ¢
ìķĦ ìĿ´
Ð§ Ð°
æı ı
land s
mÃ¤ Ã¤n
pag ne
vor en
ìĽ Į
Ð·Ñĥ Ð¼Ñĸ
Õ¡Õ£ Õ«Õ¿
ÑģÑĤÑĥ Ð´ÐµÐ½
Ð²ÑĸÐ´ Ð¿Ð¾Ð²ÑĸÐ´
tÉĻ ÅŁkil
à´¹ à´°
jer Ã«
Ã² n
Ã² ng
ÅĨ Äģ
ç½ Ĺ
ÑĤÑĢ Ñį
×Ļ×ª ×Ļ
á»ĩ p
cat eg
jon al
Ð¦ Ðĺ
ë¥ ĺ
Ð²Ñı Ð·Ð°
Ð²Ñı Ð»Ñĸ
áĮł áĬĵ
ãĤı ãģĳ
pun kt
ÑĤÑĢÐµ Ð±Ð¾
×Ļ×© ×Ļ
×Ļ×© ×¨×Ĳ
Æ°á» Łng
ved en
è£ ½
è£ ľ
à¦ħ à¦§
à¦ħ à¦Ń
jÃ¤ Ã¤
my sl
mÃ© di
zÃ¡ klad
Ð½Ð¸Ð¹ Ð³
åĪ° äºĨ
fol os
get ir
iÅŁ ti
vÃ© ny
wan ie
ÕĢ Ô±
àªĨ àª°
ÏĦÎµ Î»
áºŃ u
nÃ¤ kÃ¶
Ø§Ø® ÙĦ
ìĪ ľ
à¬ļ à¬³
à¨ħ à¨°
à¨ħ à¨ľ
Ø¯ÛĮ Ú©Ú¾
cij os
à¸£à¸² à¸°
ÅĦ cz
ç© į
çŃ ¾
çŃ Ķ
ìĨ ¡
Ð½Ð¸Ðµ ÑĤÐ¾
Úĵ ÙĬ
à®ī à®³
à®ī à®Ļ
Õ¡Õ¬ Õ¸ÖĤ
à¸Ľà¸£à¸° à¸ģ
ÒĵÐ° Ð¼
vÃ½ rob
vÃ½ sled
ë² Į
sten s
vid ade
jum s
kri j
ØªØŃ Ø¯
Ú¯ÛĮ Ø±ÛĮ
dat ing
æģ Ĳ
ãĤ¢ ãĥ«
ÎŁ Î¥
Õ¦ Õ£
Ã§Ä± k
Ã¢n cia
à¸į à¸įà¸²
áĥĶáĥĽ áĥĳ
å¥½ çļĦ
200 5
dan Ä±ÅŁ
åĤ ¬
æĤ ī
à²ĩ à²¨
Kom un
sat z
tele fon
tele vizi
âĺ ħ
íĺ ķ
inst ala
dru g
æĵ Ĭ
çĸ Ĺ
Ð°ÑĤ ÑĢÑĭÐ¼Ð°
áĥĲáĥ® áĥļ
Ø¨ÛĮ Ø±
Ø§Ø¶ ÛĮ
ìłķ ë³´
put er
tÃ¶ bb
ÎĻ Îĳ
ÎĻ Îļ
åĿ Ĺ
åĿ ļ
çĪ Ń
èĭ ¥
ì° ½
ì° ¾
àµ¼ à´¤
áĪ³ áĭŃ
Ø®ÙĪ Ø§
ÑīÐ° ÑĤÐ°
àº® àº½àºĻ
ØªÙĤ ÙĦ
ros s
áº¥ m
áĥĽáĥĿáĥ Ĵ
éĥ¨ åĪĨ
Kon tak
Mo Å¾
ix a
kil omet
nas led
æ¼ «
æŁ Ĳ
ÑĤÑĢÐ¾ Ð²
cie Å¡
ÑĨÐµÐ½ ÑĤ
ÑĨÐµÐ½ ÑĤÑĢÐ°
fy d
ÈĻ i
Ûĭ ÛķØª
ÑĤÑį ÑĤ
à²Ĩ à²Ĺ
Ð´ÑĢÑĥ Ð³Ð¸
Ð´ÑĢÑĥ Ð¶Ðµ
Î¹Ïĥ ÏĥÏĮÏĦÎµÏģ
áįĪ áĪį
å¸Ĥ åľº
dre jt
vÃ¡ ny
à·Ĥ à¶º
èĲ ¬
éĶ Ģ
à¶ł à¶»
×ķ×¡ ×ĺ
à¤¸à¤° à¤ķ
áĥĿáĥļ áĥĿ
à¹Ģà¸« à¸¡
à¹Ģà¸« à¸ķ
à¹Ģà¸« à¸¡à¸²
cri pt
à´ī à´¤
alt ung
Õ¡Õ¤ Õ«ÖĢ
ÑĤÐµÐ»ÑĮ ÑģÑĤÐ²Ð°
áģĢ áģĢ
ÈĽi i
ÈĽi onal
Ãľ ber
æº «
ç· ¨
ÐºÓ© Ð·
ÙħØ´ Ø§Ø±
jÄħ c
oz na
æĲ º
æĲ ľ
æĲ Ń
ç¯ Ħ
ç¯ ĩ
éĴ ±
àªı àª¨
ãģĶ ãģĸ
Î¿Î½ ÏĦÎ±ÏĤ
ÑģÑĤÐ°Ð½ Ð½Ñĸ
parti ci
è¼ ¸
ëħ Ģ
ÑĤÑĢÐ¸ Ð¼Ð°
à²İ à²¨
×ķ×© ×ľ
áĥĺáĥĻ áĥĺáĥ¡
Õ¥ÖĤ Õ¸ÖĢ
ëŁ ¼
íĸ ¥
Ð¾Ð»Ð¾ Ð³
à°ī à°¨
Î¿Ïģ Î³
poz na
à¹Ģà¸ª à¸£
ä»ĸ ä»¬
hÃ¤ ng
hÃ¤ lt
oh n
sab iedr
Òļ Ð°Ð·Ð°
é¤ ¨
áĥĶáĥ¥ áĥ¡
áĥĺáĥĽ áĥĶ
Î¹ÎºÎ® ÏĤ
ê¹ Ģ
cid ent
à¹ĥà¸« à¸¡
ë¶Ģ íĦ°
Ph ili
ÚĻ ÙĬ
íĮ Ĳ
ener gi
áŁī áŀ»
áĥĺáĥ¢ áĥĶáĥ¢
à¸£à¸£ à¸Ħ
Ð¿ÐµÑĢÐµ Ð´Ð°
vÃµ t
à¶ĭ à¶±
ÑģÑĤÑĭ ÒĽ
×Ļ×Ľ ×Ķ
×Ļ×Ľ ×ķ×ľ
ogra ph
áº¯ t
áº¯ ng
Ð¾ÑĢÐ³Ð° Ð½ÑĸÐ·Ð°
fri end
à§¦ à§¦
nor m
nad al
off ici
ÐºÐ²Ð° ÑĢ
ãĥĹ ãĥª
ãĥĹ ãĥŃ
ÏĥÎµ ÏīÎ½
szy b
éŁ ¿
×Ļ×ŀ ×Ķ
Å¡k od
Å¡k ot
à»Ħ àº¥
cil vÄĵ
eff ec
æ¢ Ŀ
ç¹ ģ
ÏģÎ¯ Î¿Ïħ
tag on
à¤®à¤¹ à¤¤
ÒĽÒ± ÑĢÐ°
ÒĽÒ± ÑĢÑĭ
àºĽàº° à»ĢàºĹàºĶ
ëĦ ¤
Ð²ÑĬ Ð½
ÑģÑĤÑĢÐ¾ Ð¹
áĥĲáĥĹ áĥĺ
áº§ m
ÑĩÐµÑģÐºÐ¸ Ñħ
vad Ä«t
Ô¿ Õ¡ÖĢ
ç¡ Ģ
inf ra
inf lu
ÏģÏī ÏĥÎ·
à¸Ļà¸Ĺ à¸£
Ð²ÐµÐ´ ÐµÐ½Ð¸Ñı
Õ°Õ¡Õ¶ Õ¤Õ«Õº
å¼Ģ å§ĭ
ç¨ĭ åº¦
gÃ¶ ster
uo ja
Å¡an u
ÑĤÐµÑħ Ð½Ñĸ
ì¶ľìŀ¥ ìĥµ
rÃ¤ Ã¤
wn ÄĻ
àµ½ à´ķ
elek tr
ØªÙĦ Ùģ
tran spor
Ã°i Ã°
jÃ¤r g
vÃ¡l to
æ£ Ģ
çį ¨
sik ker
neces s
à¹Ģà¸Ĥ à¸²
Ø®Øµ Øµ
Jo han
Ñľ Ð¸
arbe j
arbe id
Ã¡d za
ÏĦÏĮ ÏĤ
áĥĿáĥĴ áĥĺ
ä»Ĭ å¹´
Õ¯Õ¡ÖĢ Õ£
ãģĺ ãĤĥ
Ð±ÐµÑĢ Ñĸ
áĥĺáĥĲáĥľ áĥĺ
áŁł áŁ
dec lar
dec isi
Î¼Î¬ ÏĦÏīÎ½
çİ° åľ¨
á¹ ĥ
ÏĥÏĩ ÎŃ
äº§ åĵģ
Õ¡ÖĢÕ¤ Õµ
Ð¼Ð¸Ð½Ð¸ ÑģÑĤÑĢ
ÐľÐ¾ ÑģÐº
ÑļÐ¸ ÑħÐ¾
Ð¿ÑĸÐ´ Ð¿ÑĢÐ¸ÑĶ
åŁº æľ¬
áĭ² áĪµ
Å¡en ÃŃ
á»ĵ i
á»ĵ n
ì½ Ķ
ìļ° ë¦¬
bÅ« t
fog lal
jÃ³ Ã°
æ¤ ľ
usa ha
ÑĤÐ°Ðº Ð¼Ð¸
ä»¶ äºĭ
Ã¦t ti
ÅĽwi et
ìĹĪ ëĭ¤
ÑĨÑĭÑı Ð½Ð°
bri d
fÃ© lag
áĦ ı
ÑĥÑĩÐ¸ Ð»Ð¸
rela cion
chod zi
à¸ģà¸£à¸° à¸Ĺ
åħ¶ ä»ĸ
Ð¿ÑĢÐ¾Ð¸Ð· Ð²Ð¾Ð´Ð¸
Ð»ÑĸÐº ÑĤÑĸ
ìĦ¸ ìļĶ
áĥ¡áĥĲáĥ® áĥĶáĥļ
áĥ¡áĥĲáĥ® áĥ£áĥł
shi p
Ð¸ÑģÐ¿Ð¾ Ð»ÑĮÐ·Ñĥ
Ø¨Ø¹ Ø¶
áŁ¢ áŁ
utta a
koz Ã¡s
áº· c
ìķĪ ë§Ī
Õ¶Õ¡ÕŃ Õ¡ÖĢÕ¡ÖĢ
áģ¿ áĢĻ
ÙīÙĨÙī ÚŃ
Esp a
ì» ¤
áĪķ áĭĿ
ÃŃst ic
apli ka
ÑĤÐ¸Ð½ Ð³
áĮī áĭ³
à´®à´¨ à´¸
bez pe
ä»Ģ éº¼
à¤Ĭ à¤¨
ÐºÐµÑĢ ÑĸÐ²
áĥĲáĥ¬ áĥĺáĥļ
ÑįÑĤ Ð³
Î¯Î¶ ÎµÎ¹
ÑİÑīÐ¸ Ñħ
æľį åĬ¡
Æ°á»Ľ ng
é£Ł ãģ¹
ÙĢÙĢÙĢÙĢ ÙĢÙĢÙĢÙĢ
mid del
à¦ĺ à¦Ł
ÏĮÎ¼Îµ Î½
èī¯ ãģĦ
Æ°á»£ ng
Æ°á»Ŀ i
sÃ³ kn
Ð·Ð´Ñĸ Ò£
áĥĽáĥĲáĥł áĥ¢
íķ© ëĭĪëĭ¤
áĥªáĥ® áĥĿáĥķ
dov ol
mig li
wsp Ã³l
é¨ ĵ
ÑĤÒ± ÑĢ
Ð±Ó© Ð»Ñĸ
contin u
áĥĽáĥ£ áĥ¨
åĽł ä¸º
è³¼ åħ¥
ÑģÐ¿ÐµÑĨÐ¸ Ð°Ð»Ð¸
Slov en
ë¨ ¸
amer ikan
ÑħÑįÐ» ÑįÐ»ÑĨ
deÄŁ er
ÐºÐ°Ð¼ Ð¿Ð°
ÐºÐ¾Ð¼Ñĥ Ð½Ð¸ÐºÐ°
neh men
áĬłáĬķ áĭµ
áĥ¥áĥķ áĥĶáĥ§
fÉĻ ali
vÉĻ zi
ë¸ Ķ
infor mat
administ r
ÏĦÏħ Ïĩ
ÏĢÎµ Î¶
á»Ń a
Õ°Õ¥Õ¿ Õ¥ÖĤ
ëłĪ ìĿ´
Úĸ ÙĬ
leÅ¾ it
Õ«Õ· ÕŃÕ¡Õ¶
ÑĩÐ¸Ð» Ð³ÑįÑį
à®ħà®° à®ļ
Ð´Ð·ÐµÐ½ Ñĭ
ÉĻb ÉĻr
Î¿ÏĢÎ¿ Î¯
prod us
áĥĽáĥĺáĥľ áĥĺáĥ¡áĥ¢áĥł
áĢ±áĢ« áĢº
Ð¼ÐµÐ¶ Ð´ÑĥÐ½Ð°ÑĢÐ¾Ð´
Õ¡Õ¯Õ« Öģ
Ð±ÐµÐ» Ð³Ñĸ
ãĥķãĤ ¡
ytt Ã¶
arr ang
reli gi
áĥ¡áĥĲáĥĻ áĥ£áĥĹ
æ²Ĵ æľī
ÎĶÎ· Î¼Î¿
equ ip
ØŁ ØŁ
Ð²ÐºÐ»Ñİ ÑĩÐ°
Ð¼Ð°Ð³ ÑĩÑĭ
Ð¼ÑĸÐ½Ñĸ ÑģÑĤÑĢÐ°
Å¥a Å¾
ÎķÎ» Î»Î·Î½
Prof es
áĥ¤áĥĿáĥł áĥĽ
Ð¿ÑģÐ¸ ÑħÐ¾
ongo zi
à¶¸à·Ħ à¶Ń
æĢİ ä¹Ī
demok rat
Î³Î½Ïī ÏģÎ¯
xal q
Ð°Ð³ÐµÐ½ ÑĤ
à¬ĵ à¬¡
recu per
liit ty
coment ari
Õ°Õ«Õ´ Õ¶
åģ¥ åº·
ÐºÑĭÐ· Ð¼Ð°ÑĤ
áģĤáģĢ áģģáģ
POR T
à¶ķ à¶±
à³§ à³
ÐŀÑģ Ð½Ð¾Ð²
å¸Į æľĽ
ãģĭãĤĤ ãģĹãĤĮ
áĥªáĥĶáĥľ áĥ¢áĥł
åĲĪãĤı ãģĽ
ÐłÐµÑģ Ð¿ÑĥÐ±Ð»Ð¸ÐºÐ°
áŁ¢áŁł áŁ¡áŁ
szczeg Ã³l
Ð¸Ð¼Ñĥ ÑīÐµ
posk yt
Õ«Õ³ Õ¡Õ¯
ÑİÑĢÐ¸ Ð´Ð¸
ÐłÐ¾Ñģ ÑģÐ¸
schlie ÃŁ
ÕºÕ¡Õµ Õ´Õ¡Õ¶
ç´¹ ä»ĭ
gÃ¶st ÉĻr
issan ce
dejt ing
áĥ£áĥłáĥľ áĥĲáĥļ
hatÃ¡ roz
Õ®Õ¡Õ¼ Õ¡Õµ
Û±Û³ Û¹
à¹ģà¸ªà¸Ķ à¸ĩ
maktad Ä±r
ÒļÐ°Ð·Ð° ÒĽ
/ /
4 1
4 3
5 2
6 2
6 3
9 5
A F
A U
A w
B C
B M
B S
B is
B ra
B od
B ud
B ag
B ry
B lan
B eh
B Ã¶l
B ez
B log
C T
C el
C it
C ro
C ÉĻ
C ur
C ir
C lu
C hu
C ym
C ON
C OM
D D
D S
D u
D at
D el
D ra
D ek
D ic
D ie
D ok
D aw
D ien
D EL
E f
E h
E nd
E pis
F E
F O
F r
F in
F is
F ak
F ut
F ir
F lo
F ah
F eb
F ort
F ore
F inan
G H
G j
G w
G an
G el
G ru
G AN
G ym
H on
H ad
H ak
H Ã¼
H us
H af
I de
J U
J ug
J Ã¤r
K T
K is
K et
K il
K Ã¼
K la
K ah
K au
K las
K ong
K ep
K Ã¶z
L U
L y
L en
L ar
L am
L ing
L im
L og
L uk
L eh
L ou
L ond
L IS
L ux
M Ã©
M ac
M ay
M EN
M AT
M ont
N S
N o
N ut
N ik
N um
N ot
N ie
N eder
O D
O m
P E
P P
P l
P Ã¡
P Ã©
P Ã¤
P ak
P ap
P ili
P ier
P rÃ¡
P lat
R T
R el
R Ã¡
R em
R ab
R ob
R IS
S or
S un
S ad
S pa
S ho
S af
S pol
S ev
S eb
S pan
S tan
S ER
T H
T ab
T op
T ec
T hi
T ari
T ah
T hu
T han
T eh
T wo
U P
U d
V ar
V ÃŃ
V ik
V Ã½
V iki
W el
X u
Y O
Y ap
Z e
Z u
Z ar
Z eit
a o
a er
a ad
a am
a ji
a Äµ
b em
b om
b ent
b ing
b im
b ic
b ok
b lu
b ell
b are
b ali
b ada
b ate
b ren
b adi
b ras
b ÄĹs
b nis
b aba
c Ã«
c je
c ot
c ang
c uk
c ant
c ana
c ari
c are
c ada
c ate
c ry
c ard
c ciÃ³
c over
c ede
c itt
d ud
d Ã¶r
d ven
d ry
d Ã¼n
e ve
e eri
e chi
f et
f Ã³
f id
f ie
f ok
f Ã¥
f ari
f eri
f az
f inn
f jal
f oto
g h
g is
g Ä±
g ap
g Äģ
g ie
g Ã¦
g wa
g ju
g wy
g ili
g ina
g ry
g era
g ren
g ger
g over
g ede
g eme
g lav
g egen
h d
h ik
h ne
h ati
h Ãº
h ard
h vil
h jel
h uma
h jem
i jo
i dir
i cio
i fica
i ÄĿ
i esp
j is
j om
j ir
j ant
j Ãµ
k ti
k id
k ang
k ung
k Äħ
k ili
k ker
k ken
k ÉĻn
k lik
k Å¯
k vin
k untza
l Äħ
l ind
l ÃŃt
l Ã©g
l eme
m ur
m Ä«
m Äħ
m ate
m era
m Ã¼n
m Å¯
m use
m niej
n x
n ur
n ul
n da
n Ã«
n ge
n ja
n ang
n ati
n der
n are
n ere
n ale
o q
o on
o ik
o ir
o pre
o are
o Äįi
o Äįn
o kaz
p po
p um
p se
p to
p uk
p hi
p one
p ami
p ÅĤy
q in
q on
q ol
q am
q az
q ram
q anun
r h
r re
r un
r ung
r ÄĻ
r Ã©s
r Ã¨
r Å«
r Ã´
r Ã³w
r sat
r Ã«s
s f
s ma
s and
s lo
s ant
s ele
s Ä±n
s int
s ala
s son
s pod
s ÉĻn
s Ã¼r
s Ã¦r
s ort
s Äģk
s Ä±nÄ±
s lag
s lap
s Ã¦t
s Ã¼rÃ¼
s mart
t ko
t jen
t Ã«r
t Å±
t Ã¡m
t kaz
t ÉĻlÉĻ
t Ã¦n
u en
u ot
u ko
u gen
u we
u cht
v am
v ne
v and
v lo
v ana
v Ã¡s
v ind
v ate
v ento
v Ã©r
v inn
v red
v las
v esz
v Å¡et
w ir
w iz
w ang
w est
w ara
w art
w ÅĤa
w edd
x at
x or
x is
x es
x us
x ÃŃa
x istin
y g
y j
y je
y ok
y ÉĻn
y ard
y sty
y abr
z om
z Ã³
z ing
z Ã«
z ve
z ko
z ten
z ado
z ato
z ony
z Ã©k
z inÄģt
£ áĥĻ
· áĪį
Ã ĥ
Ã Ĩ
Ã Ĭ
Ã Ķ
Ä º
Ä Ģ
Ä Ĥ
Å ĵ
Ï ĭ
Ð Ĥ
Ô ·
Ô ¾
Ö ¶
× °
á Ĩ
á ł
ê º
ë Ģ
ë ļ
ë Ľ
ì ¨
ì ĳ
í ĵ
ï ĳ
ï Ķ
à¤ ½
à¤ ĭ
Ð° Ñİ
Ð° ÑģÐ°
Ð° Ð»Ñĸ
Ð° ÑĤÑĭ
Ð° Ð»ÑĭÒĽ
Ð° ÐºÐ°Ð´Ðµ
à¸ Ĩ
Ð¾ Ð³
Ð¾ Ð½Ð¾
Ð¾ Ñĺ
Ð¾ Ð¼Ñĥ
Ð¾ Ð¿Ð¸
Ð¾ ÑĢÐ¾Ð½
Ð¾ ÑĦÐ¾ÑĢÐ¼
Ð¾ ÑĦÐ¸ÑĨÐ¸
Ð¾ ÑĨÑĸÐ½
Ð¾ ÒĽÑĥ
Ð¾ ÑģÐ¸Ð³Ñĥ
Ð½ ÑĨ
Ð½ ÓĻ
Ð½ ÑģÐº
Ð½ ÑįÐ³
Ðµ Ð¼Ð¾
Ðµ ÑģÐµ
Ðµ ÑħÐ°
Ðµ ÑļÐµ
Ðµ ÑģÑĤÐµ
Ðµ Ð·Ð´
Ðµ Ð»ÐµÐºÑĤÑĢÐ¾Ð½
Ðµ ÑģÐµÐ¿
Ð¸ Ð´
Ð¸ ÑĤÐµÐ»
Ð¸ ÑĩÐµÑģÐºÐ¾
à° ł
ÑĢ Ñħ
ÑĢ Ð´Ð°
ÑĢ Ñİ
ÑĤ Ð²ÑĬÑĢ
à² Ĳ
en u
en as
en ek
en ing
en os
en ne
en ig
en co
en cu
en simmÃ¤
à¦ Ŀ
Ñģ Ð¼
Ñģ Ð¿ÑĢÐµ
Ñģ Ð»Ñĭ
Ñģ Ð»ÐµÐ½
Ñģ ÒĽÐ°
Ñģ Ð½Ð¸Ð¹
Ñģ ÑĦÐµ
Ñģ ÑĨÑı
Ñģ ÑģÑĭÐ»
er et
er ek
er os
er ant
er ine
er abil
Ø§ Ú¯
an h
an st
an ne
an sk
an jut
an vÃ¤nd
Ð» Ó©
Ð» ÐµÐ½Ð¸
Ð» ÐºÑĥ
Ð» ÑįÐ»
Ð» ÐµÐ½Ð¸Ð¸
à¥ ¤
à¶ ¥
à¶ Ľ
Ð² ÑģÑĤÐ°Ð½Ð¾Ð²
Ð² ÑģÑĤÑĢÐµ
Ð² Ð²Ð°Ð¶Ð°
à· Ľ
à· ŀ
in ing
in um
in ka
in Ã«
in no
in ce
in ho
in kl
in ky
ãģ İ
ãģ Ĳ
Ðº ÑĤÑĥÑĥ
Ð´ ÑĬ
Ð´ Ð½Ñı
Ð´ Ð½Ñĸ
Ð´ Ò¯ÑĢ
áŀ ¥
à¬ µ
ar n
ar re
ar Ã¡
ar ta
ar ka
ar ang
àº Ŀ
st on
st Ä«
st wa
st art
st Ã¸r
st Ã¦r
st ria
st Äģk
st ille
st wor
st Ã¼t
Ñĥ ÑĨ
Ñĥ ÑĢÐ¾
Ñĥ Ð»ÑĮ
Ñĥ Ð¿ÑĢÐ°
Ñĥ Ð´Ð¾Ð±
Ñĥ ÐµÐ»
Ð¿ Ð»Ð¸
à¨ ĵ
Ð¼ Ð»Ð°
Ð¼ ÑĬ
Ð¼ ÑįÐ½
Ð¼ Ó©Ð½
Ð¼ Ó©ÑĤ
Ð¼ ÑįÑĢÐ³Ñį
at ar
at Ã«
at Äĥ
at ten
at tra
at rak
al en
al et
al Ä±
al li
al ing
al da
al ko
al and
al can
on u
on ar
on na
on ge
on to
on gel
re u
re v
re w
re ad
re ti
re da
re to
re ag
re tt
re ach
re uni
re ib
re qui
re prez
re present
re prezent
Ø± Ø²
Ø± Ø£
Ø± Ø§ÙĬ
Ø± Ø§Ø³Øª
Ø± Ø§ÙĨÛĮ
ÙĦ Ùħ
ÙĦ Ø¯
ÙĦ Ø¨
ÙĦ Ø©
ÙĦ Ø§Ø³
ÙĦ Ú©Ú¾
ÙĦ Úĳ
el er
el Ã©
el Äģ
el ser
el kar
or en
or te
or ta
or ic
Ñĸ Ð·Ð°
Ñĸ ÑģÑĤÐ¾
Ð³ Ð¸Ð·
Ð³ Ó©ÑĢ
Ð³ ÑĢÐµÑģ
Ð³ ÑĢÐµÑĪ
ÙĨ Ø¹
ÙĨ ÚĨ
ÙĨ ÙĪÙħ
ÙĨ Ø§Ø¡
ÙĨ ØªÛĮ
ÙĨ ÙħØ§
ÙĨ ÚĬ
it im
it ia
it ve
it tÃ¤
it Ã©s
Ð· ÑĢÐ°
Ð· Ð´Ñĥ
Ð· Ð¾ÑĢ
Ð· Ð²Ñĥ
Ùħ Ù¾
Ùħ ÙĪÙĨ
Ùħ Ø¶
Ùħ ÛĲ
Ùħ Ø«
Ùħ Ø§Ùĩ
Ùħ Ø¨Ø±
Ùħ Ø¹ÙĦ
Ùħ ÙĬÙħ
ÙĪ Ø¥
ÙĪ Ø§ÙĦØª
ÙĪ Ú©Úĵ
Ñĭ Ð¼
Ð± Ð²Ð°
Ð± ÑĢÑı
is an
is et
is ed
is ce
is wa
is ation
es n
es u
es ar
es ka
es cent
es inde
Øª Ø§Ùħ
Øª Ø¨Ø±
Øª Ø§Ø²
Øª ÛĪ
et es
et ik
et Ã«
et to
ra y
ra in
ra ch
ra yon
il di
il ing
il iz
áĪ ı
Ñı Ð´
Ñı Ð·Ð°
Ã¡ Å¾
Ã¡ sz
Ã¡ cia
Ã¡ vel
Ã¡ ban
as c
as ar
as al
as un
as ig
as ist
as kan
as soci
ÛĮ ÙĤ
ÛĮ Ø§Ø¯
ch Ã¡
ch os
ch eg
ch uy
ch Ã¡dza
ÙĬ Ùī
ÙĬ Ø·
ÙĬ ÙīÙĨ
ÙĬ Ù½
ÑģÑĤ Ñı
ãĤ ´
un di
un ing
un os
un ser
un que
Ã© b
Ã© z
Ã© tÃ©
à§ ±
ol y
ol em
ol ma
ol ah
ol eh
ol vas
×Ļ ×ķ×Ŀ
Ø¯ Ø¨
Ø¯ Ø¹
Ø¯ Øº
Ø¯ ÙĪÙĨ
Ø¯ ÙĪØ¯
ad re
ad us
ad op
à¤° à¤§
ri an
ri do
am t
am ar
am ik
am ing
am men
am bu
Ã¤ hlt
ÑĢÐ° Ð°
ÑĢÐ° Ð²
ÑĢÐ° Ð½Ð¸
ÑĢÐ° Ñŀ
ÑĢÐ° ÑļÐµ
ÑĢÐ° ÑħÑĥ
ro di
ro ma
ro do
Î± Î¾
Î± ÏĢÎ±
Ñĩ Ñį
Ñĩ ÑĤÐ¾
Ñĩ Ð½ÑĭÑħ
Ñĩ Ò¯Ð»
ci el
ci ud
ci Äĩ
ci miento
×ķ ×ķ×ª
×ķ ×Ļ×§
×ķ ×Ļ×¡
ti b
ti z
ti er
ti ri
ti ed
ti kan
ti ÄŁi
ti eto
ÉĻ mÉĻ
di u
di v
di ge
di ce
di do
di ye
di vul
em t
em on
em pe
em Ã©ny
Ä± ndan
li j
li ber
li ÄŁ
li gi
li au
Î¿ Î»Î¿Î³
ÐµÐ½ ÑĮ
Ø³ Ø¯
Ø³ Ùģ
Ø³ Ûķ
Ø³ ÙĪØ±
Ø³ Ø§Ø¦
Ø³ Ø§ÛĮ
Ø³ Ø±ÛĮ
Ø¨ Ûģ
Ø¨ Øº
Ø¨ Ø§ÛĮ
Ø¨ Ø±ÙĪ
Ø¨ ÙĬØ©
Ø¨ ÛĮÙĨ
Ø¨ Ø§ØŃ
áŁ ı
áŁ Ķ
Îµ Î²
Îµ ÏĦÎµ
Îµ Î½Î·
Îµ Î¼ÏĨ
om u
om on
om ia
om fat
ÑĨ Ð°ÑĢ
ÑĨ ÑįÐ½
ÑĨ ÑĨÑı
Ø§ÙĦ Ø²
Ø§ÙĦ Ø§Ùħ
Ø§ÙĦ ÙĬØ©
Ø§ÙĦ Ø¨Ø±
Ø§ÙĦ Ø§Ø®
Ð¶ Ð½Ñĸ
Ð¶ Ò¯Ð¹
Ð¶ Ð¾Ð»
ÑĮ Ðµ
ÑĮ Ñİ
ak si
ak ing
ak eta
ent en
ent ra
ent ation
ent zia
Î¹ Î¼
Î¹ Î¶
Ð½Ð° ÑĢÐ¾
Ð½Ð° Ð²Ð¸
Ð½Ð° Ð´Ðµ
Ð½Ð° ÑģÐ¾
Ð½Ð° ÑģÑĤÐ¸
Ð½Ð° ÑĪÐ°
Ð½Ð° Ð´Ð·
Ð½Ð° ÑģÑĤÐ°Ð²
Ð½Ð° Ð¿ÑĢÐ°Ð²Ð¸
Ð½Ð° ÑĨÑĸÐ¾Ð½Ð°
àŃ Ī
áī ¨
si al
si es
si ca
si co
si kt
si fica
Ñħ Ð²Ð°
Ñħ ÑĢÐ¸ÑģÑĤÐ¸
à¸² à¸ļ
à¸² à¸Ī
à¸² à¹Ģà¸Ľ
à¸² à¹ĥà¸«
ÃŃ te
ÃŃ Äį
ÃŃ och
ÑĪ ÑĮ
ÑĪ ÑĤÑĥ
ÑĪ Ò¯Ò¯
ÑĪ ÑĥÐ²Ð°
ÑĪ ÐºÐ°Ð½
ÑĪ ÑĤÐ²Ð¾
ed ad
ed zi
ed ade
ed intele
Ð²Ð° ÑĶ
Ð²Ð° ÑĤÑĮÑģÑı
ÖĢ Õ¡
ÖĢ Öģ
ãĥ ¦
à¤¨ à¤¨
à¤¨ à¤¯
po b
po ol
po te
po Å¾
po ko
po ca
po du
po wi
po go
po int
po kra
po win
po wod
po zosta
ÏĦ Ïį
ÏĦ ÎµÎ¯
ÏĦ ÏİÎ½
ÏĦ ÏģÏĮ
ÏĦ ÏīÏĤ
ÏĦ Î¿ÏħÏģÎ³
Ã¶ g
Ã¶ p
Ã¶ v
Ã¶ ver
ur b
ur is
ur ch
ur Äį
ul an
Ã¼ p
ek et
ek sk
áĬ ³
Ñį Ð·
Ñį Ð»Ðµ
Ð½Ð¾ Ñİ
Ð½Ð¾ ÑĹ
Ã³ gy
Î½ Îµ
ut er
ut in
ut ro
ut Äģ
ut to
ut for
ut sch
us el
Ð½Ð¸ Ð»
Ð½Ð¸ ÐºÑĸÐ²
Ð¿Ð¾ Ð´Ð¾
Ð¿Ð¾ ÑģÐ°
Ð¿Ð¾ Ð¼Ðµ
Ð¿Ð¾ Ð¼Ð¸
Ð¿Ð¾ Ð½Ñĥ
Ð¿Ð¾ Ð±Ðµ
Ð¿Ð¾ Ð²Ñĭ
Ð¿Ð¾ Ð²ÑĢ
Ð¿Ð¾ Ð»Ð°Ð³Ð°
Ð¿Ð¾ ÑĢÑĬ
Ð¿Ð¾ ÑĤÐµÐ½
Ð¿Ð¾ ÑĩÐ¸Ð½Ð°
Ð¿Ð¾ ÑĪÐ½Ñĸ
Ð¿Ð¾ ÑĢÑıÐ´
à´ķ à´¨
à´ķ à´®
à´ķ à´±
à¤¸ à¤ľ
à¤¸ à¤«
à¤¸ à¤Ļ
ik h
ik in
ik as
ik Ã¤
ik ki
le ist
ÑĢÐ¾ Ð¹
de sta
de fen
à¸Ļ à¸Ļ
à¸Ļ à¸§
à¸Ļ à¹Ģà¸¥
à¸Ļ à¹ĥà¸Ī
ing t
ing ar
te e
te Ä¾
la f
la j
la ha
la gen
ä¸ ´
ä¸ ĥ
ä¸ Ķ
ä¸ Ŀ
Å¡ ta
Å¡ ka
Å¡ Äģ
Å¡ no
Å¡ to
Å¡ Ä«
Å¡ Å¥
Ïĥ Î¹Î¬
ÑĢÐµ Ð²
ÑĢÐµ ÑĶ
ÑĢÐµ ÑĪÐ¸
ÑĢÐµ Ð³Ñĸ
ÑĢÐµ Ð°Ðº
ÑĢÐµ ÐºÐ»Ð°
ÑĢÐµ ÑģÑĥÑĢ
ÑĢÐµ Ð»Ð¸Ð³Ð¸
ta p
ta an
ta as
ta bl
os zt
um at
um um
um ia
ÐºÐ° Ð²
ÐºÐ° ÑĤÐ¾
ÐºÐ° ÑĩÐµ
ÐºÐ° Ñŀ
ÐºÐ° ÑĤÐµÐ³Ð¾
ÐºÐ¾ Ð¸
ÐºÐ¾ ÑĢÐµ
ÐºÐ¾ Ð»ÑĮ
ÐºÐ¾ Ð»Ð¾
ÐºÐ¾ Ð½Ðµ
ÐºÐ¾ Ñŀ
im at
im as
im os
im pres
im pul
ÑĤÐ° Ð°
ÑĤÐ° Ð²Ð°
ÑĤÐ° Ð½Ñĭ
à´¨ à´²
da f
da gi
ÙĤ Ø§Ùħ
ÙĤ ÙĪÙĦ
ÙĤ ÙĪÙħ
ÙĤ Ø±Ø¨
ÙĤ ÙĪÙĬ
ÙĤ ÛĩØ±
à¤® à¤¸
à¤® à¤£
Ð»Ð° Ð³
×Ķ ×Ķ
×Ķ ×¤×¨
×Ķ ×Ļ×Ķ
×Ķ ×¨×Ĳ×©
Äį o
Äį es
Äį ke
Äį len
Äį nÄĽ
Äį lÃ¡n
ÑĤÐµ Ð¾
ÑĤÐµ Ð²
ÑĤÐµ Ð¹
ÑĤÐµ ÑĢÐ¾
ÑĤÐµ ÑĤÐ°
ÑĤÐµ ÑĻ
ÑĤÐµ Ð¼Ð°ÑĤÐ¸
vi o
vi Ã¤
vi Å¡
vi im
vi do
vi ÅĨ
ka a
ka j
ka st
ka ch
ka ÅĦ
Îº Ïį
Îº ÎµÎ¹
Îº Î¿Ïħ
Õ¶ Õ¾
Ð´Ð° ÑĤÐ¸
Ð´Ð° Ð»ÑĮ
Ð´Ð° Ð³Ð¾
Ð´Ð° Ð½Ñĭ
à» Į
Ùī Ø³Ùī
ni u
ni er
ni re
ni ce
ni ÄĻ
ni Å¡t
ni eko
eg li
Ø¹ Ø§Ø±
Ø¹ ÙĪØ±
Ø¹ Ø±Ø¨
na q
na y
na pis
ir kan
à¶± à¶ļ
×¨ ×¢
×¨ ×¤
×¨ ×¦
Ùģ Ùĩ
Ùģ Ùĥ
Ùģ Ø§ÙĤ
Ò¯ Ðµ
ÏĢ Î·
ÏĢ Î¹ÏĥÏĦ
ÏĢ ÏīÏĤ
ÅŁ e
ÅŁ an
ÅŁ ey
à¸Ń à¸Ńà¸Ļ
Î¼ Ïħ
ma a
ma v
ma at
ma ail
à¤ª à¤¶
à¤ª à¤£
à°° à°¦
à°° à°¹
Î» Î¯
Î» Î»Î·
Î» ÎµÏĢ
Ø´ ÙĬ
Ø´ Ø¯
Ø´ Ûķ
Ø´ ÙĩØ±
à´¤ à´Ł
à´¤ à´¯
×ŀ ×ĺ
×ŀ ×ķ×ĳ
×ŀ ×ķ×§
×ŀ ×Ļ×ĺ
×ŀ ×Ļ×Ł
à¸ģ à¸²à¸¥
Ú© Ø§
Ú© Ùĩ
Ú© ÛĴ
Ú© Ø±ÙĪ
Ø§ÙĨ Ú«
ab o
ab ol
ab ora
Õ« Õ©
Õ« Õ¬
Õ« Õ¡ÕµÕ«
Ð»Ð¸ ÑģÑı
Ð»Ð¸ ÑĺÐ°
Ð»Ð¸ ÑĩÐ½Ð¾
od d
od h
od ob
od lo
od nos
Ð¼Ð° Ð°
Ð¼Ð° ÑĤÑĭ
Ð¼Ð° ÑĪÐ¸
Ð¼Ð° Ð½Ð´Ð°
Ð¼Ð° ÒĵÑĭ
Ð¼Ð° Ð°Ð»Ñĭ
Ð²Ð¾ Ðº
Ð²Ð¾ Ð¼
Ð²Ð¾ ÑĤÐ¾
Ð²Ð¾ Ð±Ð¾
Å¾ o
Å¾ in
Å¾ il
Å¾ em
Å¾ od
Å¾ ino
à¤µ à¤Ł
×Ĳ ×Ļ
×Ĳ ×ĵ
×Ĳ ×ŀ×¨
ap r
ap te
ap res
ap are
ap lik
ap pel
ap rendi
zi j
zi ert
Äģ j
Äģ ri
Äģ ti
Äģ li
Äģ la
Äģ ju
Äģ ji
se in
se vi
se con
se be
se par
à²° à²ķ
à²° à²²
à²° à²¡
ÑĤÐ¸ ÑĢÐ¸
Ð·Ð° Ðµ
Ð·Ð° Ð¼Ðµ
Ð·Ð° ÑħÐ¾
Ð·Ð° Ò£
Ð·Ð° Ð¿Ð¾Ñĩ
Ð·Ð° Ð±ÐµÐ·Ð¿Ðµ
ic an
ic Äĥ
ot gan
ot her
ot Ã¡z
×ľ ×ľ
×ľ ×¡
×ľ ×Ĵ
Ø¬ Ø¯
Ø¬ Ø§Ø¯
Ø¬ Ø§Ø¦
Ø¬ Ø§Ùĩ
Ø¬ ÙĪØ¯
Ø¬ ÙħÙĩ
Ø¬ ÙĪØ§ÙĨ
à¸ĩ à¸²à¸¡
à´° à´¶
Ð²Ð¸ Ðµ
Ð²Ð¸ Ð´Ðµ
Ð²Ð¸ Ð¿Ð°Ð´
ge f
ge be
ia c
ia h
Ñĺ ÑĤÐµ
Ñĺ Ð¾ÑĤ
Ñĺ ÑģÐº
Ñĺ ÑľÐ¸
à¸¡ à¸Ń
à¦° à¦¯
à¦° à¦¹
pro b
pro s
pro t
pro po
pro por
pro fil
pro jekt
pro tagon
ter or
ter rit
ter mÃ©
ter ror
à°¨ à°²
ja utÄģ
iz b
iz ar
iz on
iz ado
iz vr
iz manto
va at
va zi
va ja
va iz
va gy
va stu
va hel
va can
va ih
Ïħ Ïĩ
áĢº áĢ³
ver a
ver ko
×ĳ ×ŀ
×ĳ ×Ĵ
×ĳ ×ķ×¨
×ĳ ×¢×¨
sk r
sk om
sk ut
sk ir
sk Ãº
sk ry
sk ip
ob e
ob h
ob ten
ob jed
ob jet
ob nov
ob jek
Ø§Ø± ÙĪ
Ø§Ø± Ø¯
ÑĤÐ¾ Ñĩ
ÑĤÐ¾ ÑħÐ¸
à¤¦ à¤ķ
ØŃ ÙĨ
ØŃ Ùģ
ØŃ Ø§Ø¯
ØŃ ÙĪØ§ÙĦ
Õ¡Õ¶ Õ¾
áĮ ¤
áĮ ¦
áĮ ¸
áĮ Ĩ
ha f
ha jt
ang i
ang os
Î¯ ÏĦÎ·
ve y
ve ic
ve au
à¹Ģà¸ Ł
ig er
ig os
ig ual
sp ar
sp al
sp on
sp el
sp Ã©
sp rÃ¡
sp ole
ist ra
ist ic
à¶» à·Ħ
Ð»ÑĮ Ð½Ð¸Ðº
Ð»ÑĮ Ð½ÑĸÐº
à¸¢ à¸°
con t
con na
con ne
con tro
con cur
con cent
con stitu
con tempor
no z
×¢ ×Ŀ
×¢ ×ķ×ĳ
ie i
Ð»Ð¾ ÑĤ
Ð»Ð¾ Ðº
Ð»Ð¾ Ð¶ÐµÐ½Ð¸Ðµ
Ð»Ð¾ ÐºÐ°Ð»
sa i
sa v
sa x
sa ist
sa hu
Ã§ at
Ã§ Ã¼n
Ã§ Ã¶z
Ã§ ÉĻk
za jed
za vr
za Å¡t
ce a
ce st
ce ÄŁi
à¤¹ à¤ķ
à¤¹ à¤µ
à´¯ à´ª
à´¯ à´Ļ
Ùĥ ÙĬÙĦ
Ùĥ ÙīÙĨ
Ùĥ ÛķØª
Ùĥ Ø«Ø±
to res
ko ÅĽci
qu v
qu y
ud hÃ«
à´ª à´ł
Ð³Ð¾ Ð¹
Ð³Ð¾ ÑĤÐ¾
Ð³Ð¾ ÑĢÐ¾Ð´
Ð³Ð¾ ÑģÐ¿Ð¾Ð´Ð°ÑĢ
à¶ļ à¶±
à¶ļ à¶ļ
×© ×ķ×¨
Ð´Ð¾ Ð»Ð°
Ð´Ð¾ Ð¼Ð¾
Ð´Ð¾ Ð¼Ð¸
Ð´Ð¾ Ñŀ
Ð´Ð¾ ÑģÑĤÐ¸
Ð´Ð¾ Ð³Ð¾Ð²Ð¾
Ð´Ð¾ Ð¿ÑĬÐ»
Ð´Ð¾ ÑģÑĤÐ¸Ð³
per ten
à¶¸ à·ĥ
à¶¸ à¶«
Ð³Ð° Ð´
Ð³Ð° Ð¶
Ð³Ð° Ð½Ð¸
Ð³Ð° ÑĤÐ°
Ð³Ð° ÑĤÐ¾
Ð½Ðµ ÑģÑĥ
Ð½Ðµ Ð´Ð¾ÑģÑĤÐ°
Ð½Ðµ Ð³ÑĸÐ·
og y
og en
og at
og ia
og led
à®ª à®±
à¦¿ à¦Ĥ
ÑĦ ÑĢÐ°Ð½
ÑĦ ÑĥÑĤ
çļ ®
çļ ĩ
à°ķ à°ª
áĥł áĥĶáĥĴ
Ð»Ðµ Ð´
Ð»Ðµ Ð¿
Ð»Ðµ ÐºÐ°ÑĢ
ba an
ba ik
ba han
Î¬ Î»Î±
sz o
sz Ã¡
sz Ã³
sz Ã¶r
sz Ã³l
Ø² ÙĨ
Ø² Ø®
Ø² Ø§Ø¯
ng o
uk se
uk kan
uk Å³
ÑĨÐ¸ ÑĤÐµ
Ù¾ Ùī
Ù¾ Ûķ
Ù¾ Ø§Ø¯
Ù¾ ÛĲ
Ù¾ ÙĨÙĩ
Ù¾ ÙĨØ¬
Ù¾ Úĳ
à¦¨ à¦¬
à¦¨ à¦¯
à¤Ĺ à¤ł
à¤Ĺ à¤¢
áĥĽ áĥĶ
áĥĽ áĥĹ
áĥĽ áĥĲáĥĽ
áĥĽ áĥĶáĥĹ
áĥĽ áĥľáĥĺáĥ¨
Ð´Ð¸ Ð¾
ag u
ag an
ag ent
ag gio
×ł ×©
×ł ×Ľ
×ł ×Ļ×ª
×ł ×Ļ×Ķ
Ø® ÙĬ
Ø® Ùĩ
Ø® Ùī
Ø® Ø´
Ø® Ø§ÙĨ
Ø® Ø§Ø±
Ø® ÙĪØ±
áĥ¡ áĥĻ
áĥ¡ áĥ®áĥķ
pre ci
pre ta
pre fer
pre siden
pre ocu
Ð´Ðµ Ðº
Ð´Ðµ Ñĥ
Ð´Ðµ Ð¼
Ð´Ðµ ÐºÐ°
Ð´Ðµ ÑĤÐ°
Ð´Ðµ Ð±Ð¸
est re
ya x
ÑĬ Ðº
ÑĬ Ð¼
pr ol
pr ati
and ro
ãģĦ ãģĨ
ãģĦ ãģªãģĦ
ãģĦ ãģ¤
ãģĦ ãĤį
àº² àº¥
ati o
à®Ł à®¤
ÐºÐ¸ ÑĢ
ok k
ok ing
tu i
tu v
tu uri
Ð²Ðµ ÑĢÐ¸
Ð²Ðµ ÑĩÐµ
Ð²Ðµ Ð¶Ð´Ð°
Õ´ Õ¶
Õ´ Õ¡Õ¿
Õ´ Õ¡Õ½
Õ´ Õ¡ÖĢÕ¿
à²¤ à²®
ÎŃ ÏĢ
ÎŃ Î³
ÅĤ ug
Î³ Îµ
Î³ Î¿Ïħ
Î³ ÏīÎ½
à´µ à´³
à´µ à´¶
à´µ àµ¼
ÑģÑĤÐ° Ð»
ÑģÑĤÐ° ÑĤÑĮ
ÑģÑĤÐ° Ð½Ð½Ñı
ÒĽ Ð°ÑĢ
×ª ×ľ
×ª ×Ĵ
Ð¡ Ñĥ
Ð¡ ÐĿ
Ð¡ Ð¿Ðµ
Ð¡ Ð»Ñĥ
Ð¡ ÑĢÐ¿
Õ¿ Õ¥
Õ¿ Õ¾
àºĻ àºķ
ke zÃ©s
ac ak
ac qu
ac cep
à·ĥ à¶»
men o
men et
men ga
men gu
men ye
Ð±Ð° Ñı
Ð±Ð° ÑĤÐ°
Ð±Ð° ÒĽ
Ð±Ð° ÑģÐ°
Ð±Ð° Òĵ
Ð±Ð° ÐµÐ²
Ãº j
Ãº gy
áĥ£ áĥĲáĥļ
me el
åħ «
åı ¥
å¤ Ł
à¸ª à¸¡à¸²
à¸ª à¸Ńà¸ļ
à¸ª à¸§à¸¢
à´® à´²à´¯
Ú¯ Ø±ÙĪ
vo er
vo ja
Ð¿Ð° Ðº
Ð¿Ð° ÑĨÐ¸
ÐĲ Ð½Ð°
ÐĲ Ð³ÐµÐ½
ru ch
ru Äį
ru pt
ðŁ ¥
ðŁ ¦
ðŁ ĸ
ðŁ Ľ
ber si
ber gi
Ð¼Ð¾ Ð´ÐµÑĢ
ung i
ung gu
ÑĢÑĥ Ð½
lo c
lo in
lo sti
Î´ ÏĮ
Î´ ÏģÎ¿
Î´ Î¹ÎºÏĮ
ca ya
ÑģÐ° ÐºÐ°
ÑģÐ° Ð»Ð°
ÑģÐ° Ð¼Ð°
ÑģÐ° Ð»Ñĭ
ÑģÐ° Ð¼Ñĭ
ÑģÐ° ÑĨÑĭÑı
ÑģÐ° ÑĢÐ°Ð´
áĢĢ áģ
áĢĢ áĢĶ
Ä« gi
Ä« paÅ¡
à²ķ à²¨
à®µ à®®
à°µ à°¨
à°¸ à°¹
end ar
end us
áĥļ áĥĶáĥľ
áĥļ áĥĶáĥĳáĥĺáĥ¡
áĥļ áĥĿáĥĳáĥĲ
tr um
tr gov
å® ħ
Ð¾Ð± Ñĥ
Ð¾Ð± Ð¾ÑĢÑĥ
be ha
be za
be har
Øµ ÙĪÙĦ
Øµ Ø¨ØŃ
ku st
ku va
ku ji
ku uta
ku ulu
ä» į
for gal
op a
op at
op is
op ak
op le
op port
op tim
à¨° à¨¸
à¨° à¨¨
à¨° à¨ļ
sta w
à¦ķ à§°
Ð¼Ðµ Ñĩ
Ð¼Ðµ ÑģÐµ
Ð¼Ðµ Ð¼Ð»ÐµÐºÐµÑĤ
áĥĶáĥĳ áĥĶáĥĳáĥĺ
à¸ļ à¸ģà¸²à¸£
à¸ļ à¸²à¸¥
su e
su h
su o
su ure
ec zy
pa h
pa ci
pa ik
ÐŁ ÑĢ
ÐŁ Ð¾Ñģ
Ñī Ñĸ
gi h
gi u
gi Ã°
×§ ×ľ
×§ ×¦
ga i
ga v
ga ve
Õ¥Õ ©
Õ¥Õ »
×ĺ ×¨×Ĳ
ant wort
Ð¼Ð¸ Ð½Ñĥ
ki en
ki er
ki ch
ki ri
×Ĺ ×ľ
×Ĺ ×¡
×Ĺ ×ĸ
×Ĺ ×Ļ×ľ
à¸ķ à¸¢
×ĵ ×ķ×ª
Ðļ Ñĸ
Ðļ ÑĢÐ¸
Ðļ Ð°ÑĢ
Ðļ Ð°Ðº
hi b
hi i
à²² à²°
Ø¦ ÙĪ
Ø¦ Ø§Ø±
bi y
bi or
bi et
bi ed
bi da
bi ja
lu cr
×¤ ×ķ×ª
Ð¿ÑĢÐ¾ Ñģ
Ð¿ÑĢÐ¾ ÑĤÐµ
Ð¿ÑĢÐ¾ ÑĤÐ¸
Ð¿ÑĢÐ¾ Ð´Ñĥ
Ð¿ÑĢÐ¾ ÑģÑĤÑĢÐ°
Ð¿ÑĢÐ¾ Ð²Ð¾Ð´Ð¸
Ð¿ÑĢÐ¾ ÑģÑĤÑĢÐ°Ð½
áĢĲ áĢĽ
áĢĲ áĢĬ
åĪ ¸
åĪ Ĵ
åĪ ļ
Î® Ïĥ
Î® ÏĤ
Î® Î¸
Î® Î¼Î±
áĢĦ áĢļ
ny d
ny v
ny el
ny ug
ny dd
he q
he y
he el
he ure
mi ar
mi Å¡
mi yyÉĻt
à¸Ħ à¸ĩ
à²µ à²¹
à²µ à²£
Ã° ir
ho og
pi em
pi ÅĤ
pi ÄĻ
pi ÄĻk
pi Å¡kot
áĢĻ áĢĽ
áĢĻ áĢŁ
à¶´ à·Ħ
à¶´ à·Ģà¶Ń
à¤¶ à¤¤
à¤ļ à¤ķ
Ø· Ø¨
Ø· Ø¨ÙĬ
Ø§Øª ÛĮ
Ø§Øª Ú¾
à°Ł à°ķ
à°Ł à°²
ÑĩÐ° ÑģÑĤÑĮ
der n
par ad
Ðľ ÐĴ
Ðľ Ð¾Ð½
Ðľ Ð°Ðº
Äĵ s
Äĵ Ä¼
Äĵ rt
Ã½ va
à²Ĺ à²°
à²Ĺ à²¡
à°¯ à°°
Õ¯ Õ¡
Õ¯ Õ«Õ¶
Õ¯ Õ¡Õ¦Õ´
Ø£ Ø¨
Ø£ ÙĪÙĦ
à¦¤ à¦¨
à¦¤ à¦¬
à¦¤ à¦®
com en
com mer
so ft
à¦¸ à¦¹
ÐĿ Ð¾
ÐĿ Ñı
ÐĿ ÐĲ
ÐĿ Ðŀ
ÐĿ Ðķ
ÐĿ Ð¾Ð²Ð¾
ÐĿ ÐŀÐĴ
à´± à´¤
ÐºÑĥ Ð¿Ð¸
ÐºÑĥ ÑĢÐµÐ½
áį Ģ
áį ĥ
áį ħ
Î¹Îº Î±Î½
ÑģÐ¾ ÑĤ
ÑģÐ¾ Ð¼
ÑģÐ¾ ÑĦ
ÑģÐ¾ ÑģÑĤÐ¾
ÑģÐ¾ ÑģÑĤÐ¾Ñı
ÑģÐ¾ ÑĨÐ¸ÑĺÐ°Ð»
áŀŁ áŀĹ
áģ ¤
áģ ¥
áģ ±
áģ ı
áĢķ áĢħ
Õ¥ÖĢ Õ¢
áĥĵ áĥĲáĥķ
áĥĵ áĥĶáĥĴ
áĥĵ áĥĲáĥĳ
ÑĩÐ¸ Ðµ
ÑĩÐ¸ ÑĤÐ¸
Ð½Ñĸ ÑĩÐ½
à¸« à¸²à¸¢
mo z
mo tiv
áĬķ áĪĿ
áĬķ áĭ«
áĬķ áĮį
áĬķ áĭµ
cz yn
cz nie
Ðŀ Ðº
Ðŀ ÑĪ
Õµ Õ¸ÖĤ
Õµ Õ¸ÖĤÕ©
Õµ Õ¸ÖĤÕ²
ju an
ju st
ju ri
ju di
ju bl
Ð¶Ð° Ð·
Ð¶Ð° ÑģÐ°
Ð¶Ð° ÑĤÑĮ
Ð¶Ð° Òĵ
×Ľ ×Ķ
×Ľ ×¨
×Ľ ×ķ×ľ
à²¯ à²°
áŀĶ áŀı
Ð¢ ÐµÑĢ
Ð¢ ÑĥÑĢ
åĲ §
ji es
ÑģÐ¸ Ð»ÑĮ
ÑģÐ¸ ÑĤÑĮ
ÑģÐ¸ Ð¹Ð½
ÑģÐ¸ Ð¾Ð½Ð°Ð»
àªµ àª§
Ø§Ùħ Ø§
co urs
kon a
kon g
kon t
kon di
kon om
kon tra
kon ser
àªķ àª¸
ÄĻ pu
ä½ ³
ä½ Ľ
Ïĩ Î±Î½
Ïĩ ÏģÏĮ
ÑģÑı ÑĤ
ÑĤÑĥ ÑĤ
ÑĤÑĥ Ð²Ð°
ÑĤÑĥ ÑĢÑĥ
ÑĤÑĥ Ð°Ð»
áĢĶ áĢĬ
à¦ª à¦ķ
ÑģÐµ Ð±Ðµ
Ã® t
à¨¸ à¨¬
à¨¸ à¨Ł
pl es
pl et
pl ot
Ðł Ðĺ
ãģ® ãģ¯
ãģ® ãģł
ãģ® æĸ¹
ãģ® ãģ§ãģĻ
Õ° Õ¡Õ²
sh um
sh op
sh ug
åľ į
Ð¿ÑĢÐµ Ð¼Ð¸
Ð¿ÑĢÐµ Ð·Ð¸
áĥľ áĥĺáĥ¡
áĥľ áĥĺáĥĻ
áĥľ áĥĲáĥĻ
ah ui
ãģŁ ãģı
nd ÉĻ
Äĩ u
à®± à®®
ÐĶ Ðĺ
×Ĵ ×Ĳ
×Ĵ ×ĳ
à¤ħ à¤¦
à¤ħ à¤ĸ
à¤ħ à¤«
ãģª ãģŁ
ãģª ãģĮ
ãģª ãĤĬãģ¾ãģĻ
ãģª ãģĭãģ£ãģŁ
Ðĳ ÑĢÐ¸
Ðĳ Ð°ÑĢ
Ðĳ ÑĬÐ»
àºģ àºĦ
àºģ àºªàº²
à®ļ à®©
å° ½
å° ģ
áĥĴ áĥ£áĥļ
Ð¿ÑĢÐ¸ Ð¾Ð±
Ð¿ÑĢÐ¸ Ð¼ÐµÑĢ
Ð¿ÑĢÐ¸ ÑģÑĥÑĤ
ÑĩÐµ ÑģÐºÐ°
ff er
à¬¨ à¬°
à¬¨ à¬Ļ
Ø³Øª Ø±
min im
æĺ ¨
ä¸Ģ èĪ¬
wy n
wy r
ÅĽ li
ãģ¨ ãģ¯
ãģ¨ ãģį
ãģ¨ èĢĥãģĪ
Î¸ Ïħ
Î¸ ÎµÎ¹
Î¸ ÎµÎ½
Î¸ Î¼ÏĮ
Î¸ Î¿ÏĤ
Î¸ ÏħÎ½
ÐĴ Ñı
ÐĴ Ð°ÑĢ
íķ ĳ
à¤¡ à¤²
th on
th ro
ay r
ay an
ÏĨ Î¹
ÏĨ ÎŃ
à®³ à®¤
ÖĦ ÖĢ
pu st
pu is
pu ti
pri hod
pri dob
ÑĤÑĭ Ð²Ð°
ÑĤÑĭ Ò£
ÑĤÑĭ ÑĩÐ½Ð°
Õ½ Õ¥Õ¶
Ð¿Ðµ Ð²
ÚĨ ÛĮ
ÚĨ ÙĬ
áĥĲáĥł áĥĲ
Õ© Õ¥
Õ© Õ¡Öģ
Øº Ø°
è¿ ŀ
ãģ« è¡Į
Ð´Ñĥ Ð½
Ð´Ñĥ ÑĢ
mu z
mu je
mu sta
æĪ °
æĪ ¶
Ð²Ñĸ Ðº
Ð²Ñĸ ÑĤÐ°
åĬ ª
åĬ ĩ
à¸Ľ à¸ı
ex ten
ex tra
ex plo
ÑģÑĥ Ð´
ÑģÑĥ Ð¼
ÑģÑĥ Ð½Ñĥ
bu han
bu tik
à¹ģ à¸Ķ
à¹ģ à¸Ħ
à¹ģ à¸Ĭ
tra va
tra ba
ãĤĭ ãģĵãģ¨
Ð¸Ð· Ð±Ðµ
ÑĺÐ° ÑĤÐ°
àª¸ àªµ
áĥĹ áĥĺáĥĹ
gu st
gu ra
ze ÅĦ
Ð¿ÑĢÐ° Ð·
av y
av an
av no
eri o
gen nem
áŀĺ áŀĢ
à®¨ à®²
àºĩ àºģ
àºĩ àºĹ
ÏĦÎ± ÏĥÎ·
ÏĦÎ± Î¾
Ðĺ ÐĻ
ÑģÑĤÐ¸ Ð½
ven n
ven il
áĢ¼ áĢ¬
Å¼ enie
ìł ĳ
ãĥ¼ ãĤ¯
fi x
fi Ã°
sch t
sch op
sch Ã¶n
sch rij
sch ied
ãģ§ ãģĹãģŁ
cu i
cu p
Õ¤ Õ¡Õ¿
Õ¤ Õ«Õ´
ä¼ ¸
ä¼ Ŀ
por te
por ta
à¤· à¤¯
à¤· à¤¦
à¹Ħ à¸Ń
Ð½Ñĥ ÑĥÐ´
à¶§ à¶¸
Òĵ Ñĥ
å¾ ·
å¾ ŀ
éĢ Ĳ
ìĹ ´
ìĹ ĩ
ty k
Ûĩ Ùħ
ä¹ ¡
ä¹ °
ara ha
×¦ ×Ļ×ĳ
à¶ľ à¶«
Ð³Ð¸ Ð¹
Ø§ÙĦÙħ Ø¯
Ø§ÙĦÙħ Ø´
Ø§ÙĦÙħ ÙĨØª
kom bÃ«
åŃ ķ
Ð¶Ð¸ Ð²Ðµ
à¸²à¸£ à¸°
Ø§Ø¦ Ø´
Ø§Ø¦ ÙĬØ©
å¹ £
å¹ ¼
å¹ ¾
Ø§ÛĮ Ø§
Ð»Ñĭ Ð³
pra c
pra vil
we en
àª² àªĹ
man i
áĪį áĮ£
à¦¦ à¦ķ
áĥĲáĥľ áĥ¡
ãģ£ ãģ
à¤ĸ à¤¨
à¤ĸ à¤¤
Ð°ÑĢ Ð´
one y
áĬł áĪį
áĬł áĪĺ
áĬł áĪĿ
áĬł áĬ«
tÃ¤ y
Ø¶ ÙĦ
Ø¶ Ø§Ø¡
Ðķ ÑĢ
æī §
æī ķ
å¸ ®
å¸ ģ
áĢĽ áĢķ
áŀĦ áŀĢ
au Ã°
áĪĺ áĪ°
áĪĺ áĮł
ll es
ll and
ind re
ind ÉĻn
kl in
kl Ã¤
kl Ä±
kl eri
à¨ķ à¨®
tar ko
tar jo
Ð¸Ð½ ÑģÐºÐ¸
áĪµ áĪĪ
áĪµ áī¥
aj n
aj ar
aj ÃŃ
aj te
aj Ã¡n
aj aran
Ã¢ t
Ã¢ ne
à´Ļ à´¨
áĢŀ áĢĶ
20 19
Ø§Ø¨ Ø±
Ø§Ø¨ Ø¹
ãĤĴ ä½¿
ãĤĴ æĮģ
ck y
ck en
ini Å³
ste j
ste in
ÙĨØ¯ Ø±
ÙĨØ¯ Ùī
ÙĨØ¯ Ø§ÙĤ
hu g
Ð¼Ñĥ Ð·Ñĭ
ìķ ł
áĭ¨ áīµ
áĭ¨ áĪĿ
áĭ¨ áĬĲáīł
bo y
áĢħ áĢħ
isi Ãºn
ÏĥÏĦ Î¿Î¹
bl ad
bl ÉĻr
è¦ ³
è¦ ½
è¦ Ĩ
áĥ® áĥĶáĥĵ
áĥ® áĥĿáĥķ
áĥĻ áĥĲáĥķ
Ð¾ÑĤ ÐºÑĢÐ¸
à²¬ à²²
Ø±ÛĮ Ùħ
Ø±ÛĮ Ø¨
Ø±ÛĮ ÙĤ
ÎµÏģ Î¬
Î² ÎŃÏģ
Î² Î»ÎŃ
à²Ł à²°
gy n
à¨² à¨Ĺ
Ð±Ðµ Ñģ
Ð±Ðµ Ð·Ð¾
ÑģÑĮ ÐºÐ°
ÑģÑĮ Ð¾Ð³Ð¾
ÑģÑĮ ÐºÐ¸Ñħ
Ð´Ñĸ Ð¹
Ð´Ñĸ ÑĢÑĥ
áĥĲáĥĽ áĥĺáĥ¡
Õ¡Õµ Öģ
ÐºÐµ Ð¹
asi at
ÏĢÎ¿ ÏĦÎµ
Ø¢ Ø¦
Ø¢ ÙħÙĪ
ç» §
ç» ©
ç» ĥ
ç» Ŀ
à¤Ĩ à¤Ĺ
Ã¤n k
ÏĥÎ· Î¼
ÏĥÎ· Î¼Î±
ÏĥÎ· Î¼Î±Î½
mÉĻ ÅŁ
Ð²Ñĭ Ð¼
Ð²Ñĭ Ð¹
áĪĪ áĭ«
áĪĪ áĪĽ
áĪĪ áĪģ
è® ¢
è® ¨
è® ¯
è® ¿
è® Ģ
Ð¼Ñĸ ÑģÑı
áĪĿ áĪħ
bil e
bil an
lig ere
lig hed
ai fa
Ðĵ ÑĢÐ°
Ðĵ Ð»Ð°
Ðĵ ÐµÑĢ
ÑĶ Ð½ÑĤ
à¤ī à¤¸
à¤ī à¤¡
áīł áĬł
Äĳ o
à´ħ à´¯
go di
go ed
à²¹ à²¤
Î¼Î± Î¹
Å« ros
ê³ ³
den ti
áĢ» áĢ±áĢ¬
Ïİ ÏĥÎµÎ¹ÏĤ
Ø§Ø³ Ø§Øª
åº Ĩ
åº Ĭ
è¯ ¾
è¯ Ń
ä¸į ä¼ļ
up t
å¼ Ł
å¼ ł
è¡ Ģ
Õ¸ÖĤÕ´ Õ¨
mar av
mar ket
mar ked
bli k
bli ch
vol l
Ð°Ð» Ð´Ð°ÑĢ
à¶ħ à·ĥ
à¶ħ à¶½
à¶ħ à·Ħ
Ð³ÑĢÐ° Ð´Ð°
cht s
éĩ ĭ
à¸Ĥ à¸Ń
ite it
mat a
mat ri
è¨ ´
è¨ Ĥ
è¨ Ĭ
áī° áĬĵ
à¸Ńà¸ĩ à¸ģà¸²à¸£
à¸Ńà¸ĩ à¹Ģà¸Ĺ
az ar
mas h
ÐĽ ÑĮ
ìĦ Ŀ
Ð·Ð¸ Ðº
Ð·Ð¸ Ñı
Ð·Ð¸ Ð¼Ð°
×ķ×¨ ×Ļ×Ŀ
ÑĪÐ¸ ÑĤÐµ
dis e
dis posi
à°ħ à°¦
à°ħ à°¡
ÑģÑĭ ÑĢ
ÑģÑĭ Ð·
ãģĵ ãģĨ
ëĭ¤ ê³ł
sam men
sam ling
áĢ½ áĢ¾
ÑģÑĸ Ð»
ÑģÑĸ Ð²
ÑģÑĸ Ð±
ÑģÑĸ Ñı
ÑģÑĸ Ð·Ð´Ñĸ
Õº ÖĢ
áĥĳ áĥ£áĥłáĥĹ
vy ro
vy sok
ben ef
Ø° ÙĥØ±
pol ici
æ° ¸
æ° Ľ
æķ £
à®ħ à®´
Ã©r tel
Ð¶Ðµ ÑĤÐµ
Ð¶Ðµ Ò£
Ð¶Ðµ ÑĤÐµÐº
Ð·Ð½Ð° Ð¹
In du
fa ch
Ð³Ñĥ ÑĢ
Ð³Ñĥ Ð»
Ø±ÙĬ Ùģ
ÑĸÐ½ ÑĦÐ°ÑĢÐ¼Ð°
ÑģÑĤÐ² ÑĥÐ²Ð°
à¹Ĥ à¸¢
à¹Ĥ à¸Ħ
à¹Ĥ à¸Ľ
à¹Ĥ à¸ŀ
Ð£ Ð½Ð¸
Ð£ Ð£
Ð£ ÐºÑĢÐ°ÑĹ
Ð£ ÐºÑĢÐ°ÑĹÐ½
å· Ŀ
Ð±Ñĥ Ðº
Ð±Ñĥ ÑĢÐ³
áĥĲáĥķ áĥĶ
áĥĲáĥķ áĥĲáĥĵ
str Äĥ
col a
col i
vis u
vis or
vis it
vis ning
Ø§Ùģ ÙĤ
Ø§Ùģ Ø²
áĥĲáĥĵ áĥĲ
ÑĺÐµ Ð´
æľī éĻĲ
ë§ Ľ
inn ova
æĶ Ŀ
Õ«Õ¶ ÖĦÕ¶
Õ¢ Õ¡ÖĢ
Õ¡Õ¿ ÖĢ
å¤§ ãģį
Ã¡r t
ly ck
ê¸ ¸
Ð»ÐµÐ½ Ñĭ
Ð»ÐµÐ½ ÑĮ
inter na
cor r
cor so
ÑĨÐ° Ð°
ÑĨÐ° ÑĤÐ°
ani u
ani ya
ÑħÐ° Ð´
à¸ģà¸²à¸£ à¸Ĺ
à¸ģà¸²à¸£ à¸ķ
à¸ģà¸²à¸£ à¸ĵ
æĥ ĳ
ÑĢÑĸ Ð¼
ÑĢÑĸ Ð±
à¦Ĺ à¦¤
à¦Ĺ à¦ŀ
áĭŃ áĪį
æĬ µ
àŃŁ à¬¨
àŃŁ à¬®
ÃŃt Ã³
ÃŃt ott
ÑĪÐµ Ð¼
pos it
pos Ã©
ìĬ ¹
pod por
eh t
Ô± Õ¶
Ô± Õ·
Ô± Õ¼
áŀħ áŀĢ
à¨ľ à¨¨
gr Ã¡
gr Ã©
gr unn
åĨ ·
åĨ ľ
åĨ ł
à¤ĩ à¤®
Ð»Ñİ Ð±
Ð»Ñİ Ð±Ð¸
cion ais
by r
ÓĻ Ð½
ÓĻ ÐºÑĸÐ¼
ä¾ ¡
met ros
Îĳ Î»
pas ir
pas sa
éĻ ¸
del a
van ia
ãģį ãģ¦
ãģį ãģŁ
à¬² à¬ķ
ÛĮÙĨ Ùĩ
áĥ¡áĥĲáĥ ª
áĥ¡áĥĲáĥ Ķ
lÄ± ÅŁ
æĻ ¨
ë¦ ¼
Ø§ÙĤ Øª
ÙĬÙĨ Ø©
ÑĨÐµ Ð²
ken y
áĥĺáĥļ áĥĺáĥ¡
sel le
à°ľ à°¯
Î¹Î± Îº
ht et
ment s
ment ar
ph ot
åĵ į
ìĸ ¼
à´· à´¨
Å¾i ad
Å¾i Å«r
Å¾i vljen
ÑģÐºÐ¾ Ð¼
ÑģÐºÐ¾ Ð³
ÑģÐºÐ¾ ÑĢÐ¾
ÑģÐºÐ¾ Ñĺ
ÑģÐºÐ¾ Ð»ÑĮÐºÐ¾
rit t
ç§ ¯
ise en
Ø§Ø² ÛĮ
ãģ£ãģ¦ ãĤĤ
sc ar
sc op
AN D
An der
kol og
kol ej
kÃ¶ l
ëĵ Ŀ
ëĵ ł
ow ania
à®ĩ à®±
à®ĩ à®£
Ð´Ð· ÑĮ
Ch ri
Ch am
sin s
è´ §
è´ ¸
àºĹ àº²àºĻ
ÑģÑĤÑĢÐ° Ð½Ð¸
áĥĺáĥľ áĥ¤áĥĿáĥłáĥĽ
ach a
ÑģÑĤÐ²Ð¾ Ð²Ð°Ð»
ÑģÑĤÐ²Ð¾ Ð²Ð°ÑĤÑĮ
áĬ¥ áĮį
ä¸Ĭ ãģĴ
ef ek
ef ec
kor t
kor ral
æİ ¡
æİ ²
Ð²ÐµÑĢ Ð½Ñĥ
Ð²ÐµÑĢ Ð·Ð¸
ei ra
her Ã«
zen i
zen ÃŃ
éĽ ¶
éĽ Ħ
åī §
åī ĩ
ë° ķ
ë° Ŀ
à¨¼ à©ĩ
ãĤī ãĤĮ
ÎºÎ± Î¹
cer ca
ìĤ ´
ÑĤÑĸ Ð»
ÑĤÑĸ Ð¿
áĥª áĥĺáĥĲ
ÑįÑĢ Ñħ
ä¸Ń å¤®
hl Ã¡s
hl Ã¼k
zo ek
àº¥ àº²àºį
Õ¡Õ¾ Õ¥Õ¬
×ķ×ľ ×ĵ
áĭµ áĪ¨
Pro to
Pro vin
ev ent
ev rop
zd ro
Ä¾ ko
Î¶ Î·
ìľ ¡
×Ļ×Ļ× ĵ
lik le
áĥĿáĥĳ áĥ¡
bes z
bes ar
bes Ã¸
æ² ³
àºį àº²
let a
Å£ a
Ø¸ Ø±
ç´ ¯
áĥ¤ áĥł
áĥ¤ áĥĺáĥļ
áĥ¤ áĥĶáĥ®
leg g
mÃ¼ s
tel jes
áĪ« áĪ±
áĪ« áĪ²
ÙĬØ± Ø©
kr on
é¡ §
é¡ ¯
é¡ ¾
é¡ į
áĥ¥ áĥĿáĥľ
adi en
Ð¼Ñĭ Ñģ
uni vers
ÐºÐ¾Ð½ ÐºÑĥÑĢ
ÐºÐ¾Ð½ ÐºÑĥÑĢÐµÐ½
hal t
mal ar
æ¯ İ
æ¯ Ĵ
æ¯ ķ
ë¡ ł
àª¶ àª°
ãģĬ å®¢
ÙħÙĨ Ø·
ÒĽÐ° Ð¹
sÃ¤ ker
Õ¬ ÖĢ
à¸ľ à¸¡
chi o
yt tÃ¤Ã¤
Ñĳ ÑĤ
Ñĳ Ð»
åĭ ¢
åĭ Ŀ
åĭ Ł
æµ ´
ÑĦÐ¸ Ð»
ÑĦÐ¸ Ñı
ãĤ¹ ãĥĨ
ÏĦÎ¿ ÏĤ
ÏĦÎ¿ Ïį
Ø§ØŃ Ø¯
ÑīÐµ Ð³Ð¾
à¸ĸ à¸²à¸¡
stan ce
à¨Ĩ à¨ª
ÑĩÑĭ ÑĨÑĮ
wo h
wo or
à°¶ à°ķ
ãģĤ ãģ£ãģŁ
ãģĤ ãģªãģŁ
áĪĽ áīµ
lich en
lÃ¤ gg
zn an
zn Ã¡
ÕŃ Õ¶Õ¤
ÕŃ Õ´Õ¢
áĢĨ áĢĶ
à¬Ĺ à¬°
âĢ ĵ
èª ²
èª ķ
car at
car re
ç« ¥
ç« ł
ÙħØ± Ú©
ÙħÛĮ ÙĦ
ÙħÛĮ Øª
ÙĬØ¯ Ùī
ÙģØ± ÙĨØ³
tri b
zu ri
à´§ à´¨
ÏĦÎ¹Îº Î¿Ïį
Ã¸r n
é¢ ĳ
è² ¨
èģ ļ
à´ŀ à´Ļ
ãģĳ ãģªãģĦ
vil up
vil Ã¡g
ë³ Ģ
Õ¥Õ¶ Õ©
å¤ļ å¹´
tro m
tro Å¡
ire adh
Ð¤ Ð¸
ëł ĩ
Ð¾Ð´ Ð»Ñĥ
à¦Ĩ à¦°
fic ation
ÛĪ Ùħ
ÛĪ Ùĥ
åł Ĥ
eni i
ãģķ ãģ¾
à¬Ł à¬°
ÏģÎ¹ ÏĥÎ·
Ø¹ÙĦ ÙĬ
Ð¿ÑĢÐµÐ´ Ð»Ð°Ð³Ð°
Î£ Ïĩ
Î£ Î¤
éļ ª
éļ Ĭ
áĥ§ áĥĿáĥķ
à¬ľ à¬°
emb le
áī³ áĭĬ
áº¡ m
áº¡ ng
à¬¶ à¬¨
ras Ä±
ãģĵãģ¨ ãĤĴ
kel ig
æĽ ¾
æĽ ¿
ç¨ ³
ç¨ İ
áŀ¢ áŀı
áŀ¢ áŀĦ
Ð·Ð¾ ÑĢÐ¸
ÙĬÙĦ Ø©
ÑģÑĤÐ²Ð° ÑĢ
æĪĳ åĢĳ
IN I
çµ ķ
éł ģ
à¦§ à¦°
à¦§ à¦¨
áĪ° áĪĭ
áīĢ áĪĿ
ges et
æ± ½
æ± ł
ì¶ ©
×ķ×ĳ ×¢
ìĬ¤ íĥĢ
íķĺ ìĭľ
íķĺ ê³ł
ìĤ¬ ì§Ģ
ìĤ¬ ìļ©
dÉĻ yiÅŁ
Ä±l ma
×Ļ×ľ ×ķ
Ò¯Ð½ Ð´Ñį
Ò¯Ð½ Ð´Ó©
×ĳ×¨ ×Ķ
×ĳ×¨ ×Ļ×Ŀ
×ĳ×¨ ×Ļ×ª
fr um
eng ed
ÑģÑĬ Ð·Ð´Ð°
Ø§ÙĬ ÙĪ
Ø§ÙĬ ÙĬ
áĬĵ áīµ
å§ Ĳ
èĤ ¥
à¸¨ à¸£
à¬ĩ à¬¬
×ķ×¢ ×ľ
áº¿ m
fe je
fo y
fo ur
pt om
vr h
vat el
éĺ ³
éĺ ¶
à¬Ĩ à¬°
Ð¿Ð»Ð° Ð½Ð¸
áĥĿáĥł áĥĴáĥĲáĥľ
mit t
pal Ä«dz
Ã¾ ur
è© ²
èī º
Ð¿ÐµÑĢ ÑģÐ¾
áĭĪ áĪ°
áĭĪ áĮ£
à»ģ àºķ
à»ģ àºľ
ÑĦÐ¾ÑĢ Ð¼Ñĥ
åĲĪ ä½ľ
æĸ¹ æ³ķ
ìķĦ ê°Ģ
æı ´
æŀ Ĺ
à°§ à°¨
à²§ à²¨
áŀĴ áŀĺ
áĬŃ áīµ
áĬŃ áįį
bat t
kÃ¤ Ã¤n
kÃ¤ ytet
land o
land Ä±r
ìĽ Ģ
à´ĩ à´Ł
à´ĩ à´²
à´İ à´²
à´ľ à´¯
àºĦ àºŃàºĻ
Õ¡Õ£ Õ«ÖĢ
ÑģÑĤÑĥ Ð¿Ð¸
Ð¿Ð¾Ð´ Ð³Ð¾ÑĤÐ¾Ð²
Ð¿Ð¾Ð´ Ð³Ð¾ÑĤ
ÐĿÐ° Ñĺ
ÐĿÐ° ÑĢÐ¾Ð´
ÐĿÐ° ÑĨÐ¸Ð¾Ð½Ð°Ð»
ë¡ľ ê·¸
raz liÄį
ula ÅŁ
×Ķ×ŀ ×Ĺ
dal an
led e
led ning
å¦ ¹
å¦ ĩ
å» ł
á»ĩ m
cel a
dr Ã¡
fel tÃ©
Ð²Ñı ÑĤ
Ð²Ñı Ð²Ð°
iza Ã§Ã£o
áĮł áīĥ
èĪ Ĵ
èĪ ŀ
à¸ĺ à¸²à¸Ļ
à®İ à®Ł
à®İ à®²
à®İ à®Ļ
ãĤı ãĤĬ
à¸Ńà¸¢ à¸²à¸ģ
pun e
yar at
ÐŃ Ð½
ÐŃ ÑĢ
à´Ĩ à´ķ
à´Ĩ à´¯
à´Ĩ à´¦
ÑģÐ¿Ðµ Ðº
ÑģÐ¿Ðµ ÑĨÑĸ
àº¸ à»Ī
àº¸ à»ī
×Ļ×© ×¢
Ð»Ð°ÑĢ Ð´ÑĭÒ£
mag as
ãģĹãģ¦ ãģĦãĤĭ
det al
ëŀ ¨
à¦ħ à¦°
àºĬ àº²àºĶ
áº£ m
hy Ã¶
jÃ¤ m
zÃ¡ kaz
æ´ Ĺ
è· ¨
Ø§Ø³Øª Ø§ÙĨ
Ð³Ð»Ð° Ð²
Ð³Ð»Ð° ÑģÐ¸
Ø§ÙĦØŃ Ø±
æĪĲ ä¸º
vÃ© d
vÃ© del
vÃ© tel
Îľ Î±
ÕĢ Õ¡ÖĢ
é£ Ľ
áīħ áĭµ
áºŃ y
med lem
nÃ¤ m
àªħ àª§
×ķ×ŀ ×Ķ
Î»Î± Î¼Î²
à¶ĳ à¶º
à¨ħ à¨¨
kov a
yk sen
yk ite
ÅĦ sk
æ· ·
Õ¥Õ¿ ÖĢ
ä»¥ ä¸Ĭ
ä»¥ ä¸ĭ
×¤×¨ ×¡
ES T
dra mat
hen da
war to
war zy
çĦ ¦
à¸© à¸²
à²Ń à²µ
à®ī à®¤
à®ī à®Ł
à®ī à®±
hab it
hab ita
æ¶ ī
Õ¡Õ° Õ¡Õ¿
Õ¡Õ° Õ´Õ¡Õ¶
×ķ×Ĳ ×¨
fu er
àª¥ àª¯
à¬§ à¬°
Ð·Ñĭ Ð»
Ð·Ñĭ Ð²Ð°ÐµÑĤ
ÐļÐ¾ Ð¼Ð¸
fan ya
æį ·
æį Ł
áĥ« áĥĺ
áĥ« áĥĲáĥļ
ãĤ¢ ãĤ¤
ä¸ª äºº
Äįn Ã½
ÑģÐ°Ð½ Ðº
has il
ÎŁ Î£
Õ¦ Õ«Õ¶
Õ¦ Õ¢
ÕĦ Õ«
ÕĦ Õ¡Õ¶
çı į
à°Ĩ à°§
ÙħØŃ Ø§ÙģØ¸
áĥĶáĥķ áĥ¡
Ã§Ä± x
Qu al
æħ ¢
àºĤ àºŃàºĩ
Ø§ÙĦÙĤ Ø±
áĥĶáĥĽ áĥĲ
ÑĦÐµ Ð´ÐµÑĢÐ°
è¿Ļ ä¸ª
è¿Ļ æł·
å¥½ ãģį
200 1
200 3
200 4
200 6
pom emb
sv ak
sv Äĵt
ses s
æĤ ª
à²ĩ à²¤
ãģĿ ãģĵ
ä¸» ä¹ī
á»ĳ t
åıĳ å¸ĥ
æĦı åĳ³
Kom mun
cap a
lad da
set zung
tele f
íĺ ģ
resp ond
Ã¡z at
ÙĬÙħ Ø©
×Ļ×ĳ ×Ķ
Ma x
dÃ¼ ny
kun st
pÃ«r dor
æĵ Ķ
æĵ ļ
Ø±Ùī Ø´
Ø§Ø¶ ÙĬ
Ãģ S
Ãĸ ÄŁ
ÚĪ ÛĮ
åĿ ĩ
ç¥ Ŀ
èĭ ¦
èĭ ı
ÑĤÑı Ð±ÑĢ
àµ¼ à´¨
àºĪ àº°
vir tu
bur u
àº® àºĩ
ova Å¥
áº¥ p
áĥĽáĥĿáĥ ĵ
áĥĽáĥĿáĥ ķ
ÎŃÏģ Ïī
éĥ¨ éĹ¨
kil Ã¶
æ¡ Į
æŁ »
Ð²ÐµÐ½ ÑĮ
áĥĲáĥ¢ áĥĺ
Ø§ÙĦØ¬ Ùĩ
æ® ĸ
ç¼ ĵ
ç¼ ĸ
çł ģ
ë¹ ł
áĢĺ áĢļ
à²Ĩ à²¦
à²Ĩ à²¸
ÑģÐ²Ð¾ Ð±Ð¾
ÑģÐ²Ð¾ ÑĹ
ÑģÐ²Ð¾ ÑĶ
Î¹Ïĥ Îµ
×ŀ×© ×¤
ÅĤo ÅĽci
ÅĤo ÅĽÄĩ
minist er
minist eri
ìłľ ê³µ
æĹ¶ ä»£
ëĤĺ íĥĢ
à¸Ħà¸§à¸²à¸¡ à¸£
à¸Ħà¸§à¸²à¸¡ à¸ª
dre j
çĹ Ľ
ì¹ ¨
ì¹ ľ
ÉĻs sis
EL A
íĥ ľ
ãģ¡ ãĤĥ
stru c
oma ali
ÑĺÑĥ ÑĽÐ¸
oo f
åĥ į
ç² ī
é» ĳ
é» ĺ
à´ī à´¦
à°ĩ à°ª
à°ĩ à°¦
à°İ à°ķ
à°İ à°µà°°
rez ultat
Õ¡Õ¤ Õ¡ÖĢÕ±
ÑĤÐµÐ»ÑĮ ÑģÑĤÐ²
ÑĤÐµÐ»ÑĮ ÑģÑĤÐ²Ð¾
Ó©Ð³ Ò¯
Ó©Ð³ Ó©Ó©
ê·¸ ëŀĺ
rÃ¡ Ã°
ç· Ĭ
ç· Ĵ
è« ĩ
éľ ĩ
ÑĢÐµÐ½ Ð½Ñı
ÑĤÒ¯ Ð·
à®Ĩ à®ķ
à®Ĩ à®£
ãģ© ãģ®
ÙħØ´ Øª
Õ¡Õ¦ Õ£
Ø³Ùī Ùħ
Ð¿Ð¾Ð» Ð½Ð¾
Å¡a va
à»Ĥ àºĶ
à»Ĥ àºŃ
à»Ĥ àº¥
à»Ĥ àºĦ
åĲĮ æĻĤ
cti e
cti ve
Ù¼ Ø±
Ú» ÙĬ
è± ª
áĥ¯ áĥĲáĥľ
áĥ¯ áĥĶáĥł
à¦ı à¦¨
àªı àªķ
ÎµÎº ÏģÎ¹
×Ķ×Ĳ ×Ĺ×¨
parti cip
è» ½
è» Ł
áĪª áĬ«
×ķ×Ĺ ×ķ×ª
Ø§Ø· Ø±
spe cial
ëĵ¤ ìĿ´
ëĵ¤ ìĿĢ
uy gul
éĮ ¢
éĮ ²
ëŁ °
ëŁ ½
à°ī à°¤
à¶Ĩ à¶º
poz or
sab ab
Òļ Ð°
èĦ ±
èĦ ĳ
éĵ ¾
éĵ ģ
Su om
kir in
kir joit
tis adi
vÄĵ rt
íı °
cid ade
ÏĢÎµÏģ Î¹Î¿
à¸«à¸¥ à¸²à¸¢
à¹ĥà¸« à¸į
Ph il
ij n
mÃ¶ glich
och ran
Æı R
çģ £
Ð¾Ðº ÑĢÐµ
Ð¾Ðº ÑĢÑĥ
áŀķ áŀĽ
áŁī áŁģ
×Ļ×¡ ×ĺ
ked Ã©s
kos met
ned en
sm Ã¥l
Õª Õ¸Õ²Õ¸Õ¾
èį £
èĳ ¡
èĳ £
èĳ ī
éº Ĺ
ÑģÑĤÑĸ Ðº
ÑģÑĤÑĭ ÑĢ
ãĤ· ãĥ£
áº¯ m
pred stav
æīĢ æľī
ä¿¡ æģ¯
ìľ¼ ë©°
mek an
yap tÄ±
íļ į
×ķ×Ĵ ×Ļ
fen n
hÉĻ m
çĭ Ģ
à¤°à¤® à¤£
×ķ×Ľ ×ľ
sid ade
ãĥĹ ãĥ¬
Ð´Ð¾Ð» Ð¶
ãģĦãģŁ ãģłãģĳ
Ð¿Ð°ÑĢ ÑĤÐ¸
Î´Î· Î»
gÃ¶r Ã¼l
gÃ¶r Ã¼n
gÃ¶r dÃ¼
tas ar
uv chi
à¬ī à¬¤
rod nÃŃ
ãĥ¬ ãĤ¹
à¸¢à¸§ à¸ģ
eff ici
å© ¦
Ð´Ñį Ð²
ÑıÑĤ Ð½Ð¾
ãĤ¿ ãĤ¤
irt schaft
ÒĽÒ± ÒĽÑĭ
ä»£ è¡¨
àºĽàº° àºģ
àºĽàº° àºķ
dok um
ves el
áĥĲáĥĸ áĥł
ãĥķ ãĤ£
inte gra
unda y
Î±ÏĢ ÏĮ
ÏģÏī ÏĢÎ±
Ð½Ð¾Ð²Ð¸ ÑĽ
à´ķà´° à´£
ÐºÐ¾Ð» ÐºÑĥ
à¶ºà¶± à·Ģ
Ú¯Ø± Ø§ÙĨ
áĥŀáĥł áĥĿ
áĥŀáĥł áĥĿáĥĴ
CI Ãĵ
å² ¸
è¬ Ŀ
inde pend
Å¡an Äģs
ÏħÏĢ ÏĮ
ÏħÏĢ Î·ÏģÎµ
ÑĨÐ¸Ð¾Ð½ Ð½Ð¾
199 9
ì¶ľìŀ¥ ìķĪë§Ī
kla us
kla usi
oper a
Õ³ Õ¡Õ¶
áĭĺ áĮĭ
ÎºÎµ ÏĨ
ãģ®ãģ§ ãģ¯
åĨħ å®¹
fÃ¸ re
mie js
vÃ¡l lal
vÃ¡l aszt
çį İ
á»¥ ng
åıĹ ãģĳ
ØµÙĦ Ø§ØŃ
ÐłÐ° Ð·
spo ÅĤ
Ñľ Ðµ
èĹ ı
èĹ Ŀ
ëĲ ľ
Ð³ÑĢÐ¾ Ð¼Ð°Ð´
ãĤ¸ ãĥ£
×Ļ×¤ ×Ķ
tech nolog
zio a
Õ¯Õ¡ÖĢ Õ®
Î¸Îµ Ïī
AS A
jÄĻ cia
ÙħÙī Ø²
Ð¿Ð¾ÑĤÑĢÐµ Ð±Ñĥ
Ø·ÙĦ Ø¨
Val ent
sÃ¼ re
àªĩ àª¨
áĥĲáĥĻ áĥĶáĥĹ
×Ķ×Ĺ ×ľ×ĺ
à¸Ńà¸² à¸«à¸²à¸£
ick Ã½
Ð´ÐµÐ¹ ÑģÑĤÐ²Ð¸Ðµ
ÏĩÏģ Î®
æķ° æį®
regist r
åŁº ç¡Ģ
ç¬¬ ä¸Ģ
ç¬¬ äºĮ
biz tos
fam il
å¡ ĳ
çĮ ®
è¸ ı
à´Ĵ à´¨
à®ľ à®©
à¬« à¬³
stell en
stell ung
esp ec
posl ov
apro ve
Euro p
oy un
Äı al
àªī àª¤
ÑĥÑĤ Ð²ÐµÑĢ
ÑĥÑĩ ÐµÐ½Ð¸
ãĤµ ãĥ¼ãĥ
ãģĹãģ¾ ãģĨ
Õ°Õ¡Õµ Õ¿Õ¡ÖĢ
è¿ĳ å¹³
à¸Ľà¸£ à¸ª
áĥĹáĥĲáĥķ áĥĺáĥ¡áĥ£áĥ¤
nÃ¶ k
uÄį in
æ¤ į
à²ī à²ª
Ð¿Ñĭ ÑĤÐ°
ØªØ¬ Ø±Ø¨
áĭļ áĭ«
Ð¿Ð¾Ð¼Ð¾ Ñī
Õ«Õ¯ Õ¡Õ¶
spra w
ãģĹãĤ ĥ
volu tion
ÕºÕ¡Õ¿ Õ´
ÕºÕ¡Õ¿ Õ¡Õ½ÕŃÕ¡Õ¶
funk tion
aur re
mili on
zap ew
à¶Ķ à·Ģ
à¶Ķ à¶º
dez vol
contr ol
uku um
comun ic
comun ica
ë¬¸ ìłľ
fig yel
zad ovol
èĽ ĭ
à¸Ĳ à¸²à¸Ļ
Ð¿ÑĢÑĭ ÐµÐ¼
diff ic
ÏĥÏį Î½
vie Å¡
íķĻ êµĲ
ç§ĳ åŃ¦
ç§ĳ æĬĢ
ëį° ìĿ´
áģ¾áĢĢ áĢĬ
fj Ã¡r
fj Ã¶l
hov ed
ksi ÄħÅ¼
íĿ ¬
alim enta
Ð³ÑĢÑĥ Ð¿
poÄį et
imm t
conse qu
conse cu
Ã¸n n
ÛģÙĪ Ú¯
Î¹ÎºÎ¿ Î¹Î½ÏīÎ½
å½± éŁ¿
æĬ¥ éģĵ
åĮĹ äº¬
Ð¿ÑĢÐµÐ´ÑģÑĤÐ°Ð² Ð»Ñı
å§ĭ ãĤģ
jam s
rÉĻ h
Õ§ Õ»
çĴ °
ì¼ ĢìĿ´
Ð¿Ð¾Ð²Ñĸ Ð´Ð¾Ð¼
apli ca
bez pie
×Ľ×ł ×Ļ×¡
ãģ¨æĢĿ ãģ£ãģ¦
Ð¸Ð½ÑĤÐµ Ð³ÑĢÐ°
hum an
ÑģÐ¿Ñĸ Ð»ÑĮ
Ð½Ð°Ð² ÑĩÐ°
ÐºÐ¾ÑĤÐ¾ ÑĢÑĭ
ÑİÑīÐ¸ Ðµ
à¤¶à¤ķ à¤¤
Ô±ÖĢ Õ¿
åı¯èĥ½ æĢ§
dop l
éŃ Ķ
elec tr
dire kt
dire ct
edu c
edu ca
ãĥĩ ãĤ£
labor atori
nah me
spec jal
áŀļáŀĶ áŀŁ
Õ°ÖĢ Õ¤
Õ¾Õ¥ÖĢ Õ»
Ú¾Ûķ Ùħ
Ð¼ÐµÐ½ÑĤÐ° ÑĢÐ¸
aÃ§Ä± q
ece ÄŁ
hÃ¸ y
kval it
mno Å¾
rÃ« nd
Ú³ Ø§ÙĦÙĩ
åª ½
Ð¾Ð¿ÑĢÐµ Ð´ÐµÐ»
Ã¡b bi
Ã¡b Ã³l
Ä±lÄ± b
ÑħÒ¯ Ñģ
ÑħÒ¯ Ð¼Ò¯Ò¯
ÏĥÏī ÏĢ
ÙīÙĬ Ûķ
á»ı i
à´ªà´± à´ŀ
perf ec
ÐľÑĸ Ð½Ñĸ
ÐľÑĸ Ð¶Ð½Ð°ÑĢÐ¾Ð´
àº°àºĻ àº²
Au str
band ing
lÄ« dz
mÅ± kÃ¶
zh vil
Ð´Ð²Ð¸ Ð¶Ð¸
ÑĥÑĩÐµ Ð±
ÑĸÐ¼ Ð´Ñĸ
siy as
ÏĥÎº ÎµÏħ
ÑĢÐµÐ· ÑĥÐ»
maj or
á»« a
á»¯ a
åħ· ä½ĵ
Ð¾Ð±ÑĬ ÐµÐº
ÑĢÐ°Ð±Ð¾ÑĤ ÐºÐ°
mÃ¤r k
zab ez
Î§ ÏģÎ¹ÏĥÏĦ
ÏĬ ÎºÎ®
Ô¹ Õ¸ÖĤÖĢ
ë¨ ¹
ë¨ ¼
ÑģÐ½ Ñİ
stad t
Ð¼ÓĻ ÑģÐµÐ»Ðµ
atti ec
ÑģÑĤÐ¾ÑĢ ÑĸÐ½
àŃ¦ àŃ¦
à´¨à´Ł à´¤
Î»ÎµÎ¹ ÏĦÎ¿ÏħÏģÎ³
Ð¼Ð°Ðº ÑģÐ¸
obo wiÄħz
Ð³Ð¾Ð»Ðµ Ð¼Ð¸
ÐļÐ¾Ð½ ÑģÑĤÐ¸ÑĤÑĥ
hoz zÃ¡
ÐłÑĥ ÑģÐ¸
à¹ģà¸Ļ à¸§
áĥĹáĥĲáĥľ áĥĲáĥĽ
prak ti
áĬłáĪµ áī°
bÃ» n
tÉĻr ÉĻf
éį µ
arch it
administ ra
á»Ĺ i
ä¹¦ è®°
ÐķÐ²ÑĢÐ¾ Ð¿
à¹Ĥà¸£ à¸ĩ
à¹Ĥà¸£ à¸Ħ
Hel sing
bÃ© nÃ©
cele bra
pÃª ÅŁ
pose b
Î¼Î¹ Î¿ÏħÏģÎ³
×Ĳ×¤ ×©×¨
Õ´Õ¡Õ½Õ¶ Õ¡Õ¯Öģ
åıĤ åĬł
áĥķáĥľ áĥĶáĥļ
Ø¦ÛĨ Ø²
Ð¿ÑĢÐ¾ÑĦÐµ ÑģÑģÐ¸
pied ÄģvÄģ
áĥ¨áĥĶáĥ¡ áĥĲáĥ«
strat eg
ever y
fut bol
mant en
sod el
yÃ¶n et
Å© ng
Ð°Ð¶Ð¸Ð» Ð»Ð°Ð³Ð°
à¸¤ à¸©
áĥĲáĥŀ áĥĺáĥł
áī¤ áī°
á»£ i
ÑİÑīÐµ Ð¹
ÑĦÐ¾ ÑĤÐ¾
kiÅŁ af
áĥľáĥĺáĥ¨ áĥľ
åŃĺ åľ¨
Ð±ÐµÐ» Ð³Ð¸
æĻ® éĢļ
lÉĻÅŁ dir
Dem ok
gÅĤ Ã³w
kÃ¶n ny
pÅ¯ sob
Ä© nh
ÐĬ Ðķ
íľ ´
reik al
áĥĶáĥĸ áĥĺáĥĵ
á»Ł i
ÙĥÛĨ Ø±
szab Ã¡ly
czÄĻ ÅĽci
Õ¾Õ¡ÖĢ Õ¹
Õ½Õ¯ Õ½
áĥĻáĥĿáĥĽ áĥŀ
áĭ°áĪ¨ áĮĪ
kÃ©sz ÃŃt
ÑĤÐµÑħÐ½Ð¾ Ð»Ð¾Ð³Ð¸
Evro p
ucz est
ÐµÑĪ ÑĮ
stÃ¶ Ã°
elÃ¤ mÃ¤
empi on
áĥĺáĥ¬ áĥ§
Ð¿Ð¾Ð»Ñĸ ÑĤÐ¸
Ð¿Ð¾Ð¿Ñĥ Ð»ÑıÑĢ
á»ī nh
Ð·Ð°ÐºÐ¾Ð½Ð¾ Ð´Ð°
signi fic
ÐºÓ©ÑĢÑģÐµ ÑĤ
eval u
ark ada
Ã¶ÄŁ ren
Õ´Õ¡ÖĢ Õ¦
ÑĩÐ°Ð¹ Ð½Ð¾
Ð¿ÑĢÐµÐ´Ð¸ Ð·Ð²Ð¸
Ð¿ÑĢÐ¸Ð¹ Ð½Ñı
à¹ģà¸ļ à¸ļ
à¹Ħà¸¥ à¸Ļ
Ð¾ÑĤÑĢÐ¸ Ð¼Ð°
ÑģÑĤÑĢÐ°ÑĤÐµ Ð³Ð¸
è¾¼ ãģ¿
TÃ¼r ki
fej leszt
pÄĵ c
semb le
wszy st
ë® ¤
à¸Ĵ à¸Ļà¸²
alter nat
ÙĪØ§ÙĤ Ø¹
ÎµÏĨ Î±Ïģ
impor tan
à¸Ńà¸° à¹Ħà¸£
acom pan
Ã¸m me
áĥķáĥĺáĥĹ áĥĲáĥł
Õ¯Õ¡Õ¼ Õ¡Õ¾Õ¡ÖĢ
áĥĵáĥĴ áĥĿáĥĽ
áĥŀáĥĿáĥļ áĥĺáĥ¢
ÖĥÕ¸ ÖĥÕ¸ÕŃ
fanta st
à´īà´ª à´¯
Administ ra
It ali
evi den
jegy zÃ©s
kÄģr t
myn dig
zg jedh
Ð¾ÑģÑĥÑīÐµÑģÑĤÐ² Ð»Ñı
still ing
áĬ¦ áĪ®
à¹Ģà¸¨ à¸©
oport un
ndry sh
áĥĲáĥłáĥ© áĥĶáĥķ
ÖĦÕ¶Õ¶ Õ¡ÖĢÕ¯
Eur Ã³
gond ol
vv ÉĻl
vÉĻt ÉĻn
ëī ´
ìĵ °
ìŁ ģ
ÐºÓĻÑģÑĸ Ð¿
ÖĢÕ¸ Õº
Ð´ÐµÐ¼Ð¾ ÐºÑĢÐ°
à¸ªà¸ĸ à¸²à¸Ļ
endele a
suunn itel
áįĵ áĪŃ
Ð¿ÑĢÐµÐ·ÐµÐ½ ÑĤÐ°
Ð¿ÑĢÐ°Ð´ ÑģÑĤÐ°Ñŀ
à¤Ĩà¤ª à¤²
áĥ¡áĥĲáĥ¨ áĥ£áĥĲáĥļ
àºŀàº§àºģ à»Ģàº®
deter min
Õ¸Õ¬Õ¸ÖĢ Õ¿
Fed era
Naz ir
nÃ¡s led
tza ile
wik kel
ÑįÑĦ ÑĦÐµÐº
Î»ÎµÎº ÏĦÏģÎ¿
Î±Î½Î¸ ÏģÏİ
intro du
Ð´Ð·ÑıÑĢ Ð¶Ð°
Õ¬Õ¸ÖĤ Õ®
palvel u
àºĦàº§ àº²àº¡
Û²Û° Û±
Ð·Ð°Ð²Ð¸ÑģÐ¸ Ð¼Ð¾
ÏĩÏģÎ·ÏĥÎ¹Î¼Î¿ ÏĢÎ¿Î¹
stjÃ³r n
nepie cieÅ¡
Õ¿Õ¥Õ´ Õ¢Õ¥ÖĢÕ«
ÐĳÐ»Ð° Ð³Ð¾
jednod uch
à¹Ģà¸«à¸¡à¸² à¸°
wnÄĻ trz
Ð¿ÑĸÐ´Ð¿ÑĢÐ¸ÑĶ Ð¼
fÉĻali yyÉĻt
mÃ¼n asi
Ð¶Ò¯Ð¹ Ðµ
áĥĽáĥľáĥĺáĥ¨ áĥķáĥľáĥĶáĥļ
opport un
ÕŃÕ¶Õ¤ Õ«ÖĢ
Õ°Õ¡ÕµÕ¿Õ¡ÖĢ Õ¡ÖĢ
% )
) ,
. [
3 00
5 1
5 3
6 1
9 7
: -
A Z
A li
A po
A ur
A pr
A ug
A pp
A ust
A part
A rab
B T
B on
B Ã¶
B ek
B us
B ot
B og
B ru
B lu
B ere
B ai
B ill
B ei
B ER
B rat
B ash
B ild
B uda
C M
C ra
C le
C os
C ha
C ry
C ong
D P
D U
D r
D in
D et
D ob
D ha
D ah
D ei
D ev
D ez
D EN
D ES
D iv
D aar
E A
E X
E i
E w
E sk
E vent
F F
F y
F ra
F Ã©
F Ã¼
F le
F ig
F ry
F und
F inn
F ace
F lor
G N
G un
G Ã¶
G ir
G ud
G ran
G all
G ÉĻn
G uar
G ew
G rup
H in
H it
H is
H Ã¡
H as
H Ã¤
H ÉĻ
H os
H ung
H Ã¥
H au
H all
H ub
H ier
H och
H lav
I R
I st
I ma
I ON
I DA
J i
J Ã³
J ust
K re
K ra
K ed
K od
K ec
K ran
K Ãµ
K ry
K AN
K AT
K ore
K rist
K OM
K UL
L D
L as
L ak
L ap
L ot
L ah
L aj
L Ä°
L IN
L iv
M T
M ol
M am
M ur
M ap
M Äģ
M ic
M ia
M Ã¸
M Ã¥
M ana
M ex
M au
M az
M uni
M ast
M use
M UN
N u
N in
N em
N ek
N ej
N ord
N ep
N AT
N OS
N dÃ«r
O W
O g
O t
O ro
O ne
O ly
O nt
O stat
O lim
O rt
P K
P V
P ent
P ed
P ek
P ov
P ic
P end
P Äĵ
P res
P ran
P Ãµ
P sy
P ow
P ort
P ris
P lay
P UB
R K
R U
R en
R um
R Ãª
R ez
R ich
R esta
S P
S R
S ol
S ci
S ent
S ist
S ko
S uk
S Ãº
S hi
S ÉĻr
S tra
S av
S ty
S eh
S tri
S har
S ON
T es
T Ã©
T ol
T ov
T od
T ic
T id
T ha
T all
T ry
T Ä°
T her
U p
U z
U ng
V y
V an
V in
V ak
V ic
V Ãµ
V ere
V Ãģ
W W
W in
W at
W il
W ik
W ei
W hat
W ord
W asa
W ax
Y Ã¶n
Y Ä±l
Z E
Z a
a q
a el
a it
a ja
a hi
a ho
a ju
a fi
a ine
a ika
a conte
b st
b ati
b Ã¸
b ant
b Ãª
b Ã¥
b Ã®
b ara
b yn
b ben
b art
b red
b Ã¦r
b ako
b ulu
b iga
b lag
b oven
b ÄĻd
b Ã¡si
c w
c to
c ok
c lo
c iti
c ade
c ement
c ito
c tiv
c rat
c sal
c ÃŃa
c enta
c Å£i
c ÈĽi
c ando
c jÄĻ
d n
d ut
d us
d de
d Å¾
d Äģ
d Ã«
d ve
d za
d ala
d oni
d iter
d oga
d nev
e es
e zi
e ben
e dir
f h
f ro
f om
f ek
f ia
f for
f Ãª
f he
f ten
f ay
f ind
f ini
f era
f ai
f eli
f Ä±r
f lan
f ug
f rÃ©
f ika
f isk
f oc
f usi
f rat
f ont
f Ã³l
f emin
g Ã¤
g ak
g ig
g and
g ok
g Äħ
g we
g Å³
g ado
g get
g oto
g wr
g Ã¦l
g ege
g ober
h k
h ut
h je
h ia
h ok
h Ã½
h kan
h ele
h ran
h ori
h asi
h Ã´
h ÉĻt
h enti
h eng
h vor
h Ã¥r
h ÃŃv
h igh
h Ã©t
h esh
i or
i Ãº
i bil
i cht
i ye
i Ã±
i ÅĨ
i udi
j l
j Ã©
j ent
j eg
j Ã³n
j eri
j ali
j eli
j ala
j ord
j uni
j ami
j ego
j ako
j uta
j ima
j amo
j Ã¡bÃ³l
k st
k na
k je
k va
k ve
k to
k ko
k uk
k and
k Ã¦
k ki
k hi
k ÄĻ
k ana
k ele
k ali
k all
k ori
k var
k inn
k Ã¼r
k emb
k dy
k ino
k nj
k larÄ±
k rom
k Ã½ch
k Ã¼m
k ush
k ÃŃv
k now
l v
l ch
l ati
l ÄĹ
l ada
l Ã£
l Ã¨
l yn
l adi
l Ã¦r
l ong
l aka
l ela
l Ã¼k
l Äĵt
l jud
m d
m um
m ha
m ung
m ele
m are
m eri
m ere
m ara
m Ã¡s
m Å³
m Ã¨
m Ã¦r
m ort
m oto
m ÃŃst
m Ä±zÄ±
n ti
n Ä±
n Äĥ
n ÄĻ
n Ã®
n ara
n Äįi
n isk
n eder
n Äģk
n jerÃ«
o ol
o Å¾
o je
o ko
o wi
o ine
o ire
o fic
o ike
p ist
p ud
p per
p Ãł
p ita
p ala
p lik
p Ã©n
p ino
p unt
p Ã©l
p Äĵt
p ÅĤat
q li
q ori
q sÉĻ
q ever
r ra
r ud
r Ã¸
r Ã½
r Ãµ
r isi
r zu
r ÃŃa
r ont
r Ã½ch
s ni
s ne
s ot
s pro
s ver
s ana
s are
s ada
s mer
s und
s Ã¶n
s Ã¼n
s ÃŃt
s esi
s ann
s ekt
s sig
s Ä±nda
s lim
s jÃ¤l
s vilup
t x
t si
t la
t ka
t je
t ve
t and
t Ãº
t vo
t Ã¦
t ki
t Äĵ
t ÄĹ
t ten
t ell
t Ã³n
t res
t ina
t Ã©s
t var
t Ã©r
t Ã¶n
t ama
t ÃŃt
t isk
t Ã¸r
t jet
t ons
t araf
u ja
u vo
u jo
u che
u stan
u oj
u Å¼y
u ose
u uden
u Äĩe
u gyan
v d
v om
v Ã¼
v le
v la
v Äį
v ap
v ati
v pra
v Ã©s
v ado
v nÃŃ
v ÃŃt
v ler
v Ã¡g
v hod
v sak
v klju
v Ã¢r
w h
w w
w ra
w and
w Ãª
w asi
w ill
w Ã¼r
w ska
w atan
w onder
w under
w irk
w eten
w irtschaft
x x
x el
x it
x ÉĻ
x ana
x ÉĻr
x ico
x ÉĻbÉĻr
y em
y ur
y im
y se
y ari
y Ãªn
y ys
z is
z ra
z Ä±
z le
z te
z um
z uk
z Ãª
z ari
z ada
z era
z uz
z gj
z eti
z onder
z aba
z ania
z wiÄħz
§ áĥĶáĥľ
¨ ìĸ´
© áĥľ
¯ áĥĲáĥ®
Â ·
Ã ĳ
Ä ®
Ä Ĩ
Î ŀ
Ð ģ
Ð ĭ
Ñ ķ
Ô º
Õ ĸ
Ö ¹
× ģ
Ù ¡
Ù ł
Ú į
â ĭ
â Ł
ë ±
ë µ
ë ĩ
ë Ĵ
ë Ĺ
ì ¾
í į
ï ħ
ï Ļ
Ð° Ð¿Ð°
Ð° Ð»Ñĥ
Ð° ÑĨÐ¸Ñı
Ð° Ð»Ð°ÑĢ
à¸ ¬
à´ Ĳ
à´ Ľ
Ð¾ Ð´Ð°
Ð¾ ÑĤÐ¾
Ð¾ Ð½Ðµ
Ð¾ Ð²Ðµ
Ð¾ ÑĪÐ¸
Ð¾ ÑģÑĤÐ°Ð²
Ð¾ Ð¿Ð»Ð°
Ð¾ ÒĽÑĭ
Ð¾ ÑĦÑĸ
Ð¾ ÑħÑĢÐ°
Ð½ Ð´Ðµ
Ð½ Ó©Ñħ
Ðµ Ð²Ð°
Ðµ Ð¿Ð¸
Ðµ Ð¼Ñĭ
Ð¸ Ñĩ
Ð¸ Ñħ
Ð¸ Ð½Ð¾
Ð¸ ÐºÐ°
Ð¸ Ñİ
Ð¸ ÑģÐ°
Ð¸ Ð¼Ð¸
Ð¸ ÑĩÐµÑģÐºÐ¸
Ð¸ ÐºÐ¾Ð½Ð¾Ð¼Ð¸
à° Ĳ
ÑĢ ÐºÑĥ
ÑĤ ÑĤÑĭ
ÑĤ ÑįÑį
ÑĤ ÑįÐ½
ÑĤ Ð½Ð¸Ðº
ÑĤ Ð³Ñį
áĢ Į
à² Ľ
à® ĥ
à® Ī
à® Ĳ
en y
en z
en di
en em
en ha
en ze
en go
en sin
en sÃ¤
en gel
en vir
en contra
Ñģ ÑĢ
Ñģ ÑĢÐ°
Ñģ Ð½Ðµ
Ñģ Ð½Ñĭ
Ñģ ÑĩÐ¸
Ñģ Ð»Ñı
Ñģ Ð¿Ñĥ
Ñģ ÓĻ
Ñģ ÑįÑĢ
Ñģ ÑħÐ¾Ð´
Ñģ Ð¿ÑĢÐ°Ð²
Ñģ Ð¼ÐµÑĤ
Ñģ Ó©ÑĤ
Ñģ Ð³Ð°Ð»
Ñģ ÑįÑĤÐ³
er w
er z
er er
er ar
er re
er ak
er le
er de
er ÃŃa
er fol
er ende
er far
er inta
Ø§ Ø§
Ø§ ÙĪÙĨ
Ø§ ÙĬØ©
Ø§ ÙĪÙħ
Ø§ ÙĪÛĮ
Ø§ Ûĭ
Ø§ Ú¯Ø±
an c
an u
an at
an on
an ci
an ak
an um
an Ã«
an no
an sa
an co
an lam
an vend
an vÃ¤n
Ð» Ð½Ð°
Ð» ÑĤÐ°
Ð» Ð±Ð°
Ð» ÑįÑį
Ð» Ó©ÑĢ
Ð» Ð½Ð¸Ðº
Ð» ÑĤÐ°Ð½
à¶ ¨
à¶ ¬
à¶ Ĭ
à¶ Ŀ
Ð² ÐµÐ½Ð¸
Ð² ÑĩÐ¸
Ð² ÑįÐ»
Ð² Ð·Ðµ
Ð² Ð·Ñı
Ð² Ð½ÑĥÑĤ
Ð² Ð»Ð¸Ñı
àª ¢
àª ŀ
in at
in si
in ver
in do
in kan
in ser
in corpor
in kiÅŁaf
ãģ ŀ
Ðº Ð»
Ðº ÑĢÑĥ
Ðº Ð½Ñĸ
Ðº Ð½Ð¾Ð²
Ð´ ÑĢÐ¸
Ð´ ÐµÐ½Ð¸
Ð´ Ò¯Ð½
Ð´ Ð½Ð¸Ð¹
áŀ ±
áŀ ²
ar g
ar u
ar in
ar es
ar et
ar ro
ar ak
ar ja
ar ty
ar nya
ar rol
st el
st ek
st um
st ov
st Äĥ
st ari
st ere
st all
st adi
st Ä«t
st Ã¦Ã°
st ÄĻp
Ñĥ Ð½Ð°
Ñĥ Ð¿Ð¾
Ñĥ ÑĢÑĥ
Ñĥ ÐºÑĥ
Ñĥ Ð½Ñĸ
Ñĥ Ð»Ñĭ
Ñĥ Ð·Ð½Ð°
Ñĥ ÑħÐ°
Ñĥ ÑģÐ»Ñĥ
Ñĥ Ð»ÑĥÑĩ
Ñĥ ÑģÐ¿
Ñĥ Ð°ÒĽÑĭ
Ð¿ ÑĤ
Ð¿ Ð»Ðµ
Ð¿ ÑĢÑĥ
Ð¿ Ð»Ñĥ
Ð¿ Ð¸Ð½
Ð¿ Ð»ÐµÐ½
Ð¼ Ñį
Ð¼ Ð¿Ð¸
at z
at on
at is
at es
at Ã¡
at si
at sa
at to
at ok
at hu
at bal
at amente
at elj
al b
al di
al po
al ma
al ap
al Äĥ
al ny
al der
al ah
al th
al ama
al kot
on j
on as
on un
re x
re as
re Å¡
re zi
re iz
re qu
re ac
re for
re par
re so
re ven
re Äĳ
re cl
re tim
re sist
re siden
Ø± Ùĥ
Ø± Øº
Ø± Ø§Ø¹
Ø± Ø§ÙĤ
Ø± Ø³ÛĮ
Ø± Ø§Øº
Ø± ØŃÙĦ
Ø± Ù¾ÙĪØ±
ÙĦ Ø±
ÙĦ Ûģ
ÙĦ Ø§Øª
ÙĦ Ø§Ø¦
ÙĦ Ø§Ùģ
ÙĦ Ø§Ú©
ÙĦ Ø¯Ùī
ÙĦ Ø¯ÙĬ
ÙĦ Ú³
el in
el as
el mi
el sen
el ett
el Ã©g
or ar
or no
or qan
Ñĸ Ðº
Ñĸ Ð¹
Ð³ Ð²Ð°
Ð³ ÑĬ
Ð³ ÑįÐ½
ÙĨ Ø±
ÙĨ Ø§ÙĦ
ÙĨ Ø®
ÙĨ Øµ
it ti
it era
it has
it Ã¤t
it taa
Õ¡ ÖĥÕ¸ÕŃ
Ð· ÐºÐ¸
Ð· Ð¼Ðµ
Ð· Ð±Ð¾
Ð· Ð²Ñĸ
Ð· Ð²Ñĭ
Ð· Ò¯Ð¹
Ð· Ð±ÑĢÐ¾
Ùħ Ø§Ø¦
Ùħ Ø§ÙĤ
Ùħ ÙĬÙĨ
Ùħ Ø§Ø´
Ùħ ÙĪØ¯
Ùħ ØªÙĪ
Ùħ ÙĬÙĦ
Ùħ ØªØŃ
Ùħ ÙĩÙħ
Ùħ ÙĪÙĨØ¯
ÙĪ Ùī
ÙĪ Ø©
ÙĪ ØªØ±
ÙĪ Ø§Ø²
ÙĪ Ø¸
ÙĪ Ùº
ÙĪ ØŃØ¯
Ñĭ Ð¼ÑĭÐ·
Ð± ÑįÐ»
Ð± ÑĢÐ°Ð½
Ð± Ò¯Ð»
is c
is ÉĻ
is ko
is ant
is sÃ¤
is lam
is lav
is elt
es si
es ha
es so
es mu
es pres
Øª Ø§ÙĦ
Øª Ú©
Øª Ùĥ
Øª ÙĪÚ
Øª Ø§Ø¬
Øª Ø¤
et at
et as
et ek
et ud
et hol
et xe
et hau
ra is
ra am
ra se
ra sp
ra ud
ra sz
ra gi
ra man
ra cht
ra zione
ra gaz
ra Äįun
il ah
il adi
áĪ ¯
Ñı Ð¹
Ñı Ñŀ
Ñı Ð²Ñĸ
Ñı Ð²Ñĥ
Ñı Ð·Ñĭ
áĥĲ áĥĺ
Ã¡ ir
Ã¡ id
Ã¡ cs
Ã¡ tico
Ã¡ ciu
as p
as je
as ia
as Äĥ
as ure
as socia
ÛĮ Ø¬
ÛĮ Ø§Ø±
ÛĮ ØŃ
ch ol
ch ir
ch op
ch ÄĻ
ch au
ch olog
ch tig
ch vÃŃ
ch wil
ch ange
ch ilar
ÙĬ Ø³Øª
ÙĬ ÙħØ§ÙĨ
ÙĬ ÛķØª
ÑģÑĤ ÑĬÑĢ
ãĤ ²
ãĤ Ĩ
un ar
un ci
un ig
un ud
un ya
un juk
un kulu
Ã© an
Ã© gi
Ã© quip
áĥĺ áĥĲáĥł
ol f
ol et
ol as
ol Ã³
ol le
ol ay
ol dal
ol mad
×Ļ ×ķ×ĵ
×Ļ ×ķ×¦
Ø¯ Ø´
Ø¯ Ø±ÙĪ
Ø¯ ÛĮÙĨ
Ø¯ ÙĪÙħ
ad am
ad ka
ad res
ad ilan
à¤° à¤¨
à¤° à¤²
à¤° à¤¯
à¤° à¤ļ
ri p
ri y
ri er
ri as
ri ad
ri ci
ri ak
ri ik
ri ko
ri fi
ri mas
ri eb
ri chi
am et
am as
am ul
am na
am pa
am eri
am ada
am ina
am ine
am az
am bas
am pil
Ã¤ ra
Ã¤ ft
Ã¤ llÃ¤
ÑĢÐ° Ð±
ÑĢÐ° ÑĤÐ°
ÑĢÐ° Ð²Ð¸
ÑĢÐ° Ð´Ñĭ
ÑĢÐ° ÑģÐ¿Ð¾
ro c
ro Å¡
ro ta
ro ve
ro pol
ro dz
Î± ÏĨ
Î± ÏĥÎ·
Î± Î¶
Ñĩ Ð¾Ð»Ð¾
Ñĩ Ð¾Ð²
Ñĩ ÑĸÐ²
ci v
ci w
ci one
ci vil
ci ep
ci haz
ti i
ti p
ti u
ti Ã¶
ti da
ti ver
ti me
ti que
ti ment
ti kr
ti mb
ti cÉĻ
ÉĻ d
ÉĻ li
ÉĻ la
ÉĻ sinin
di q
di am
di Ã³
di vi
di ant
di co
di ct
di ret
em de
em me
em pres
em lÃ©
li cz
li ef
li dir
li cit
li Ã¨re
áĥĲáĥ Ń
Î¿ Î»Î¿
Î¿ Î´Î·
Î¿ Î¼Î¬
Ø³ ÙĤ
Ø³ Ø§Ø±
Ø³ Ø§Ø¯
Ø³ ÙĪØ¯
Ø³ ÙĪØ§ÙĦ
Ø³ ÙĨÚ¯
Ø³ ÙĥØ±
Ø³ ÛĩÙĦ
Ø¨ ÙĨÛĮ
Ø¨ ÙĪÙĬ
Ø¨ Ú»
Ø¨ ÙĩØ±
Ø¨ Ø¯Ùĩ
Ø¨ ÙĪØ·
Ø¨ Ø²Ø±
à« ¨
à« Į
Îµ ÏĢÎ±
Îµ ÏĦÎ¬
Îµ Î¼ÏĢ
om an
om in
om as
om rÃ¥
ÑĨ Ñĳ
Ø§ÙĦ Ùī
Ø§ÙĦ Ø¢
Ø§ÙĦ Ø±ÙĪ
Ø§ÙĦ Ø§Ø³
Ø§ÙĦ Ø¯Ø±
Ø§ÙĦ Ø±Ø³
Ø§ÙĦ ÙĪØ²
Ø§ÙĦ Ø±ÙĬØ§Ø¶
Ð¶ ÐºÐ¸
Ð¶ ÑĢÑĤ
Ð¶ Ò¯Ò¯Ð»
Ð¹ Ð´
Ð¹ ÑģÑĤÐ²Ð°
Ð¹ Ð·Ð°Ð¼
Ð¹ ÑģÐ½Ñİ
ak as
ak ad
ak ci
ak ses
ent wic
Ð½Ð° ÑĢÐ°
Ð½Ð° Ð¶
Ð½Ð° Ð´Ð°
Ð½Ð° ÑĩÐ¸
Ð½Ð° ÑĩÐµ
Ð½Ð° ÑħÐ¾Ð´Ð¸
Ð½Ð° ÑģÑĤÑĥÐ¿
Ð½Ð° Ð±Ð°Ð²
Ð½Ð° Ð·ÑĭÐ²Ð°
Ð½Ð° Ð¿ÑĢÑı
Ð½Ð° Ð±Ð»Ñİ
àŃ ª
áī Ħ
si f
si mi
si vu
si ble
Ñħ Ñĭ
Ñħ Ð²Ð¾
Ñħ Ó©Ð½
Ñħ Ò¯Ð»
Ñħ Ð²ÑĬÑĢ
Ñħ ÑĸÐ²
Ñħ Ð³Ò¯Ð¹
Ñħ ÑįÐ´
Ñħ ÑįÑģ
Ñħ Ð²Ð°ÑĤÐ°
Ñħ ÑįÐ²
à¸² à¸Īà¸°
à¸² à¹Ģà¸Ļ
ÃŃ l
ÃŃ da
ÃŃ sl
ÃŃ fic
ÃŃ lia
ÃŃ onn
ÃŃ teni
ÑĪ Ðº
ÑĪ ÑĩÐ°
ÑĪ ÐµÑĤ
ÑĪ ÐºÐµ
ÑĪ Ð°Ð½
ÑĪ ÑĽ
ÑĪ ÑĽÐµ
ÑĪ Ð²Ð¸Ð´
ed it
ed la
Ð²Ð° ÑİÑĤÑĮ
ÖĢ Õ¥Õ¬
ãĥ ¤
ãĥ ´
à¤¨ à¤¤
à¤¨ à¤¹
à¤¨ à¤¸à¤ķ
áĥĶáĥ «
áĭ ŀ
Ïģ Ïį
Ïģ Î¿ÏħÏĤ
po j
po ti
po da
po ku
po ÅĻ
po sam
po Ã±
po vr
po vez
po kaz
po koj
po gled
po trze
po czÄħ
ÏĦ Ïĥ
ÏĦ ÎµÎ¹
ÏĦ ÏģÎ¯
ÏĦ ÏħÏĢ
ÏĦ ÏĥÎ¹
Ã¶ Ã°
Ã¶ tt
Ã¶ vet
Ã¶ bÉĻ
ur un
ur ut
ur ka
ur Äĥ
ur Äįen
ur uh
ur zÄħd
ur mÄĥ
à¤ķ à¤ķ
à¤ķ à¤µ
à¤ķ à¤¶
à¤¤ à¤¯
ul es
ul us
ul tra
ul lam
ul masÄ±
Ã¼ le
Ã¼ tt
Ã¼ zer
à¤¿ à¤ģ
ek u
ek om
ek Ã®
ek sem
Ùĩ ÙĪØ±
Ùĩ ÙĨØ¯
Ùĩ ÙĨÚ¯
Õ¸ Õ¯
Õ¸ Õ°
áĬ ĭ
Ñį ÐºÐ¾
à´¿ à´Ĥ
Ð½Ð¾ Ñģ
Ð½Ð¾ Ð³
Ð½Ð¾ Ð·
Ð½Ð¾ ÑĤÐ¾
Ð½Ð¾ Ñŀ
Ð½Ð¾ Ð²Ñĸ
Ð½Ð¾ Ð²Ð°Ð½
Ã³ a
Ã³ i
Ã³ ri
Ã³ ng
Î½ Î¬
Î½ ÏīÎ½
ut t
ut om
ut are
us pe
áĥĺáĥ ĳ
Ð¿Ð¾ Ñı
Ð¿Ð¾ Ð²Ð¾
Ð¿Ð¾ ÑĩÐ°
Ð¿Ð¾ ÑģÑĤÑĢÐ°
Ð¿Ð¾ ÐºÑĢÐ¸
Ð¿Ð¾ Ð²ÑĢÐµ
Ð¿Ð¾ ÑģÑĤÑĥÐ¿
Ð¿Ð¾ ÑģÑĤÐ°Ð²Ð¸
Ð¿Ð¾ ÑģÑĤÐ¸Ð³
Ð¿Ð¾ ÑĩÑĥÐ²
Ð¿Ð¾ ÐºÑĥÐ¿
à´ķ à´¤
à´ķ à´¥
ik er
ik ti
ik si
ik ai
ik umi
le h
le z
le ad
le ge
le gi
le hen
le pie
ÑĢÐ¾ Ð»
ÑĢÐ¾ Ñŀ
ÑĢÐ¾ Ð±Ð¸
ÑĢÐ¾ Ð²Ð°Ð½
ÑĢÐ¾ Ð±Ñĸ
ÑĢÐ¾ Ð²Ð°Ð½Ð¸Ñı
ÑĢÐ¾ Ð·ÑĥÐ¼Ñĸ
de w
de par
de ven
de ix
de dic
de velop
à¸Ļ à¸Ń
à¸Ļ à¸¢
à¸Ļ à¸°
à¸Ļ à¸ŀ
à¸Ļ à¸Ńà¸Ļ
à¸Ļ à¹Ħà¸Ľ
ing e
ing i
ing o
ing iz
à¸£ à¸ļ
à¸£ à¸ĵ
à¸£ à¸©
à¸£ à¸§à¸¡
te ar
te ge
te gen
te ach
la in
la uk
la bo
la vor
la yan
la uf
ä¸ ¡
ä¸ ½
ä¸ ģ
Å¡ o
Å¡ ak
Å¡ ni
Å¡ tu
Å¡ pe
Å¡ ev
Å¡ port
Ïĥ Ïĥ
Ïĥ ÏĨ
Ïĥ ÎµÎ»
Ïĥ ÏĥÎ±
ÑĢÐµ Ð»
ÑĢÐµ Ð¼
ÑĢÐµ Ð²Ð¾
ÑĢÐµ ÑĩÐ¸
ÑĢÐµ ÑĪÐ°
ÑĢÐµ ÑĪÐµ
ta q
ta v
ta ger
ta bel
ta ÅŁÄ±
os s
os an
um ar
um uz
um jet
ÐºÐ° Ð´
ÐºÐ° ÐºÐ¾
ÐºÐ° Ð»Ð°
ÐºÐ° ÑĦÐµ
ÐºÐ¾ Ð¶
ÐºÐ¾ ÑĪ
ÐºÐ¾ Ð»Ñĸ
ÐºÐ¾ ÑĹ
ÐºÐ¾ Ð¼Ñĸ
ÐºÐ¾ ÑĺÐ¸
ÐºÐ¾ ÑĢÑĥÐ¿
im h
im s
im li
im pro
im per
im ba
im Äħ
im kan
im ler
im medi
im plement
ÑĤÐ° Ð¼Ð°
ÑĤÐ° ÑĤÐ¸
ÑĤÐ° Ò£
ÑĤÐ° ÒĽÑĭ
ÑĤÐ° Ð¼ÐµÐ½ÑĤ
à´¨ à´¯
à´¨ àµ½à´ķ
da w
da ge
da eth
ÙĤ ÙĤ
ÙĤ ÛĲ
ÙĤ Ø§Ø¨
ÙĤ Ø§Ùģ
ÙĤ Ø§ÙĬ
ÙĤ Ø¯Ø±
ÙĤ ÙĤÙī
ÑĢÐ¸ ÑĤ
ÑĢÐ¸ Ðº
ÑĢÐ¸ Ð´
ÑĢÐ¸ Ð½Ð°
ÑĢÐ¸ Ñħ
Ð»Ð° Ð´
Ð»Ð° Ð·
Ð»Ð° ÑĨ
Ð»Ð° Ð½Ð°
Ð»Ð° ÐºÑĤÐ¸
×Ķ ×ĺ
×Ķ ×Ĳ×¨
×Ķ ×¤×¢
Äį ek
Äį ov
Äį ko
Äį ky
Äį iai
à¤² à¤µ
ÑĤÐµ ÑĢÐµ
ÑĤÐµ Ð¼Ðµ
ÑĤÐµ Ò£
vi Äį
vi Ã°
vi val
vi ime
Îº ÏĦÎ·
Îº ÏĦÎ¹Îº
Îº ÏģÎ¬
Îº Î»ÎµÎ¹
Îº Î¯Î½Î·
Õ¶ Õ¡
Õ¶ Õ¯
Õ¶ Õ¸Õ²
Õ¶ Õ¥Õ½
Õ¶ Õ¸ÖĤÕµÕ¶
Ð´Ð° Ð¶
Ð´Ð° Ð¿Ð°
Ð´Ð° Ñŀ
Ð´Ð° Ð¼Ñĭ
Ð´Ð° ÑıÑĢ
Ð´Ð° Ð´Ð·ÐµÐ½Ñĭ
à» Ĩ
Ùī ÚĨÛķ
à¤¯ à¤ļ
ni ja
ni enia
ni eki
ni vÃ®
eg d
eg as
eg ang
Ø¹ ÙĨ
Ø¹ Ø§Ø´
Ø¹ ÙĦÛĮ
Ø¹ Ø¨Ø§Ø±
na i
na ge
na Ã°
na gu
na uj
ir m
ir u
ir ka
ir Ã¡ny
ir gend
à®ķ à®¤
à®ķ à®ª
à¶± à·ĥ
×¨ ×ĵ
Ùģ ÙĨ
Ùģ Ø´
Ùģ Ø§Øª
Ùģ ÙĪØ±
Ùģ ÙĪÙĨ
Ùģ ÙĬØ±
Ùģ ØªÙĩ
Ò¯ Ð¼
ÏĢ Î½
ÏĢ Î±Î½
ÏĢ Î»Î®
ÏĢ ÏĦÏħ
ÅŁ u
ÅŁ er
ÅŁ ar
ÅŁ ul
ÅŁ ik
ÅŁ te
ÅŁ dÄ±r
à¸Ń à¸²à¸¢
à¸Ń à¹Ģà¸¡
Î¼ Î¹Î±
Î¼ ÏīÎ½
Î¼ Î¹Î¿
ma ÅŁ
ma Å¾
ma ha
ma ÄŁ
ma gan
ma gy
ma Ã±
ma gaz
à¤ª à¤®
à¤ª à¤Ł
à°° à°ª
à°° à°¯
à°° à°ļ
à°° à°ľ
à°° à°¶
à°° à°Ń
Î» Ïį
Î» Î¹Î¿
Î» Î¿ÏħÏĤ
Î» Î¯Î¿Ïħ
à¹Ģ à¸Ńà¸ģ
à¹Ģ à¸Ńà¸²
ov in
ov is
Ø´ Ùħ
Ø´ Ø§Ùĩ
Ø´ ÛĮÙĨ
à´¤ à´ķ
×ŀ ×Ļ×ł
×ŀ ×ĳ×¨
×ŀ ×ķ×¢
×ŀ ×ł×Ļ
×ŀ ×ł×Ķ
×ŀ ×ķ×ł×Ķ
×ŀ ×ķ×ĸ
à¸ģ à¸ĭ
Ú© Ø§ÙĦ
Ú© Ø§Ùħ
Ú© ØªØ±
Ø§ÙĨ Ø¯ÛĮ
Ø§ÙĨ ØªÙĩ
ab ra
ab Ä±
ab ang
Õ« Õ½Õ¿
Ð»Ð¸ ÑĢÐ°
Ð»Ð¸ Ð½Ð°
Ð»Ð¸ ÑĤÐµ
Ð»Ð¸ Ð²Ð¸
od ni
od liÄį
od govor
Ð¼Ð° Ð½Ð¸
Ð¼Ð° ÑģÑĤÐ°
Ð¼Ð° ÑĤÐµÐ¼Ð°ÑĤÐ¸
Ð¼Ð° Ð»ÐµÐ½ÑĮ
à®¤ à®³
Ð²Ð¾ ÑĤ
Ð²Ð¾ Ð»
Ð²Ð¾ Ð³
Ð²Ð¾ Ð´Ð°
Ð²Ð¾ Ñİ
Ð²Ð¾ Ð´Ð¾
Ð²Ð¾ ÑĹ
Å¾ as
Å¾ eli
Å¾ mon
Å¾ mog
Å¾ Ã¡d
á» ¦
á» ³
á» ·
á» Ĩ
á» ĺ
Ó© Ð·Ñĸ
à¤µ à¤¯
à¤µ à¤§
×Ĳ ×Ļ×Ŀ
×Ĳ ×Ļ×©
×Ĳ ×Ļ×ĵ
×Ĳ ×ķ×¤
×Ĳ ×ķ×Ķ
ap on
ap el
ap ak
Î· Î½
Î· Î¸
Î· Î¼ÎµÏģ
Î· Î»ÎµÎºÏĦÏģÎ¿
zi g
zi el
zi ale
ne a
ne f
ne p
ne ch
ne ut
ne vo
ne vez
Äģ di
Äģ de
Äģ cij
Äģ js
Ã« ve
se b
se j
se ur
se ite
se Ã±
se cre
se isu
à²° à²¯
à²° à²¹
ÑĤÐ¸ ÑĢ
ÑĤÐ¸ Ð¶Ðµ
ÑĤÐ¸ ÑĦÐ¸ÐºÐ°
Ð·Ð° ÑĢÐ°
Ð·Ð° ÐºÐ¾
Ð·Ð° ÑĨÐ¸
Ð·Ð° ÒĽ
Ð·Ð° Ð±Ð¾
Ð·Ð° Ð³Ð¸
Ð·Ð° ÑģÑĤÐ¾
Ð·Ð° ÑĺÐµ
Ð·Ð° Ð²ÐµÑĢ
Ð·Ð° Ð´Ð¾Ð²Ð¾
Ð·Ð° Ð±Ð¾Ð»Ðµ
je b
je di
je va
je ste
je Äĩa
ot ro
ot ne
ot vor
ot ros
×ľ ×ķ×ª
×ľ ×Ł
Ø¬ Ùī
Ø¬ Ø¹
Ø¬ Ø§ÛĮ
Ø¬ ÙĪÛĮ
Ø¬ ÙħÙĦ
Ø¬ ÙĬÙĦ
Ø¬ ÙĦØ³
à¸ĩ à¸ļ
à¸ĩ à¹Ģà¸Ĺ
à´° à´¦
à´° à´ŀ
à´° à´ĸ
Ð²Ð¸ ÑĢ
Ð²Ð¸ Ñģ
Ð²Ð¸ Ð·
Ð²Ð¸ Ð½Ð°
Ð²Ð¸ Ð½Ð¸
Ð²Ð¸ ÑģÐ¾
Ð²Ð¸ ÑħÐ¾
ge bru
ia is
Ñĺ Ð½
Ñĺ ÐµÑĤ
Ñĺ Ð¾Ð¼
à¸¡ à¸«
à¸¡ à¸Ńà¸ĩ
à¦° à¦¶
pro c
pro sp
pro ce
pro per
pro mi
pro jet
pro pag
pro get
ter se
ter vez
áĥĿáĥ ¯áĥĲáĥ®
à°¨ à°°
à°¨ à°¨
à°¨ à°µ
à°¨ à°Ĺà°°
ja u
ja ya
ja ck
ja vljen
iz z
iz ku
iz ada
iz ved
iz gl
à·Ģ à¶¯
va z
va st
va ig
Ïħ Ïģ
Ïħ Î»
Ïħ Î½Î¿Î¼
ver o
ver si
ver ke
ver Ã°
ver bind
ver ific
×ĳ ×ĳ
×ĳ ×¤
×ĳ ×ĸ
×ĳ ×Ļ×ł
×ĳ ×Ļ×ľ
×ĳ ×Ļ×§
sk en
sk on
sk or
sk em
sk ill
sk lad
id el
id as
id Ã©
id ro
id os
id he
id mat
ob n
ob us
ob le
ob la
ob vi
ob ile
ob lik
ob isk
ob iÄį
ob chod
Ø§Ø± Ø¶
ÑĤÐ¾ Ð³Ð¾
ÑĤÐ¾ ÑĩÐ½Ð¾
à¤¦ à¤²
à¤¦ à¤¯
à¤¦ à¤Ĺ
à¤¦ à¤¬
ØŃ ÛĮ
ØŃ Ø¨
ØŃ Ø¬
ØŃ Ùĥ
ØŃ Ø¶
Õ¡Õ¶ ÖĢ
Õ¡Õ¶ Õ½
Õ¡Õ¶ Õ¥Õ¬
Õ¡Õ¶ Õ¸ÖĤÕ¶
áĮ ³
áĮ ¹
áĮ ĵ
ha a
ha h
ha v
ha w
ha ja
ha yat
ang at
ang ka
ang kat
Î¯ Î½Î±
Î¯ Î´Î¹
ve b
ve f
ve Äĩ
ve sti
ve ido
ve hic
à·ı à¶Ĥ
à¹Ģà¸ ł
Ñİ Ñĥ
Ñİ Ñī
Ñİ Ð²Ð°Ð½Ð½Ñı
ig Ã©ny
ig rant
sp a
sp un
sp ÃŃ
sp ev
sp olu
sp rendi
sp ruch
ist u
ist ÃŃ
ist edi
ist if
ist iyor
à¶» à¶¢
à¶» à·ģ
à¶» à¶«à¶º
Ð»ÑĮ Ð´
Ð»ÑĮ Ð¼
Ð»ÑĮ Ð½Ð¸Ð¹
Ð»ÑĮ Ð½Ð¸Ñħ
à¸¢ à¸²à¸¢
con o
con ce
con vo
con for
con he
con fi
con ces
con cre
con sig
con veni
no c
no ch
no si
no ut
no vi
×¢ ×Ļ×¨
×¢ ×ĳ×ķ×ĵ
Ð»Ð¾ Ð´
Ð»Ð¾ Ð³Ð°
Ð»Ð¾ Ð¶ÐµÐ½Ð¸Ñı
sa in
sa im
sa av
sa ada
sa cri
sa yÄ±
Ã§ as
Ã§ isi
Ã§ ev
Ã§ ocuk
za am
za posl
za Å¡Äį
à¶Ń à¶¸
à¶º à·Ģ
à¤¹ à¤²
à´¯ à´²
Ùĥ Øª
Ùĥ Ø§ÙĨ
Ùĥ Ø¨Ø±
Ùĥ ØªØ¨
Ùĥ Ø«ÙĬØ±
to e
to te
to pl
to are
to imi
ko os
ko we
ko ht
ko wo
ko ÅĦ
qu it
qu ad
qu esti
qu oti
ud ent
Ð³Ð¾ Ð¼
Ð³Ð¾ ÑĢÐ°
Ð³Ð¾ ÑĢÐ¾
Ð³Ð¾ ÑĤÑĥ
Ð³Ð¾ Ð»Ñı
à¶ļ à¶Ń
×© ×Ļ×¨
×© ×ķ×ĳ
×© ×Ļ×ĺ
×© ×ĺ×¢
Ð´Ð¾ ÑģÑĤ
Ð´Ð¾ Ð¶
Ð´Ð¾ Ð´Ð°
Ð´Ð¾ Ð²Ð°Ð½
Ð´Ð¾ Ð´Ð°ÑĤ
Ð´Ð¾ ÑģÐ»Ñĸ
per a
per at
per spek
à¶¸ à¶¯
à¶¸ à¶½
à¶¸ à¶ľ
Ð³Ð° Ð¼
Ð³Ð° Ð»Ð¾
Ð³Ð° Ð°Ð½
Ð³Ð° Ð°Ð´
Ð³Ð° ÑĢÐ°Ð½
Ð³Ð° Ð»ÑĤ
àª° àªµ
àª° àª¨
àª° àªľ
Ð½Ðµ ÐºÐ¾
Ð½Ðµ ÑĤÐµ
Ð½Ðµ ÑĤÐ¾
Ð½Ðµ ÑĦ
Ð½Ðµ Ð´Ðµ
Ð½Ðµ ÑģÐµ
Ð½Ðµ ÑģÐµÐ½
Ð½Ðµ Ð·Ð°Ð²Ð¸
Ð½Ðµ Ð·Ð°Ð»Ðµ
Ð½Ðµ Ð³Ð¸Ð·
Ð½Ðµ Ð´Ð²Ð¸Ð¶Ð¸
og oÄį
ÑĦ ÑĢ
ÑĦ ÑĤ
ÑĦ Ð°ÑĢ
à°ķ à°Ł
à°ķ à°³
áĥł áĥĲáĥĵ
áĥł áĥĶáĥ¡
áĥł áĥĿáĥĴ
áĥł áĥĺáĥĴ
à°² à°°
ba o
ba u
ba vi
ba ud
ba ca
Î¬ Î»Î·
à¬¿ à¬ģ
sz el
sz or
sz ÃŃ
sz ta
sz Äħ
sz ÄĻ
sz kol
sz Ã¼ks
Ø² Ø¨
Ø² ÙħØ§ÙĨ
à¬° à¬¬
áº ł
ng uy
à¸§ à¸£
à¸§ à¸«à¸Ļ
uk t
uk up
uk set
uk lju
ÑĨÐ¸ Ð²Ð¸
ÑĨÐ¸ ÑĺÐ¸
Ù¾ Ø§
Ù¾ ÙĬ
Ù¾ Ø§Ø³
Ù¾ Ø°
Ù¾ Ø§Ú©
Ù¾ Úĺ
çļĦ ãģª
ìĿ ½
à¦¨ à¦¤
à¤Ĺ à¤¨
à¤Ĺ à¤¯
áĥĽ áĥł
áĥĽ áĥĶáĥł
áĥĽ áĥ«
áĥĽ áĥĲáĥ¢
áĥĽ áĥĺáĥķ
áĥĽ áĥĲáĥ¦
Ð´Ð¸ Ð»
Ð´Ð¸ Ñı
Ð´Ð¸ ÑĺÐ°
Ð´Ð¸ Ð³Ð¸
ag ha
ag ement
ag ens
×ł ×Ļ×©
×ł ×ŀ×¦
×ł ×©×Ļ×Ŀ
Ø® Ø§Øª
Ø® Ø¯Ø§Ùħ
áĥ¡ áĥĲáĥľ
áĥ¡ áĥĲáĥķ
áĥ¡ áĥ£áĥł
pre c
pre m
pre u
pre si
pre vÃ¡
pre ced
Ð´Ðµ Ð¾
Ð´Ðµ Ñı
Ð´Ðµ Ð»Ðµ
Ð´Ðµ Ð¼Ð¾Ð½
est ud
est ran
ÑĬ ÑĤ
ÑĬ ÑĨÐ¸
pr y
pr it
pr ven
pr Å¯
and al
and re
àº² àºĹ
àº² à»ĥ
ati que
ati vit
à´² à´µ
à®Ł à®ķ
ÐºÐ¸ ÑĤÐµ
ÐºÐ¸ Ð¿ÐµÐ´Ð¸
ok am
ok si
ok oli
ok uva
tu u
tu an
tu rist
à¸Ķ à¸ģà¸²à¸£
Ð²Ðµ Ð¹
Ð²Ðµ Ð´Ñĥ
Ð²Ðµ ÑģÑĮ
Õ´ Õ¥Õ²
Õ´ ÖĢÖģ
à¸¥ à¸Ľ
à²¤ à²ķ
ÎŃ Î²
ÎŃ Î¾
ÎŃ Î»Îµ
ÅĤ em
ÅĤ Ã³w
æľ Ĺ
Î³ Î¬
Î³ Ïī
Î³ ÎµÎ¹
Î³ Î¹Î¿
Î³ Î¿Î½
ÑģÑĤÐ° Ð½Ð´Ð°
ÒĽ Ð°Ð»
Ð¡ ÐºÐ¾
Ð¡ ÑĤÐµ
Ð¡ Ð²Ðµ
Ð¡ ÐĲ
Ð¡ Ðľ
Ð¡ Ð°Ð½
Ð¡ Ð¾Ð½
Ð¡ Ð²ÐµÑĤ
à¤ľ à¤¹
à¤¬ à¤¡
ke en
ke er
ke zel
ke iten
ac er
ac ad
ac ab
ac ja
ac cu
ac cia
ac cor
ac ord
ac jÄĻ
ac tua
à°¤ à°ª
à°¤ à°Ĺ
à·ĥ à¶·
men n
men s
men ti
men ang
men sa
men yer
à²¨ à²°
à²¨ à²µ
à®® à®Ł
Ð±Ð° Ðº
Ð±Ð° ÑĪ
Ð±Ð° Ð²Ð¸
Ð±Ð° ÑĤÑĮ
Ð±Ð° ÒĵÐ°
Ð±Ð° ÑĤÐ°Ð»
Ð±Ð° ÑĪÑĤÐ°
Ãº ng
Ãº jt
áĥ£ áĥĵ
áĥ£ áĥ¨
me c
me e
me v
me y
me er
me Ã°
me ye
me ille
me chan
åħ µ
åı ¬
åı Į
å¤ ł
à¸ª à¸Ńà¸Ļ
à´® à´²
à´® à´¸
Ú¯ ÙĦ
Ú¯ Ùħ
Ú¯ ÙĬ
Ú¯ Ú¾
Ú¯ ÙĪÙĨ
Ú¯ ÙģØª
vo i
vo di
vo da
vo zi
vo ÅĻ
Ð¿Ð° Ñŀ
ÐĲ Ð±
ÐĲ ÑĦ
ÐĲ ÐĴ
ÐĲ ÐĽ
ÐĲ Òļ
ÐĲ Ð²ÑĤÐ¾
à°ª à°²
ru z
ru it
ðŁ Ĩ
ðŁ Ĺ
ber a
ber din
ber apa
áŀļ áŀħ
áŀļ áŀł
Ð¼Ð¾ ÑĤ
Ð¼Ð¾ Ð»
Ð¼Ð¾ Ð¼
Ð¼Ð¾ Ð³
Ð¼Ð¾ Ð·
Ð¼Ð¾ ÑĢÐ°
Ð¼Ð¾ Ð¶Ð°
ung a
ÑĢÑĥ Ð±
ÑĢÑĥ Ð²Ð°
lo j
lo u
lo ad
lo od
lo Å¾
lo ok
lo ca
lo op
Î´ Î¿Ïħ
Î´ Ïİ
Î´ ÏģÎ¬
Ã¸ je
ÑģÐ° Ð²
ÑģÐ° Ð¿Ð°
ÑģÐ° Ð¼Ð¸
ÏĮ ÏģÎ¿
ÏĮ ÏĦÎ·
ÏĮ ÏĢÎ¿Ïħ
Ä« ties
Ä« jumi
à®µ à®ķ
à®µ à®ļ
à°¸ à°Ń
end en
áĥļ áĥĿáĥĳ
áĥļ áĥĺáĥĲ
tr Ã©
tr ud
tr Ã¦
tr zy
tr Å¾i
å® ģ
Ð¾Ð± Ð»Ñĥ
Ð¾Ð± ÑĺÐ°
Ð¾Ð± Ð»Ñĭ
Ð¾Ð± ÑīÐ°
Ð¾Ð± ÑĺÐ°Ð²
be i
be hÃ¶
Øµ ÙĪ
Øµ Ø©
ku ar
ku al
ku ra
ku si
ku ul
ku asa
ä» ²
à²¸ à²¹
à²¸ à²Ń
Ã¦ Ã°i
op et
op ra
op ple
à¨° à¨Ł
sta an
sta at
sta va
sta ÅĤ
sta Äĩ
sta wi
à¶¯ à¶¸
Ð¼Ðµ Ð´
Ð¼Ðµ Ð¹
Ð¼Ðµ ÑħÐ°
ÄŁ an
ÄŁ Ä±mÄ±z
áĥĶáĥĳ áĥļ
à¸ļ à¸¥
à¸ļ à¸Ĺ
à¸ļ à¸²à¸Ĺ
su i
su it
su ra
su om
su pra
su iv
su rad
ec u
pa z
pa ch
pa var
pa Äįi
áĥķ áĥĺáĥľ
áĥķ áĥĶáĥĹ
áĥķ áĥĲáĥļáĥĺ
Ð½Ñĭ Ñģ
Ð½Ñĭ Ð¿
ÐŁ Ð¾ÑĤ
ÐŁ ÑĬÑĢ
Ñī Ð½Ð¾ÑģÑĤ
à¦¬ à¦ķ
ÐµÐ½Ð¸ Ð½
gi vet
gi udi
gi fter
×§ ×¤
×§ ×ķ×¨
Ûģ Ø§
Ûģ Ø§Ø±
Ûģ ÛĮÚº
ga y
ga in
ga zd
à¸Ĺ à¸²à¸Ļ
Õ¥Õ ·
×ĺ ×ľ
×ĺ ×¢×¨
ant za
Ð±Ð¾ Ð²
Ð±Ð¾ Ðº
Ð±Ð¾ Ð¼
Ð±Ð¾ ÑĢÐ¸
Ð¼Ð¸ ÑģÑĤÐµ
Ð¼Ð¸ ÑģÐ»Ð¸
ki p
×Ĺ ×Ļ×Ŀ
×Ĺ ×ķ×ĵ
wa a
wa i
wa z
wa zi
wa ys
Äħ Äĩ
à¸ķ à¸²
à¸ķ à¸Ńà¸Ļ
à¸ķ à¸Ńà¸ļ
×ĵ ×Ķ
×ĵ ×¢
×ĵ ×Ŀ
×ĵ ×Ļ×Ĵ
Ðļ Ð°Ð½
Ðļ ÑĥÐ»
hi f
hi p
hi be
hi vat
à²² à²¦
à²² à²Ń
Ø¦ Ø§Ø³
Ø¦ Ø§Ø´
Ø¦ Ø§ÙĬ
à®² à®ķ
bi h
bi o
bi en
lu b
lu ft
×¤ ×ķ
×¤ ×ľ
×¤ ×©
×¤ ×Ļ×Ŀ
×¤ ×ķ×ľ
Ð¿ÑĢÐ¾ Ð¿Ð°
Ð¿ÑĢÐ¾ Ð²ÐµÑĢ
Ð¿ÑĢÐ¾ ÑĤÐ¸Ð²
Ð¿ÑĢÐ¾ Ð´ÑĬÐ»
áĢĲ áĢķ
åĪ ·
åĪ Ĭ
åĪ ĳ
Î® Ïģ
Ð½Ñı ÐºÐ°
Ð½Ñı ÑĤÑĮ
ny it
ny ata
he p
he er
he in
he he
à¦¯ à¦¬à¦¸
ãģ¦ ãģı
mi j
mi o
mi y
mi je
mi jÃ«
à²µ à²¤
à²µ à²²
à²µ à²¯
Ã° ar
du b
du o
du omen
ho ut
ho edd
pi da
pi ir
pi eni
pi ÅŁt
à¶½ à¶¯
à¶½ à¶¶
áĢĻ áĢĢ
à¶´ à·Ģ
à¶´ à¶º
à¶´ à·ħ
à¶´ à·Ģà·ĥ
à¤¶ à¤²
Ø§Øª Ø±
ÑĩÐ° Ð²Ð°
ÑĩÐ° ÑĤÑĮ
der a
der t
par i
par em
Ðľ ÑĸÐ½
Ðľ Ò±
Ðľ ÓĻ
Ðľ ÐµÐº
Äĵ l
Äĵ ja
Äĵ jo
à²Ĺ à²²
à°¯ à°®
Õ¯ Õ¶
Õ¯ Õ¡Öģ
Õ¯ Õ¸Õ²
Õ¯ Õ¡Õº
Õ¯ ÕµÕ¡Õ¶
Ø£ Ùģ
Ø£ Ø®
Ø£ ÙĨÙĩ
com pon
com pag
com paÃ±
so c
so ko
do en
do ona
do ÅĽwiad
à¦¸ à¦ķ
à¦¸ à¦ª
à¦¸ à¦°à¦ķ
ÐĿ Ñĸ
ÐĿ Ð¯
à´± à´ķ
ÐºÑĥ ÑĢÐ°
ÐºÑĥ Ñħ
áį ¤
áį İ
ÑģÐ¾ Ð¿
ÑģÐ¾ Ð²Ð°
ÑģÐ¾ Ð»Ð¸
ÑģÐ¾ Ð·Ð½Ð°
ÑģÐ¾ Ð²ÐµÑĢ
ÑĢÑĭ Ð·
ÑĢÑĭ ÑĨÑĮ
áŀŁ áŀĶ
áģ ¢
áģ »
áģ ¼
áģ ħ
áģ Ĩ
áģ ł
ãģĹ ãģĭ
ãģĹ ãģ¾ãģĹãģŁ
áĢķ áģļ
Õ¥ÖĢ Õ¡Õ¦
áĥĵ áĥĿ
áĥĵ áĥĺáĥ¡
áĥĵ áĥĺáĥľ
áĥĵ áĥĿáĥľ
áĥĵ áĥĶáĥĵ
áĥĵ áĥĲáĥ¬
áĥĵ áĥĶáĥĳáĥ£áĥļ
áĥĵ áĥľáĥĶáĥľ
ÑĩÐ¸ ÑĢ
ÑĩÐ¸ Ð²Ð°
ÑĩÐ¸ ÑĤÑĮ
ÑĩÐ¸ Ð³Ð»
lar e
lar Ä±nda
lar Ä±nÄ±
Ð½Ñĸ ÐºÑĸ
Ð½Ñĸ ÑĪÐµ
Ð½Ñĸ ÑĨÑĤÐ²Ð°
à¦® à¦¦
à¸« à¸į
mo u
mo Äį
mo Å¼li
mo qda
cz u
cz es
cz ego
cz ony
Õµ Õ¡
ju al
ju sti
áŀĢ áŀŁ
áŀĢ áŀī
Ð¶Ð° Ðº
Ð¶Ð° Ñĥ
Ð¶Ð° ÑĤÐ°
Ð¶Ð° Ð·Ñĥ
Ð»Ñĸ Ð´
Ð»Ñĸ ÑģÑĤ
Ð»Ñĸ ÑĤÐµÑĢÐ°
×Ľ ×ĳ
×Ľ ×ķ×ª
à²¯ à²®
à²¯ à²¶
áŀĶ áŀĳ
áŀĶ áŀħ
pe a
pe v
pe y
pe qu
Ð¢ Ðķ
Ð¢ ÑįÐ³
åĲ ¬
à°® à°²
ÙĪØ± Úģ
ÑģÐ¸ Ð½
àªµ àª¨
àªµ àª¡
ÄĽ st
Ø§Ùħ ÙĨ
Ø§Ùħ ÙĬ
Ø§Ùħ ÛĮØ¯
ãģ¾ ãģ¾
ãģ¾ ãģł
co un
co ur
co up
co ord
co unt
kon y
kon tin
kon stru
kon omi
kon uÅŁ
ÄĻ s
ä½ Ī
ÄĹ je
ÄĹ jim
ÄĹ tÅ³
Ïĩ Î¹
Ïĩ Î·
Ïĩ Ïį
Ïĩ ÎµÎ¯
ÑĤÑĥ Ñģ
áĢĶ áĢĢ
áĢĶ áĢĲ
áĢĶ áĢħ
áīµ áĪŃ
×¡ ×¤×¨
ana o
ana an
à¬ķ à¬²
ten de
ÑģÐµ Ð»
ÑģÐµ Ð»Ð¾
ÑģÐµ Ð³Ð°
ÑģÐµ ÑĢÐµÐ´
ÑģÐµ ÑĽÐ°
Ã¡l tal
Ã¡l lam
Ã® na
à¨¸ à¨¨
à¨¸ à¨¹
à¨¸ à¨¥
pl in
pl Äģ
pl ate
pl ys
pl ane
pl Ã½sing
kan ie
àª¨ àª¹
ãģ® ãģĮ
Õ° Õ¶
Õ° Õ¥Õ²
Õ° Õ«Õ¾
sh en
sh ak
sh tat
Ïį ÏģÎ¿
Ïį ÏĪ
áĥľ áĥĲáĥĽ
áĥľ áĥĲáĥķ
áĥľ áĥĶáĥĳáĥĺ
áĥľ áĥĲáĥª
áĥľ áĥĶáĥļáĥĺ
ah u
ah al
àª® àª¤
ãģŁ ãĤĬ
nd um
nd od
nd aki
à®± à®©
à·Ħ à¶¯
ÐĶ ÑĢ
ÐĶ Ð·
ÐĶ ÑĢÐ°
ÐĶ ÐµÑĢ
ÐĶ Ð¶Ðµ
ÐĶ Ð¾Ð½
ÐĶ Ð«
×Ĵ ×©
×Ĵ ×Ļ×¢
à¤ħ à¤¹
à¤ħ à¤ľ
à¤ħ à¤¶
à¤ħ à¤ļ
à¤ħ à¤ĺ
ãģª ãģĭ
ãģª ãģ£ãģŁ
æĸ ·
æĸ Ĺ
ell t
Ðĳ ÐĿ
Ðĳ Ðĺ
Ðĳ Ð°Ð½
Ðĳ Ð°ÑĤ
Ðĳ ÑĥÑĢ
Ðĳ ÐµÐ»
àºģ àº²
áĥ¢ áĥĲ
áĥ¢ áĥĻ
áĥ¢ áĥ§
Õ¡Õ¯ Õ¡Õ¬
å° Ĥ
å° Ĭ
å° ļ
áĥĴ áĥĶáĥł
áĥĴ áĥĲáĥ®
çĶ ļ
Ð¿ÑĢÐ¸ Ðµ
Ð¿ÑĢÐ¸ Ð·
Ð¿ÑĢÐ¸ Ð·Ð½Ð°
Ð¿ÑĢÐ¸ Ð±Ð»Ð¸
Ð¿ÑĢÐ¸ Ð²Ð°ÑĤ
ÑĩÐµ Ð¹
ÑĩÐµ Ð³Ð¾
ÑĩÐµ ÑļÐµ
ÑĩÐµ ÑģÑĤÐ²Ð°
ff t
Î¿Ïħ Ïĥ
Î¿Ïħ ÏĥÎ¯Î±
Ø³Øª Ùī
Ø³Øª ÙĪÙĨ
Ñŀ Ð²Ð°
ä¸Ģ ä¸ĭ
ä¸Ģ ç¯ĩ
wy Å¼
wy gl
wy sok
Ø§Ø¯ ÙĦ
ãģ¨ ãĤĤ
ãģ¨ ãģĹãģ¦
Î¸ Ïģ
Î¸ Ïį
ÐĴ Ñĭ
ÐĴ ÐµÑĢ
ÐĴ Ðŀ
ÐĴ Ð»Ð°Ð´Ð¸
th Ã©
th ing
ÏĨ Îµ
ÏĨ Ïī
ÏĨ Ïį
ÏĨ Î±Î½
ÏĨ ÏīÎ½
ÏĨ ÏħÎ³
ÖĦ Õ¡Õ¶
ÖĦ Õ¡ÖĢ
ÖĦ Õ¨
à´£ à´®
pu esto
pri z
pri ve
pri vil
pri vat
val a
val i
val u
val and
ÑĤÑĭ Ð¿
Õ½ ÖĢ
Õ½ Õ¡Õ°Õ´Õ¡Õ¶
ìŀ ĺ
Ð¿Ðµ Ð»
Ð¿Ðµ ÑĩÐ°ÑĤ
Ð¿Ðµ Ð´Ð°Ð³Ð¾
ÚĨ ÙĦ
ÚĨ Ûģ
ÚĨ ÙĨØ¯
ÚĨ ÙĪÚ
ÚĨ ÙĨØ§ÙĨ
à¬¬ à¬¹
áĥĲáĥł áĥĿ
áĥĲáĥł áĥĺáĥ¡
áĥĲáĥł áĥĶáĥĿáĥĳ
Õ© Õ¥ÖĢ
Øº ÛĮØ±
è¿ «
ãģ« ãģĬ
ãģ« å¯¾
ÑħÐ¾ ÑĢÐ¸
Ã¶r g
mu u
mu zy
mu zik
wi ad
æĪ ¦
æĪ ª
æĪ ²
æĪ ı
à°Ĺ à°¸
Ð»Ñĥ Ð³Ñĥ
Ð²Ñĸ Ð½
Ð²Ñĸ ÑĨÑĮ
ele z
Åĳ s
åĬ ±
åĬ ´
åĬ ĥ
à¸Ľ à¸£à¸²
áŀı áŀĺ
ex ter
ex cel
ex posi
ex erci
ÑģÑĥ Ð½
ÑģÑĥ Ñģ
ÑģÑĥ Ð±
ÑģÑĥ ÑĩÐ°
ÑģÑĥ Ð¿ÑĢÐ°ÑĨÐ¾Ñŀ
bu ra
bu da
bu je
Ú¾ Ùī
Ú¾ ÛķØ±
à¤§ à¤°
à¤§ à¤¤
à¤§ à¤µ
Ð¾ÑĢ Ð½Ð¾
Ð¾ÑĢ ÑĤÐ°
àºĶ àºĹ
sti pr
sti que
à¹ģ à¸Ń
à¹ģ à¸ĸ
res ol
res olu
ran n
ran da
tra m
ãĤĭ ãģĵãģ¨ãģĮãģ§ãģį
Ð¸Ð· Ð²ÑĢ
Ð¸Ð· Ð½ÐµÐ½
Ð¸Ð· Ð³ÑĢÐ°Ð´
Ð¸Ð· Ð»Ð¾Ð¶
ãģĻ ãģĻ
ÑĺÐ° Ð²Ð°
ÑĺÐ° Ð²Ð½Ð¾
àª¸ àªŃ
gu an
ze y
ze um
ze ug
ze pt
Ð»Ñı Ðµ
Ð»Ñı Ðº
Ð»Ñı Ð³Ð°
Ð»Ñı ÑĤÐ¾ÑĢ
Ð¿ÑĢÐ° Ñŀ
Ð¿ÑĢÐ° ÑĨÑĸ
av en
av ni
Ãł m
Ãł u
eri en
eri cht
à¤Ń à¤ķ
à¤Ń à¤Ĺ
à¤Ń à¤ı
gen om
áĪŃ áĭĵ
áŀĺ áŀı
à®¨ à®©
àºĩ àºª
ali zi
ili ÅŁ
ÏĦÎ± Î¾Î·
ven ÃŃ
áĢ¼ áĢŃ
Å¼ o
Å¼ ad
Å¼ enia
ìł ¸
ãĥ¼ ãĤ·ãĥ§ãĥ³
sen schaft
fi ri
fi ed
fi yat
sch er
sch rift
cu al
cu id
cu stom
Õ¤ Õ¡Õ½
Õ¤ Õ¡ÖĢÕ±
ä¼ ¦
ä¼ Ĭ
åį ¡
åį ´
Ð´Ñĭ ÑĢÑĥ
por no
por tugu
à¤· à¤®
pen si
pen sa
pen ga
pen ye
pen gar
à²ª à²ķ
à«ĭ àªĤ
Ð½Ñĥ ÑĶ
ÐµÑĤ Ñĸ
ÙĪÙĦ Ùĩ
à¸Ī à¸Ī
à¸ŀ à¸Ń
à¸ŀ à¸§à¸ģ
Òĵ Ð°ÑĢ
Òĵ Ð°Ð¹
å¾ ª
å¾ ģ
éĢ ±
ìĹ Ħ
ty d
ty p
ty Ã¶n
ä¹ İ
ä¹ Ĺ
ä¹ ĺ
ara i
ara x
ara an
Ð±Ð¸ Ñĩ
Ð±Ð¸ Ð¹
×¦ ×Ļ×¢
à¶ľ à¶½à¶º
àºŃ àºŃàºģ
Ð³Ð¸ Ð¼
Ø§ÙĦÙħ ÙĤ
Ø§ÙĦÙħ Ø®
Ø§ÙĦÙħ Ø³ÙĦ
Ø§ÙĦÙħ Ø´Ø§Ø±
kom st
kom isi
kom pli
kom pon
kom entar
Ð¶Ð¸ ÑĤÐµ
à¸²à¸£ à¸ĵ
Ø§Ø¦ Ø¨
Ø§Ø¦ ÛĮÚº
å¹ «
å¹ »
pra g
we bb
man s
man de
àªª àª¤
àªª àª£
à¬® à¬¤
ÑģÑĤÐ¾ Ðº
ÑģÑĤÐ¾ Ð²Ñĥ
ÑĨÑĸ ÐºÐ°
àª¯ àªķ
ìĿ´ ì§Ģ
à¤ĸ à¤¡
à²¡ à²²
áĬł áĪĭ
áĬł áīħ
áĬł áĭ´
tÃ¤ na
tÃ¤ rke
Ø¶ Ø¹
à¬ª à¬¡
Ðķ Ðļ
Ðķ Ð´Ð¸Ð½
æī ©
æī ±
ê° ĸ
å¸ ¯
å¸ °
å¸ Ŀ
éģ º
éģ į
éģ Ĺ
éģ Ń
áĢĽ áĢĢ
áĢĽ áĢļ
áŀĦ áŀı
au ti
au di
áĪĺ áįį
áĪĺ áĪ³
áĪĺ áĮ½
ll is
ll et
ll um
Õ£ Õ¡Õ´
åĽ ³
åĽ º
ind eki
kl es
kl ing
kl Ã¤r
kl Äģt
à¨ķ à¨²
Ð¸Ð½ Ð´Ðµ
Ð¸Ð½ Ð´Ñĥ
Ð¸Ð½ ÑĦÑĢÐ°
áĢľ áĢĻ
aj Äģ
Ã¢ te
Ã¢ ng
æĹ ¢
æĹ ģ
áĢŀ áĢľ
áĢŀ áĢħ
20 20
Ø§Ø¨ ÙĬ
ãĤĴ ä½ľ
ãĤĴ èĢĥãģĪ
ste hen
ate a
ate ur
hu v
hu is
hu si
Ð¼Ñĥ ÑĪ
Ð¼Ñĥ Ð½Ð¸ÑĨÐ¸
ning u
Ð¼ÐµÐ½ ÑĮ
Ð¼ÐµÐ½ ÑĤÐ¸
gan ti
ori o
Ã¡n s
Ã¡n ak
áĭ¨ áĪŃ
áĭ¨ áĭį
áĭ¨ áīĢ
isi in
ÏĥÏĦ Î¿
ÏĥÏĦ ÏģÎ¿
ÏĥÏĦ ÎµÎ¯
bl as
ry h
áĥ® áĥĶ
áĥ® áĥĿ
áĥ® áĥ¡
áĥ® áĥĲáĥļ
áĥ® áĥĲáĥĸ
áĥĻ áĥ£áĥł
áĥĻ áĥĲáĥ¢
áĥĻ áĥĺáĥĹáĥ®
Ð¾ÑĤ Ð¼Ðµ
Ð¾ÑĤ ÑģÑĥÑĤ
à²¬ à²¦à²²
Ø±ÛĮ Ø²
Î² Î¿Ïħ
Î² ÎµÏģ
Î² Î±Ïģ
Î² Î¹Î²
à²Ł à²¨
à²Ł à²ķ
gy Ã³gy
áĢ¡ áĢĨáĢĦ
iti ve
à¸Ĭ à¸Ńà¸ļ
Ð±Ðµ Ðº
Ð±Ðµ ÑĢÐ¸
Ð±Ðµ Ð»Ñı
ÑģÑĮ ÐºÑĸ
Ð´Ñĸ Ð³Ñĸ
áĥĲáĥĽ áĥĿ
áĥĲáĥĽ áĥĶáĥł
ãģĮ ãģ¨
ãģĮ åĩº
ãģĮ å¿ħè¦ģ
Õ¡Õµ Õ½
Õ¡Õµ Õ¤
Õ¡Õµ Õ¥Õ¬
ÐºÐµ Ð¼
ÐºÐµ Ð¼Ðµ
asi ya
ÏĢÎ¿ Î¯
ÏĢÎ¿ ÏĤ
ÏĢÎ¿ Î¹Î±
Ø¢ Ø´
Ø¢ Ú¯
Ø¢ ÙĪØ±
ç» ĩ
ç» į
ç» ľ
ìĭ Ń
à¤Ĩ à¤¨
à¤Ĩ à¤¸
à¤Ĩ à¤ī
à¤Ĩ à¤ł
à¤Ĩ à¤Ī
à¤Ĩ à¤ªà¤ķ
Ã¤n Ã¤
Ã¤n nÃ¶
mÉĻ z
mÉĻ ni
mÉĻ kt
mÉĻ qsÉĻ
åĩ ¦
åĩ Ģ
åĩ ı
Ð²Ñĭ Ð³Ð»Ñı
áĪĪ áĬķ
áĪĪ áĪ°
Ð¼Ñĸ Ð»ÑĮ
Ð¼Ñĸ Ð¶Ð½Ð°ÑĢÐ¾Ð´
Ð¼Ñĸ ÑģÑĨÐµ
bil a
jen e
å¯ «
Ð°Ð½ ÑĤ
Ð°Ð½ Ð´
Ð°Ð½ Ð³Ð»Ð¸
Ð¿Ð¸ ÑĤ
Ð¿Ð¸ Ñı
ai p
ai he
Ã¨ le
Ã¨ te
Ã¨ ne
Ã¨ ve
Ã¨ res
Ðĵ Ðµ
Ðĵ Ñĥ
Ðĵ ÑĢÐ¾
Ðĵ ÑĢÑĥ
à¤ī à¤²
à¤ī à¤ł
à¤ī à¤¸à¤ķ
áīł áĭį
áīł áīĢ
à´ħ à´°
à´ħ à´®
à´ħ à´ļ
à´ħ à´µà´°
à´ħ à´µà´¨
go j
Úª Ø§
Úª ÙĪ
Î¼Î± ÏĦÎ¹Îº
Å« n
Å« ly
å¿ ½
den gar
áĢ» áĢ¯
ÑĢÐ°Ð· Ð¼Ðµ
ÑĢÐ°Ð· ÑĥÐ¼
Ïİ Î½Î±
æĿ ¾
æĿ Ĥ
Ø§Ø³ Ø±
ÏģÎ¿ ÏĨÎ¿Ïģ
ÏģÎ¿ ÏįÎ½
Õ¸ÖĢ Õ±
Õ¸ÖĢ Õ¸Õ¶
mer o
mer kit
sl am
sl Ã¤
åº «
åº ĵ
åº Ń
ãģĭ ãģĭ
ãģĭ ãģĳ
è¯ ¢
è¯ ¥
è¯ ļ
int re
int elig
ciÃ³n s
ä¸į ä¸Ģ
ä¸į åĪ°
ä¸į å°ĳ
ä¸į æĸŃ
ä¸į éĮ¯
af ec
han i
han y
han di
up an
å¼ Ĥ
è¡ ¡
è¡ £
è¡ Ĺ
è¡ Ŀ
mar ad
eli ja
tor n
tor no
å¥ ¥
å¥ Ī
å¥ ı
à¨¤ à¨®
ill um
bli Å¼
bli ck
vol en
vol le
vol up
vol unt
æĢ Ģ
Ð°Ð» Ð³Ð°
àºª àº²àºĻ
àºª àº²àºĶ
àºª àº²àº¡
Ð³ÑĢÐ° Ð´Ñĥ
Ð³ÑĢÐ° ÑĦÑĸ
cht ing
cht ung
×ĸ ×Ĳ×Ĵ
à¸Ĥ à¸§
à¸Ĥ à¸²à¸¢
à¸Ĥ à¸²à¸§
ite z
mat o
mat er
mat ra
è¨ ª
áī° áĮĪ
ãģĨ ãģ¡
à¸Ńà¸ĩ à¸ģ
az h
az o
mas a
mas Ä±nÄ±
ÐĽ Ñĥ
ìĦ ¼
Ð·Ð¸ ÑĤ
Ð·Ð¸ Ð²
ÑĪÐ¸ Ðµ
ÑĪÐ¸ ÑĢÐ¾
ÑĪÐ¸ ÑĤÐ¸
à¨¦ à¨¸
ãĥ³ ãĤ¹
dis cus
dis positi
des en
des cob
ì§ ¸
à°ħ à°¤
ëĭ¤ ë©´
áĢ½ áĢº
áĢ½ áĢ²áĢ·
ÑģÑĸ Ñħ
ÑģÑĸ ÑĹ
itu al
itu re
itu de
br al
br it
Õº Õ«Õ½Õ«
vÃ¤ lis
áĥĳ áĥļ
áĥĳ áĥĶáĥĵ
áĥĳ áĥĲáĥĹ
ÏģÎ± ÏĤ
fer m
fer Ã°
vy ko
ÑģÐºÐ¸ Ð¹
ÑģÐºÐ¸ Ñħ
à¶¶ à¶¯
à¶¶ à·Ħ
à¶¶ à¶³
Ä±r Ä±
Ä±r Ä±m
ben e
ben Ã©
Ø° ÙĬ
var d
var p
æķ ¦
æķ ĳ
æŃ ¦
æŃ ´
æŃ »
æŃ Ĳ
à®ħ à®£
ãģı ãĤĬ
Ã©r al
Ã©r ation
Ð¶Ðµ Ð¼
Ð¶Ðµ Ð»Ðµ
ÑįÑį Ñģ
Õ¥Õ¬ Õ¸ÖĤ
à¹ĥ à¸ª
ÎµÎ¯ Î¼Îµ
In s
In di
fa at
fa it
fa ol
fa vo
ker s
èĢ ³
à¦ľ à¦°
Ø±ÙĬ Ø±
Ø±ÙĬ Ùħ
ÑĸÐ½ ÑĤÐµÑĢ
ÑĸÐ½ ÑĪÑĸ
áŀĻ áŀĺ
à¹Ĥ à¸ģ
à¹Ĥ à¸¡
à¹Ĥ à¸Ĭ
à¹Ĥ à¸Ħà¸£
à¹Ĥ à¸Ĺà¸£
Ð£ Ð»
å· §
áĥĲáĥķ áĥ¨áĥķ
Õ¸ÖĤÕ¶ Õ¡Õ¯
Õ¸ÖĤÕ¶ Õ¥Öģ
tt et
tt else
Ä° N
Ä° ng
à¬¦ à¬¨
à¬¦ à¬³
str ar
str ut
str ument
Ã¼l er
Ã¼l Åĳ
Ã¼l Ã©s
lan an
lan mÄ±ÅŁ
Ø« Ø§Ø±
àªľ àªµ
ÑĪÐ° ÑĤ
ÑĪÐ° Ñı
ÑĪÐ° Ð¹
ÑĪÐ° Ð°ÑĢÑĭ
col ar
Ò± ÑģÑĭ
ìļ ķ
Ø§Ùģ Ø¹
Ø§Ùģ ØºØ§ÙĨ
áĥĲáĥĵ áĥĿ
ÑĺÐµ Ð²
ÑĺÐµ Ð¼
æľī ä¸Ģ
å½ °
å½ ¹
å½ »
ë§ Ŀ
art eko
Ù¹ Ø§
Ù¹ ÛĴ
Ù¹ Ø±ÛĮ
Ù¹ ÛĮÚ©
à¤« à¤²
áŀĸ áŀĦ
Ð¿Ñĥ ÑģÐ½Ð°
áĭ« áĪĪ
áĭ« áĭĬ
ata vo
Õ«Õ¶ Õ¡Õ¯
Õ¢ Õ¡Õ¶
Õ¢ Õ¡Õª
Õ¢ Õ¥Õ»
à¨µ à¨°
Õ¡Õ¿ Õ¥Õ½
å¤§ å¤ļ
å¤§ åĪĩ
gra de
gra du
ly wood
Ð»ÐµÐ½ Ð°
inter est
inter ven
inter ess
inter preta
à¨ª à¨Ł
cor respon
è§ ¦
Ã´ r
son s
son y
Ð¾Ð½ ÐµÑĢ
ÑħÐ° Ð°
ÑħÐ° ÑĢÐ¸
ÑħÐ° Ð±Ð°ÑĢ
ÑħÐ° ÑĢÐ¸Ð»
sy y
sy st
sy tu
Ø¥ ÙĦÙĬ
ä¿ ±
æĥ Ĭ
ÑĢÑĸ Ñģ
à¦Ĺ à¦°
áĭŃ áīµ
áĭŃ áī½
áĭŃ áĭĪ
áĭŃ áĪħ
Ø§Ø¹ Ø§Øª
æĬ ĺ
æĬ ŀ
Ø§Ùĩ Ùħ
Ø§Ùĩ ÙĬ
áī½ áĪį
pos lu
nu or
nu tie
åĢ ¡
åĢ ¤
åĢ «
åĢ º
à°¬ à°¯
ãģ¯ ãģĦ
pod nik
pod roÄį
pod ruÄį
nik i
Æ° u
ÑĻ ÑĥÐ´
Ô± Õį
áŀħ áŀĶ
ÐĹ Ð¾
ÐĹ Ð´ÑĢÐ°
åĨ ¬
åĨ Ĵ
ê² ¬
à¤ĩ à¤ķ
à¤ĩ à¤¸à¤ķ
Ð»Ñİ Ð±Ñĭ
cion ar
cion ado
mem as
ÓĻ ÑĢ
ÓĻ Ð´Ñĸ
ÓĻ Ð´ÐµÐ±Ð¸
æ³ ¢
æ³ ³
áĬĲ áĮĪ
met a
met abol
å± ¬
å± ı
red it
pas si
pas se
pas Äģk
éĻ ·
éĻ Ĩ
del en
del es
del ic
jed in
jed not
van ja
van ie
éĿ Ļ
à´¶ à´¨
à´¶ à´°
ãģį ãģ¾ãģĻ
à¬² à¬Ĺ
Ð³Ñĸ Ñı
Ð³Ñĸ ÑģÑĤÐ¾
Ð³Ñĸ ÑĩÐ½
ÛĮÙĨ Ûģ
áĮį áĪ«
áĥ¡áĥĲáĥ ¦
áĥ¡áĥĲáĥ Ĵ
áĥ¡áĥĲáĥ Ĺ
Ø§ÙĤ Ø©
ÑĨÐµ Ð¹
ÑĨÐµ Ð»Ð¾
èĩ ¨
àªŁ àª°
àµĢ à´Ĥ
àº« àº²àºĻ
Î¾ ÎµÎº
Ð²Ð°Ð½ Ð½Ñĸ
áĥĶáĥľ áĥĲ
ct us
nÃ© e
sel t
ment al
åĵ ²
ìĸ µ
atu an
ØªØ± Ú©ÛĮ
ØªØ± ÙĨØª
ØªØ± ÙĪÙĨÙĬ
dig t
dig it
Å¾i v
bar u
bar an
áĥ¬ áĥĺáĥĴ
ÑģÐºÐ¾ Ð»ÑĮ
áī¥ áīµ
áī¥ áĪ¨
áī¥ áĪ¨áīµ
áī¥ áĭĻ
len ÃŃ
len de
len Ã¼l
rit ur
tem p
Ð¥ Ñĥ
Ð¥ Ð°ÑĢ
Ð¥ ÑĢÐ²Ð°ÑĤ
ç§ Ģ
ç§ ĭ
Ø§Ø² Ùĩ
uz u
uz ak
kÃ¶ szÃ¶n
àªĹ àª¯
à¨Ĺ à¨²
à¨Ĺ à¨¤
ow o
Îķ ÏĢ
Îķ Î¡
Îķ ÏĢÎ¹
éĥ µ
à®ĩ à®ª
à®ĩ à®Ł
à®ĩ à®µ
Ð´Ð· ÑĸÐ½
ÙĦÙī Ø´
ÙĦÙī Ù¾
ÙĦÙī ÙĤÙī
ÙĦÙī ÙĨÙī
ÉĻt in
äºĨ è§£
rÃ© gi
sin ÉĻ
è´ ¥
è´ «
è´ µ
è´ Ŀ
áĥĺáĥľ áĥĺ
áĥĺáĥľ áĥĿ
ach ten
pat o
áĬ¥ áĪĿ
áĬ¥ áĭį
áĬ¥ áĭµ
ä¸Ĭ ãģĮ
æİ ª
è¾ Ĩ
è¾ ĳ
è¾ ŀ
à¤Ľ à¤¤
ett el
ÑļÐµ ÑĤÐ¾
her bergi
éĽ ¢
éĽ ĳ
åī ©
åī Ľ
ë° Ģ
à¨¼ à©ģ
ãĤī ãģĦ
ãĤī ãģĭ
Ø§Ø´ ÛĮ
ÎºÎ± Î¸
ÎºÎ± Î»Î¿
ÎºÎ± Î¸Î·
cer t
cer tain
à¨¬ à¨²
à¨¬ à¨¦
áĪ¨ áĮĭ
Î½Î¿ ÏĤ
áĮĪ áĬķ
áĮĪ áĪĪ
áĮĪ áī£
áĮĪ áĬĵ
áĮĪ áĬĺ
áĮĪ áĬĻ
à²ħ à²²
à²ħ à²®
à²ħ à²µà²°
à¸²à¸ĩ à¸²à¸Ļ
ÑįÑĢ ÑįÐ³
ÏĢÎ± ÏģÎŃ
æĭ ©
æĭ ¬
æĭ Ĵ
æĭ ĵ
×ķ×ľ ×ķ×ª
Ð»ÑĮÐ½Ð¾ ÑĹ
Pro bl
ÑģÐ¿Ð¾ Ð½
×Ļ×Ļ× ©
×Ļ×Ļ× ĳ
×Ļ×Ļ× ŀ
áĥ£áĥł áĥĲ
bes kri
cy m
hat ikan
æ² ī
kat er
let i
Å£ in
ç´ į
ç´ Ľ
èĥ ŀ
áĥ¤ áĥĶáĥł
áĥ¤ áĥĲáĥ¡
áĥ¤ áĥĿáĥľ
áĥ¤ áĥĺáĥ¥
Õ¡Õ´ Õ¥Õ¶
mÃ¼ dd
tel en
ÐºÑĢÐ° Ð¹
ÐºÑĢÐ° Ñĺ
ÐºÑĢÐ° ÑģÐ¸
áĪ« áĪį
ÙĬØ± Ø§ÙĨ
Î¼Îµ ÏĦÎ±
kr Ã¡
kr Ã¤
kr Ã³
kr Äģ
ou bli
é¡ µ
áĥ¥ áĥĽ
áĥ¥ áĥ¡
áĥ¥ áĥª
à²ļ à²¨
ann t
ann er
ann an
åĩº äºĨ
aut oma
aut onom
ìĺ ¨
hal u
ë¡ ¯
ãģĬ ãģį
ãģĬ ãģĻãģĻ
ÙħÙĨ Ùĩ
ÙĪØ¯ Ø©
ÒĽÐ° Ð¼
ÒĽÐ° Ð»ÑĭÐ¿
ÒĽÐ° ÑĥÑĸ
eb at
sÃ¤ h
ìĥ ī
ÏĦÎ· ÏĤ
ÏĦÎ· Î»Îµ
Ã¼r Ã¼n
sol l
yt ter
Îł Î¿
Îł Î±Ïģ
Îł ÎŁ
åĭ µ
æ¸ Ĳ
æĮ ¥
ëı Į
nie uw
ÑĦÐ¸ Ð½Ð¸
áĢ±áĢ¬ áĢ·
bet eg
gar ant
åİ Ĥ
åİ ĭ
åİ ļ
à°· à°²
áĢ« áĢ·
áĢ« áģĭ
ÙĦÛĮ Ø§
ÙĦÛĮ Ùħ
ÙĪÚ ĥ
ÙĪÚ ı
ÏĦÎ¿ Î¹
ÏĦÎ¿ ÏĢ
Ø§ØŃ ÙĦ
Ø§ØŃ Øª
Ø§ØŃ Ø©
ska i
Õ· Õ¿
Õ· Õ¡ÖĢ
Õ· Õ¶Õ¸ÖĢ
Ø§Ú ĳ
stan ie
Ð±Ñĸ Ð·
Ð±Ñĸ Ð»Ñĸ
áĪĭ áīµ
áĪĭ áįĬ
ÑĩÑĭ Ð³Ð°
ÑĩÑĭ Ð½Ñĭ
ÑĩÑĭ Ð³Ð°ÑĢ
Ä±ÅŁ ma
wo on
wo hl
Õ® ÖĢÕ¡Õ£ÖĢ
çº ³
çº ·
ãģĤ ãĤĮãģ°
Ð´ÐµÐ½ ÑĤÐ¸
áĭ° áĮĭ
Ar ch
Ar chi
lÃ¤ h
lÃ¤ m
lÃ¤ Ã¤
tur p
zn al
zn Ã¡m
zn amen
ãĢ Ĭ
áĢĸ áĢĶ
à²ľ à²¯
ãģł ãģ£ãģŁ
áŀĤ áŀĺ
âĢ ¢
âĢ ĺ
èª ¬
èª °
èª Į
×Ļ×¨ ×ª
Ð¿Ñĸ Ð»ÑĮ
Õ¡Öģ Õ¥Õ¬
Õ¡Öģ Õ¡Õ®
ÙħÛĮ Ú©
ÙĬØ¯ Ø©
Al eks
ft in
ys ÅĤ
ÑĪÑĭ Ð½
ÑĪÑĭ Ð¼
ÑĪÑĭ Ð»ÑĭÒĽ
ÏĦÎ¹Îº ÎŃÏĤ
Ã¸r ing
bel ie
mel y
mel se
pan ia
ÙĪÛĮ ÙĦ
ÙĪÛĮ Øª
ÙĪÛĮ Ø¨
ÑħÐ¸ Ð¼
Å¡i h
Å¡i ch
tak mi
usi as
Ä¯ sta
è² ©
è² ¬
èģ ²
èģ ½
èģ ĸ
enti a
ÑĨÐ¸Ñı Ð»ÑĭÒĽ
fun da
las s
vil a
Ð°Ðº ÑĤÑĭ
Ð°Ðº ÑĤÐ¸Ð²
ØªÙĪ ØŃ
å¤ļ çļĦ
ÑīÐ¸ Ñı
ê¸° ëıĦ
cul os
cul tura
mak sas
mak sud
æ¬ £
à®´ à®¨
áī£ áīµ
áī£ áĪħ
áĥĺáĥĹ áĥ®áĥķ
naj bolj
ä¼ļ ãģĦ
ä¼ļ ç¤¾
ib h
ire ann
Ð¤ Ð¾ÑĢ
è³ £
è³ ŀ
ëł ¹
à¦Ĩ à¦¦
à¦Ĩ à¦ªà¦¨
ÑģÑĤÐ°Ð² ÐºÐ¸
fic e
seg na
à¦ĩ à¦ķ
à¦ĩ à¦¸
à¦ĩ à¦®
à¦ĩ à¦Ł
à¦ĩ à¦īà¦¨
ãģķ ãģĽ
àºŀ àº²àºį
aka an
×ķ×ĵ ×Ķ
Ø¹ÙĦ Ùħ
Ø¹ÙĦ ÙĤ
Ð¿ÑĢÐµÐ´ ÑģÐµÐ´Ð°
Ð¿ÑĢÐµÐ´ Ð¿ÑĢÐ¸Ñı
kul unkulu
pla in
pla at
pla cer
Î£ Î±
çİ ĭ
éļ İ
éļ Ĳ
áĥ§ áĥ£áĥł
Õ¡Õ¼ Õ¸ÖĤÕ´
áī³ áĭĪ
ks jon
Ã®n in
Ã®n ce
Ã®n vÄĥ
kel t
kel uar
wer kt
ç¨ ±
Ð·Ð¾ Ð²Ð°Ð½
sim us
ÎºÎ¿ Î½
ÎºÎ¿ ÏĤ
ÎºÎ¿ Î¹Î½
à¤ªà¤° à¤®
ë¦¬ ìĬ¤
éł »
éł Ĩ
à¶¢ à¶±à¶º
à¶© à¶ļ
ìĭľ ê°Ħ
gal im
gal ven
æ± ĩ
Con s
Con tin
Con sul
Con stitu
ua ir
åķ Ł
à¤¼ à¤¿
à´¬ à´°
ÙħØ¹ Ø±Ùģ
ÙħØ¹ Ø§ÙħÙĦ
Ø§ÙĦØª ÙĤ
Ø§ÙĦØª Ø´
Ø§ÙĦØª Ø¬
Î»Î· ÏĤ
íķĺ ëĭ¤
íķĺ ëĤĺ
íķĺ ëł¤
dy mo
dÉĻ ni
ep is
hr Ã¡
hr ung
pon ud
éĤ ¦
éĤ ®
Ð°Ð´ Ð½Ð¾
Ð°Ð´ Ð¿Ð°
Ð°Ð´ Ð±Ñĭ
Ð°Ð´ Ð¼ÑĸÐ½ÑĸÑģÑĤÑĢÐ°
à±Ī à°Ĥ
ora us
×Ļ×ľ ×ķ×ª
Ò¯Ð½ Ó©
Ò¯Ð½ Ò¯Ð½
pet i
à¤Ī à¤ķ
à¤Ī à¤²
eng ine
ÑģÑĬ Ð¾ÑĤÐ²ÐµÑĤ
Ø§ÙĬ Ø§
Ø§ÙĬ Ø§Øª
Ð·Ðµ Ð¹
áĬĵ áī¸áĭį
Ð½Ð¸Ñı ÑĤ
Ð´Ð°ÑĢ Ð»Ð°Ð¼Ð°
pres s
ÒĵÑĭ Ð¼
Ã» k
Ã» s
Ã» t
å§ ĵ
åģ ·
áĥĶáĥ¡ áĥ¢
áº¿ c
áº¿ ng
bas e
bol i
bol o
fe br
fe ito
sal ari
tek em
áĥĸ áĥł
à¦· à¦¯
à¬Ĩ à¬¨
à¬Ĩ à¬®
à¬Ĩ à¬ªà¬£
ÑĩÑĥ ÑĥÐ´
áĥĿáĥł áĥ¢
ìĸ´ ìļĶ
à¤ĺ à¤Łà¤¨
áĭĪ áĪį
áĭĪ áĭŃ
ÏĥÏħ Î½Î¿
ÏĥÏħ Î¼Î²
ÏĥÏħ Î¼ÏĨ
à»ģ àºĶ
à»ģ àºļ
æĸ¹ å¼ı
ìķĦ ëĭ
ìķĦ ëĭĪ
dzi en
dzi ed
dzi ec
dzi ej
æı ®
æŀ ¶
æŀ Ĳ
à²§ à²°
à¶° à¶±à¶º
áŀĴ áŀĵ
Ø±Ø¯ Ùĩ
áĬŃ áĪŃáĪµ
áĬŃ áĪ«áĪ²
çĶ¨ æĦı
kÃ¤ Ã¤
kÃ¤ yt
kÃ¤ ytÃ¤
yo z
ìĽ ĥ
ìĽ Ķ
à´İ à´Ļ
àª§ àª°
Õ¡Õ£ Õ¥Õ¿
sion al
Ð¿Ð¾Ð´ ÑĢ
Ð¿Ð¾Ð´ ÑĤÐ²ÐµÑĢ
Ð²ÑĸÐ´ ÐºÑĢÐ¸
tÉĻ q
tÉĻ x
tÉĻ dbir
tÉĻ hlÃ¼k
Îļ Î¿
Îļ Ïħ
Îļ Î¬
à´¹ à´¤
à°Ń à°µ
×Ķ×ŀ ×§
×Ķ×ŀ ×¢×¨
áĥĿáĥľ áĥĲ
áĥĿáĥľ áĥĿáĥĽ
dal am
dal Å¡ÃŃ
ich er
jer ne
led ge
Ã² a
Ã² r
å¦ »
å¦ Ļ
ç½ ²
ç½ ļ
ÑĤÑĢ ÐµÐ½Ð¸
ÙĪØ¨ Ø©
áĬ¨ áĪį
áĬ¨ áĪĭ
á»ĩ nh
cat al
cel o
dr ing
fel elÅĳ
fel hasznÃ¡l
Î¤ Î¿Ïħ
Ð¦ Ð¸
éķ ĩ
à¬· à¬£
áĮł áĪŃ
ÐŁÐ¾ Ð»ÑĮ
ãģªãģĦ ãģĭ
AL A
net e
vin de
èĪ ī
à®İ à®£
áŀģ áŀİ
ãĤı ãĤĮãĤĭ
abil ita
yar ad
ÐŃ Ð¼
å£ ĵ
íĻ ©
íĻ į
à´Ĩ à´¨
à´Ĩ à´³
ÑĤÑĢÐµ ÑĤÑĮ
ÑģÐ¿Ðµ ÑĨÑĭÑı
à¬³ à¬¨
áĪļ áĬĴ
Æ°á» ¡
Com pl
bre z
nÄĽ n
nÄĽ jak
åĸ ¶
ëŀ Ģ
ëŀ ľ
à¦ħ à¦¬
àºĬ àº²
áº£ y
áº£ nh
ÑģÑĤÐ²ÐµÐ½ Ð½
ÑģÑĤÐ²ÐµÐ½ Ð½Ð¾Ð¹
hy vÃ¤
my Ã¶
mun ka
æ´ ĭ
è· µ
è· Ŀ
rel sen
rel ation
rel ativ
Ð³Ð»Ð° Ð²Ð½Ð¾
ØªÛĮ Ø§
Ø³Ø± Ø§Ø¦
Ð»ÐµÐº Ñģ
æĪĲ äºĨ
tÃ© c
tÃ© k
tÃ© lÃ©
wan da
Îľ Îĳ
Îľ Îķ
ÕĢ Õ¸Õ¾
é£ ¯
é£ ¾
à·ģ à¶ļ
àªĨ àª¤
àªĨ àªĹ
à¹Ģà¸¥ à¸Ĥ
áºŃ m
ih tiya
kes e
med Å¾ia
nÃ¤ h
nÃ¤ ky
ts Ã¥
ym mÃ¤r
Öĥ Õ¡Õ½Õ¿
Öĥ Õ¸ÖĢÕ±
æ¥ µ
æ¥ ļ
è° ¢
è° ·
è° ĵ
áĢĳ áĢĻ
áĢĳ áĢĬ
ÑģÐ»Ð¾ Ð²Ð°
àªħ àª¤
ÙĨÛĮ Ùħ
ÙĨÛĮ ÙĪ
ÙĨÛĮ Ø§Ø²
Ð±Ñĭ Ð·
×ķ×ŀ ×ª
ÏĢÏģÎ¿ ÏĥÏīÏĢ
dem on
dem and
kam p
kam er
tat Ã³
tat Ã¡s
ç¤ ¼
à¶ĳ à¶±
à¶ĳ à¶½
à¬ļ à¬°
à¬ļ à¬¨
à¨ħ à¨¦
à¨ħ à¨§
à¨ħ à¨®à¨°
sig n
sig t
sig uran
ÑħÑĥ ÑĢÐ°Ð»
ÑħÑĥ Ð´Ð°Ð»
ÑħÑĥ Ð²ÑĮ
Î½Î· ÏĤ
à¸£à¸² à¸§
à¸£à¸² à¸ļ
Ð±Ð°Ð¹ Ð´
Ð±Ð°Ð¹ Ð³Ð°Ð°
Ð±Ð°Ð¹ Ð»Ð°Ð½Ñĭ
Sch w
cam ente
ey Ãª
sem pli
yk si
ÅĦ stwa
çŃ Ĩ
ìĨ Ĳ
ÑģÑĤÐµ Ð¿ÐµÐ½
ria us
ÎµÏħ ÏĥÎ·
æĸ° çļĦ
bra uch
dra ud
war an
Úĵ ÙĪ
à¸© à¸¢
à®ī à®Łà®©
áĥĲáĥª áĥĺáĥĺáĥ¡
à¸Ľà¸£à¸° à¸Ī
à¸Ľà¸£à¸° à¸ªà¸ļ
ÒĵÐ° ÑĤ
ÒĵÐ° ÑĪ
åŃĲ ä¾Ľ
èĩª èº«
é«ĺ ãģĦ
hab a
hab er
æ¶ µ
ë² ½
ë² ł
ì£ ł
áĪħ áĭĿ
Õ¡Õ° Õ¡Õµ
ÑĩÐµÐ½ ÑĮ
×ķ×Ĳ ×Ļ
×ķ×Ĳ ×Ķ
vid ad
vid ent
vid ades
cs Ã¶k
fu ck
fil o
fil os
àª¥ àª¤
ont wikkel
Î¬Î½ ÎµÎ¹
Ú¯ÛĮ Ø§
ÐļÐ¾ Ð¼Ð¿
à¸Ħà¸§ à¸£
ä½ľ çĶ¨
publi ca
ON E
cur s
cur so
dat or
fan o
Ú« Ø±
æģ ĭ
æį ¢
æį Ĳ
Äįn osÅ¥
ÑĨÐ¸ÑĺÐ° ÑĤÐ°
ÑģÐ°Ð½ Ð´ÑĢ
fre i
fre qu
hod not
lÉĻr in
nat je
ç¬ ¦
ç¬ Ķ
çı ł
ëĿ ½
à°Ĩ à°¨
à°Ĩ à°²
à°Ĩ à°¸
à°Ĩ à°¦
×Ļ×ĵ ×Ķ
mod al
mod el
Õ± Õ¶
æħ £
æħ İ
à¸į à¸«à¸²
ÑģÐ¾Ð± Ñĭ
ÑģÐ¾Ð± ÑĢÐ°
stat y
ØªÙī Ø´
×Ļ×Ķ ×Ŀ
medi o
è¿Ļ éĩĮ
200 2
dz im
lam ent
pom i
sv jet
åĤ ¨
åĤ µ
åĤ ·
æ» ĳ
é© ¶
áĥ© áĥķ
cha in
ä¸» è¦ģ
åıĳ çĶŁ
ìĦľ ë¹Ħ
jt Ã«
sek su
tele p
çĿ ¡
íĺ ¹
inst al
inst all
resp ec
ÙĬÙħ ÙĬ
ola ÃŃocht
ÎµÎ½ ÏĦÏģ
ãĥª ãĥ³
ãĥª ãĤ¢
áĥĶáĥĹ áĥĺ
áĥĶáĥĹ áĥĺáĥ¡
dru ga
kun jung
Ù½ Ø±
çĸ «
çĸ ¾
é¦ ¬
Õ¡Õ· Õ«Õ¶
Õ¡Õº Õ¡ÖĢÕ¡Õ¯
ãĤ¯ ãĥ©
Ø¨ÛĮ ÙĦ
Ø¨ÛĮ ÙħØ§Ø±
Ø§Ø¶ Ø§Ùģ
à¹Ģà¸ģ à¸¡
à¹Ģà¸ģ à¸©
Õ¥Õ² Õ¥Öģ
cÉĻ k
gj y
kh idmat
tÃ¶ k
tÃ¶ tt
Ãģ l
åĿ ¦
åĿ Ģ
çĪ ¶
çĪ ·
çĪ ¸
çĪ Ĩ
ÑĤÑı Ñħ
àµ¼ à´ķ
àµ¼ à´Ł
àºĪ àº²àºģ
star fs
stÃ¤ m
stÃ¤ nd
áĪ³ áīµ
áĪ³ áī¥
ÙĩÙħ Ú©Ø§Ø±
×Ĳ×¨ ×ĺ
Ø®ÙĪ Ø´
Ø®ÙĪ Ø§Ø³Øª
ëıĦ ë¡Ŀ
far ma
ling u
ust us
ÄĲ i
ç¢ ¼
à¦« à¦²
ØªÙĤ Ø§ÙĦ
ØªØ¹ Ø¯
áĥĽáĥĿáĥ ¥
áĥĽáĥĿáĥ «
æľĢ å¾Į
æľĢ åĪĿ
à¤īà¤¨ à¤ķ
Mo ham
jar ah
Åł i
æ¼ ¸
æŁ ĵ
æŁ Ķ
Ð¾Ð» Ð³Ð¾
ØªÙħ Ø§Ùħ
ÑĨÐµÐ½ Ð·
Ø§ÙĦØ¬ ÙĨ
Ø§ÙĦØ¬ Ø²
Ã§a ÄŁ
ple x
Åŀ u
Åŀ eh
Ûĭ Ûķ
à²Ĩ à²¤
Ð´ÑĢÑĥ ÑĪÑĤ
àº½ àºģ
àº½ àºĶ
àº½ àº¡
àº½ àº§àºģ
ÙĨØ§ Ú¾
ÐºÐ°Ð½ Ð´Ð¸
×ŀ×© ×ª
×ŀ×© ×Ĺ×§
åħ¥ ãĤĮ
åħ¨ éĿ¢
ÐļÐ° ÑĤÐµÐ³Ð¾
áįĪ áĪĪ
å¾Ĺ äºĨ
fica ciÃ³n
gl ob
jal an
pak t
vÃ¡ ra
ÎĶ Î¹
ÕĨ Õ¡ÕŃ
ÕĨ ÔµÕĲ
åĦ Ħ
çĹ ĩ
ÑĢÑį Ð³Ñĸ
ÑģÐ»Ð° Ð²Ð¸
arti col
itet er
olo Ä£
EL E
èĲ Ħ
éĶ ®
íĥ ģ
íĥ Ŀ
à¶ł à¶±
àª« àª°
inÄģ Å¡ana
ÙĨÙĪ Ø¹
ÙĨÙĪ Ø´
×ķ×¡ ×£
áī¸ áĭĭáĪį
Äįen ÃŃ
Äįen je
áĥĿáĥļ áĥĺ
à¹Ģà¸« à¸Ļ
ÐľÐ° ÐºÐµÐ´Ð¾
jan j
oo yin
pie ej
åĥ ķ
é» ĥ
à°ĩ à°µ
à°ĩ à°ļ
Ø§Ûģ Ø±
Ø§Ûģ ÙĦ
sty r
Ð³Ñį ÑĤÑĭ
itat s
ÑĢÐ°Ñģ ÑģÐºÐ°
ÑĢÐ°Ñģ ÑģÐ¼Ð¾
ÑĢÐ°Ð±Ð¾ ÑĤÐ°
Ó©Ð³ Ñĩ
æĢĿ ãģĦ
ê·¸ ê²ĥ
ê·¸ ëŁ¬
ëĿ¼ ìĿ´
ç· ´
ÑĤÒ¯ Ð¿
à®Ĩ à®°
à®Ĩ à®¯
à®Ĩ à®ļ
àª³ àªµ
ãģ¤ ãģĳ
ÐºÓ© Ð¿
à¬ĸ à¬°
att Ä«
Õ¡Õ¦ Õ¤
ÑĤÐµÑĢÐ¸ ÑģÑĤÐ¸
à»Ĥ àºĹ
Ú©Ø§Ø± Ø¨Ø±
åĲĮ æĹ¶
åĲĮ ãģĺ
bud yn
bud ow
les s
Ã¬ n
Ôµ Õ¾
Ù¼ ÙĪ
Ù¼ Ø§Ú©
æĲ į
æĴ ®
ç¯ ī
éĴ Ī
à¦ı à¦¸
àªı àªµ
àªı àª®
àªı àªŁàª²
ÙĨÙĬ Ø§
×Ļ×ĺ ×Ļ
ÐºÐ¾Ð½Ð¾ Ð¼
kap it
nej ak
ÑĦÑĸ ÐºÐ°
à¤ľà¤¨ à¤¤
parti cipa
parti cular
best Ã¤
gun e
kra j
num mer
num ero
vent il
ÏĪ ÎµÎ¹
ÏĪ ÎµÎ¹ÏĤ
Úı ÙĩÙĨ
è» ¢
è¼ ¯
è¼ ĥ
ëħ ¼
ÑĤÑĢÐ¸ Ð¼Ñĥ
à²İ à²¸
à²İ à²°à²¡
Ð·Ñĸ Ð¼
×ķ×Ĺ ×¨
×ķ×Ĺ ×ĵ
Ø§Ø· ÙĦØ§Ø¹
imi ento
Ð±Ð¾Ð» Ð³Ð¾
Ð±Ð¾Ð» Ð±Ð¾
ëĵ¤ ìĸ´
ëĵ¤ ìĿĺ
St and
lin k
ÛĨ ÙĦ
ë¯ Ģ
ëŁ ī
à¶Ĩ à¶»
à¶Ĩ à¶»à¶ļ
ÑĥÑĢ ÑĮ
Ø³Ùħ Ùī
Ø¨ÙĬ Ø¨
ÑĪÑĥ Ñĥ
poz it
çľĭ çľĭ
Li ber
hÃ¤ l
ore m
uÅ¾ si
ÎĿ Î¿
ÎĿ Îĳ
Òļ Ñĭ
åĶ ¯
èĦ ¸
ÑĤÐ²Ð¾ ÑĢÐ¸
ÙĨØ¬ Ø§
ÙĨØ¬ ÙĬ
ÑĪÑĸ Ð»ÑĸÐº
pot vr
pot ÅĻe
áĥĺáĥĽ áĥĺáĥ¡
à²Ĺà²³ à²¨
ä¹Ł ä¸į
çĽ¸ æīĭ
çĽ¸ åħ³
bro j
jÄģ s
vÄĵ r
ç³ ĸ
Ð´ÑĢ Ð¶Ð¸
Ð¹Ñĭ Ð»
Î¹ÏĥÏĦ Î¿
Î¹ÏĥÏĦ Î¿Ïģ
post op
post up
áĥĺáĥķ áĥĶáĥłáĥ¡
ÑĢÐ¾Ð· Ð²Ð¸
ÑĢÐ¾Ð· Ð¿Ð¾Ð²Ñĸ
ÏĢÎµÏģ Î¹ÏĥÏĥÏĮÏĦÎµÏģ
Ø´ÙĨ Ø§Ø³
Ø´ÙĨ Ø¨Ùĩ
áĥĿáĥĵ áĥĺ
áĥĿáĥĵ áĥĶáĥ¡
ãģĻãĤĭ ãģŁãĤģ
ë¶Ģ ë¶Ħ
ç¾İ åħĥ
dek lar
lÃ© tre
mÃ¶ j
Æı li
çģ µ
çģ ½
çģ ¾
íĮ ¨
íĮ ħ
Ð¾Ðº ÑĤÐ¾
ener g
ener get
à¨ĩ à¨ķ
à¨ĩ à¨²
à¨ĩ à¨¨
à¨ĩ à¨¤
áĪģ áĬķ
áĪģ áĪĪ
áŁī áŀ¼
à¸£à¸£ à¸ĵ
×ĳ×¢ ×ª
àªķàª° àª¤
ë§Ī ìĿĮ
ë§Ī ìĤ¬ì§Ģ
DI A
DI O
som mer
zak e
zak lju
èį ¯
èį ·
èį ī
à¶ĭ à¶´
ÑģÑĤÑĭ ÑĢÑĥ
ãĤ· ãĥ¼
rie ur
à¹Ģà¸ŀ à¸¥
à¹Ģà¸ŀ à¸¨
áº¯ p
Î´Î¹Î± ÏĨÎ¿Ïģ
æīĢ ä»¥
Õ¨Õ¶ Õ©Õ¡Öģ
áĬ¥áĬķ áĮį
ìľ¼ ë©´
pil d
Ã¹ a
Õį Õ¡ÖĢÕ£
æ¿ ĥ
æĩ ·
íļ ¨
Ð°Ð»ÑĮ Ð½Ð°
Ð°Ð»ÑĮ Ð½Ñĭ
Ð°Ð»ÑĮ Ð½ÑĭÑħ
Ð°Ð»ÑĮ Ð½ÑĭÐµ
à¥¦ à¥¦
ole va
×ľ×Ĳ ×ķ×ŀ×Ļ
produ ct
baÅŁ kan
Î¬Î» Î»Î·
ÐľÐ¸ Ð»Ð¾
LI K
TE M
dur um
hÉĻ yat
hÃ¶ g
mÃ¡ la
nor mal
off en
èĻ ĳ
èĻ Ł
anta i
ese en
×ķ×Ľ ×¨
×ķ×Ľ ×Ł
ÏĥÎµ ÏĦÎµ
kaz an
á»ģ m
à¶ļà¶» à¶«
à¶ļà¶» à¶«à¶º
Ð´Ð¾Ð» Ð±Ð¾
Ð´Ð¾Ð± ÑĢÐ¾
Ð´Ð¾Ð± ÑĢÐ¸
Ð¿Ð°ÑĢ ÑĤÐ°Ð¼ÐµÐ½ÑĤ
Î´Î· Î¼Î¹Î¿ÏħÏģÎ³
ä½į ç½®
ÑħÐ¾Ð´Ð¸ ÑĤÑĮ
tas un
tut ul
Úĺ Ùĩ
éŁ ĵ
ì¡ ±
à¬ī à¬ª
à¬ı à¬¸
Ø§ÙĦØ¯ ÙĪÙĦ
×Ļ×ŀ ×Ļ
×Ļ×ŀ ×ª
×Ļ×ŀ ×Ļ×Ŀ
áĬĽ áĪį
áĬĽ áĭį
ÑĤÐ°Ð» Ð³Ð°Ð½
przy pad
à¸ķà¸£ à¸§à¸Ī
áĥĲáĥłáĥĹ áĥ£áĥļ
Pre zi
Pol it
å© Ĩ
æ¢ °
æļ Ĥ
ç¸ ¾
èĮ ¶
Ð´Ñį Ð´
Ð´Ñį Ð¼
ÑĥÐ»Ð° Ð½
ÑĥÐ»Ð° Ð»ÑĤ
ãĤ¿ ãĥ¼
tic os
à¹Ģà¸Ħ à¸£à¸²à¸°
ÙĥÙī Ø±
ÒĽÒ± ÑĢÐ°Ð»
ÐłÐµ Ð³Ð¸
ìŀĪ ìĹĪ
ÛĩØ± ÛĩØ´
çĽ® çļĦ
çī¹ èī²
finan si
finan zi
àºĽàº° àºĹàº²àºĻ
gro up
gro ÃŁ
uw en
ÄĮ es
Ð¾Ð¿ ÑĪÑĤÐµ
Ø§ÙĪ Øª
Ð²ÑĬ ÑĤÑĢÐµ
Ð²ÑĬÑĢ ÑĪ
ÑģÑĤÑĢÐ¾ Ð¸ÑĤÐµÐ»ÑĮ
áĥĲáĥĹ áĥķáĥĺáĥ¡
dest ac
á»ĭ nh
áº§ y
ë§Į ëĤ¨
ä¿Ŀ éĻ©
aÅŁ aÄŁÄ±
ç¡ ¬
èı ľ
ÑģÐ½Ð¸ Ð¼
ÙĨÙħ ÙĬØ©
Õ¡ÖĦ ÖĢ
ÑıÐ½ ÑģÑĮÐº
ament al
Ø§ÙĦÙĥ ÙĦ
Ð¶Ñĥ ÑĤÑĮ
Ð¶Ñĥ ÑĥÐ»
×Ļ×Ĳ ×Ķ
Äģd Ä«t
probl Ã©m
prz ek
prÃ¡ cti
Ð²ÐµÐ´ ÐµÐ½Ð¸Ðµ
Õ°Õ¡Õ¶ Õ±Õ¶
æĸĩ åĮĸ
Î¸Î· ÎºÎ±Î½
áĥŀáĥł áĥĿáĥª
áĥŀáĥł áĥĶáĥĸáĥĺáĥĵ
CI A
Res er
Res pon
pes so
sj Ãº
Ãī r
Ä£ i
ÐĪ Ðµ
ÐĪ Ñĥ
å² Ľ
íħ Ĳ
ÐºÓ©ÑĢ ÑģÓ©ÑĤ
ÙħØ¬ ÙħÙĪ
áĥĶáĥ¢ áĥĺ
ÏĦÎ¹ Î¼
ÐºÐ¾ÑĢÐ¸ ÑģÑĤÑĥÐ²Ð°
á»į ng
à´ªà´° à´®
áĥ£áĥľ áĥĺáĥķáĥĶáĥłáĥ¡
å¹³ æĸ¹
199 0
åķĨ åĵģ
kli ent
pit al
pit Ã¤
tÄ± ÄŁÄ±
Úļ Øª
Û° Û°
ç¿ »
çĬ ¯
àªĪ àª¨
elek tri
elek tro
under sÃ¸
áĭĿ áĮį
×ŀ×¨ ×Ľ×ĸ
à¸ģà¸¥ à¸²à¸ĩ
á»ĥ m
Î´Î¿ ÏĥÎ·
áĤı áĢŃáĢ¯
Her ceg
Or d
cÄĥ tor
god zin
had ap
kÉĻ z
mie st
qar ÅŁÄ±
æ£ Ĵ
çį ²
Ð°Ñĥ ÑĤÐ¾
ÙħÛķ Ùĥ
áĪ© áīµ
áĥĲáĥ¥ áĥķáĥ¡
sik lo
Ð²Ð¾Ð´ ÑģÑĤÐ²Ð¾
Ð²Ð¾Ð´Ð¸ ÑĤÐµÐ»
neces sit
prÃŃ spev
voor beeld
miÅŁ dir
miÅŁ tir
å¥³ æĢ§
àºªàº° àº«àºĻ
Æ°Æ¡ i
Õ¡Õ½Õ¿ Õ¡Õ¶Õ«
mÄĽ sÃŃ
sÃ¶ y
é¥ ®
àªĵ àª¨
Ð³ÑįÑį Ð´
Ð±Ò¯ Ð·
sia al
tech nologi
laÅŁ ma
Ð»Ð°Ð½ ÑĤ
Ð»Ð°Ð½ Ð´
×ľ×¢ ×¦
Õ¯Õ¡ÖĢ Õ¸Õ²
å°ĳ ãģĹ
è¿ĩ ç¨ĭ
è¿ĩ åİ»
Reg i
Reg ist
fon ction
æ¦ ®
ÙħÙī Ø³Ùī
Ø§ÙĦØ± ØŃ
Ð½Ð°ÑĢÐ¾Ð´ Ð½Ð¸
ÏĦÎ® ÏĥÎµÎ¹ÏĤ
Õ¸Õ½ Õ¯
dec is
Ð²Ð¾Ð· Ð¼Ð¾Ð¶
Ð»ÐµÑĤ ÑĸÐ½
æľº æŀĦ
aca ÄŁÄ±
Ø·ÙĦ ÙĤ
ÚĨÙī ÙĤÙī
Ð´Ð·Ðµ Ð¹
æ¯Ķ èµĽ
çİ° äºĨ
Åº ni
Åº dzi
æ½ ®
æ½ ľ
àº¼ àº±
àºĸ àº²àºĻ
áĥĲáĥĻ áĥĲáĥķ
ÎµÎ¾ Î±Î¹
ÑĪÐ¾ Ñŀ
ãĥŃ ãĤ°
ÏĥÏĩ Î¿Î»
à¸Ńà¸² à¸Ī
äº§ çĶŁ
à¸¢à¸Ļ à¸ķ
prin cipal
ãģ«ãģª ãĤĭ
wiÄħ zan
Î±Î½Î± ÏĨÎŃÏģ
éĽ» è©±
Ð¿ÑĸÐ´ Ð³Ð¾ÑĤÐ¾Ð²
ÏĥÏħÎ½ ÎµÏĩ
ç¬¬ ä¸ī
As socia
bak ar
fot ograf
jÃº ci
tÃ¡ jÃ©
Îĵ Î¹
èĨ ł
à´Ĵ à´´
Ã¶s sÃ¤
ÙĥØ± Ø©
ìłģ ìľ¼ë¡ľ
æ°Ĺ ãģĮ
æķĻ èĤ²
Mat eri
fle xi
gÃ¼ nd
gÃ¼ ven
lju b
of ere
Äī e
Äī i
ÎĹ Î£
èĸ ª
àªī àªª
ÑĥÑĤ Ð²ÑĢ
ÑĥÑĩ ÑĢÐµ
ØªÙģ Ø¹
ãĤĦ ãĤĬ
×Ļ×Ĺ ×¡
å®¢ æĪ·
ãģĹãģ¾ ãģ£ãģŁ
Ð¿ÑĢÐ°Ð²Ð¸ ÑĤÐµÐ»
çľŁ çļĦ
éĸĭ åĤ¬
à®ĩà®° à®£
pÅĻÃŃ spÄĽ
Gr und
dro Å¡
euro p
fran c
lji vo
sÃº ly
Õİ Õ«
íŀ ĺ
ÑĤÐµÐ½ ÑĤ
à²ī à²¤
ÑģÐºÑĸ Ð¼
ÙħÛĩ ÙĨ
ãĤ³ ãĥŁ
Ø¨ÙĦ Øº
Ø§ÙĦØ® Ø·
Ð½Ð°ÑĤ Ð¿ÑĢÐµ
á»ķ ng
áĥķáĥļ áĥĲ
áĥķáĥļ áĥĶáĥļ
ÅĽwi ÄĻ
Ak tu
fra ge
nod roÅ¡
vre men
wel at
Ô» Õ¶Õ¹
à¶Ķ à·Ħ
à¶Ķ à¶¶
Õ¶Õ¥Õ¬ Õ¸ÖĤ
×ŀ×ł ×ķ×ª
×ŀ×ł ×Ļ×Ŀ
á»± a
Ø¬Ø± Ø§Ø¡
×ĳ×ª ×Ļ
skri ft
ester ol
Ã¨n cies
ãĤĮãģ¦ ãģĦãĤĭ
ê²½ ìļ°
Pu bl
jÃŃ ma
mot er
wis chen
wak e
ì¦ Ī
ì¦ Ĳ
Ð¸ÑģÐ¿Ð¾ Ð»
stro j
stro kov
Ð¿Ð»Ð¾ Ñī
cher che
Î±Î³ Î±ÏĢ
diff eren
ãĥĲ ãĤ¤
ÏĥÏį Î½Î·
ÙĤØ± Ø§Ø±
ÙĤØ± Ø§Ø·
ÑĤÐµÐ»Ð¸ ÑĤÐµ
zie Äĩ
spre ch
áº· ng
Õ¿Õ¡ÖĢ Õ«Õ¶
ÐľÐµ ÑĵÑĥ
Ð¢Ðµ Ð»Ðµ
ÐĺÐ½ ÑĦÐ¾ÑĢÐ¼Ð°
ÉĻlÉĻr indÉĻ
ë¬´ ìĹĩ
Ni em
hov or
uit ge
Ù» Ø§Ø±
Ù» ÚĮ
éī ´
alim ent
áĪĻ áĪµ
Î±Î¹ Ïģ
áĬĸ áĪŃ
Ø²ÙĬ Ø²
Ð¡Ð¢ Ðĺ
Ð¼Ð¾Ð½ ÑĤ
Ð¾Ð±Ðµ Ð·Ð±Ðµ
Õ¯ÖĢ Õ©
plat s
è¨ĺ äºĭ
Inter na
Î¾Î· ÏĤ
Esp er
Kat eg
Kat egori
was ana
was ili
zan im
ì» ´
ì¼ Ģ
ÑĥÐ´Ð° Ð»
áĪŀ áĬŃáĪ«áĪ²
Ø¯ÙĬ Ø«
Î±ÏĢÎ¿ ÏĨ
Î±ÏĢÎ¿ ÏĦÎµ
Ð½Ð°Ñģ ÑĨÑĸ
Õ¸Öģ Õ«
áĥĺáĥ£ áĥļáĥĺ
Å¡n ja
à¤ªà¤¹ à¤²
Õ¸ÖĤÕ½ Õ¡Õ¶
ÐŁÑĢÐµ Ð·Ð¸
ÑīÐ¾ ÑĤÐ¾
×§×ĳ ×ľ
×§×ĳ ×ķ×¦
×Ľ×ł ×¡
×Ľ×ª ×ĳ
ÎµÏĢÎ¹ ÏĩÎµÎ¹
Minist er
bad il
cop il
dÄĽ t
lal u
Ùº ÙĪ
å¬ ī
Ð¸ÑĪ ÐºÐµ
ÑģÐ¿Ñĸ Ð²
invest ig
invest iga
Ð´Ð½Ðµ Ð²Ð½Ð¾
àº¶ à»Ī
áĪ¥ áĪ«
ÉĻsi z
ÐºÐ¾ÑĤÐ¾ ÑĢÐ¾
×ľ×ĳ ×ĵ
å®¹ æĺĵ
ä»» ä½ķ
ÑģÑĤÐ¸ÑĤÑĥ ÑĤ
Ð´ÑĭÒĽ ÑĤÐ°Ð½
åĳĬ è¯ī
åİŁ åĽł
àºŀàº² àºģ
åı¯èĥ½ ãģ§ãģĻ
Æ°á»Ľ i
ãģ¨ãģĦãģĨ ãģĵãģ¨
Cat al
Ger man
bru g
econ Ã³m
lus s
Ð°Ð½Ð° Ð»Ð¸
à¦ĺ à¦°
anun ci
ãģ¹ ãģ¦
recom enda
iss ement
áĪĮ áĪĭ
ãĤ¦ ãĥ³
ãĤ¦ ãĤ§
Ð¿Ð¾Ð»Ð¾ Ð¶Ð¸
á»§ y
Ø§Ø±ÙĬ Ø®
spec ta
Õ¿Õ¶ Õ¿Õ¥Õ½
Ø¦ÙĬ Ø³
Ø¦Ûĩ ÙĦØ§Ø±
Ø¦Ûĩ ÙĬØº
part ner
Õ¾Õ¥ÖĢ Õ¡Õ¢Õ¥ÖĢ
à¨ķà¨° à¨¦
à´ħà´µ à´³
mark nad
ëĤ´ ìļ©
ãĥĥãĤ¯ ãĤ¹
Æ°á»£ t
aqu ell
aÃ§Ä± kl
dÃ¶ vr
mist Ã¤
ycz ne
ìµľ ê³ł
à°ı à°®
áĢĩ áĢĦ
Ð³Ð´ ÑģÐ°Ð½
Ð·Ð´Ñĸ Ð¹ÑģÐ½Ñİ
Ä±lÄ± m
Ø¨Ø§Ø² ÛĮ
ãĥģ ãĥ£
ãĥģ ãĤ§
áĭķ áĭµ
poten ti
ÏĦÏģÎ¿ ÏĢÎ®
ÑĢÐµÐ³Ð¸ ÑģÑĤÑĢÐ°
Ø¹Ø± Øµ
á»ı ng
Õ¸ÖĤÕ² Õ²
Ø¬Ùħ ÙĬØ¹
cons ci
Ð¼Ð¾Ð¶ Ð»Ð¸Ð²Ð¾
ÐŁÑĢÐ° Ð²Ð¸
Ð±ÐµÐ· Ð±Ðµ
áĥªáĥ® áĥĲáĥĵ
Ø§Úĵ ÛĮÚ©
à¶¢à¶± à¶Ń
ÖħÖĢ Õ¥Õ¶
Por n
dÃ¡ va
kÃµ r
nÃ¸ dven
zim mer
å« Į
é² ľ
éĳ ĳ
ÐºÑĬ Ð´Ðµ
rag gi
ãĤª ãĥ¼ãĥ
ÑĢÐ°Ð¹ Ð¾Ð½
ÑĢÐ°Ð¹ Ð¾Ð½Ñĥ
ãĥĭ ãĥ¥ãĥ¼
kah win
ÎºÎ¬ ÏĢÎ¿Î¹Î¿
Ð±Ð°Ð½ Ðº
Äĥm Ã¢nt
Ð¿ÑĢÐ¾ÑĨÐµ Ñģ
Ð¿ÑĢÐ¾ÑĨÐµ Ð´Ñĥ
compl et
è®° èĢħ
Ð·Ð½Ð°ÑĩÐ° Ñĺ
ÎºÎ±Î» ÏįÏĦÎµÏģ
ÐºÐ¾Ð¼Ð¿Ð° Ð½Ð¸
ÐºÐ¾Ð¼Ð¿Ð° Ð½Ð¸Ñı
ç¢º èªį
ëĲĺ ìĸ´
ëĲĺ ìĹĪ
Slov eni
jul ka
klar t
pÃµ h
Ô¹ Õħ
éı ¡
ëĨ į
Ð¸ÑĢÐ¾ Ð²Ð°Ð½
ÐºÐ»Ð¸ Ðº
à¬ĺ à¬°
à¬ĺ à¬Ł
ÑģÑĤÐ¾ÑĢ Ñĸ
Ð½Ð°Ð´ Ð»Ðµ
áĥĶáĥĻ áĥĿáĥľáĥĿáĥĽ
à´¨à´Ł à´¨
Äįer ven
irk ÉĻt
neh mer
áĥĿáĥª áĥ®
Ð³Ð¾Ð»Ðµ Ð¼
Ð½ÐµÐ¾Ð± ÑħÑĸÐ´
Õ¥Õ¼ Õ¶
ÄĻd zy
ÑĤÑĥÑĢÐ¸ ÑģÑĤÐ¸
à¹ģà¸Ļ à¸°à¸Ļ
è®¤ ä¸º
áĥĶáĥłáĥĹ áĥĺ
áĢ½áĢ± áĢ·
Ø§Ø¹Ø¯ Ø©
Ð¾ÑģÐ¾Ð± ÐµÐ½
ÑĤÑĢÐ°Ð½ ÑģÐ¿Ð¾ÑĢÑĤ
mÃ©ny ek
ÏĪÎ· ÏĨ
ê¹Į ì§Ģ
yhte y
yhte isty
** **
?? ??
Bes ch
Ve Ä¾
mom ent
wil lig
ìº ł
Ð¸ÑĢ Ð³Ñį
ÙĪØ¶ Ø¹
áĥĶáĥ£ áĥļáĥĺ
Ø¹Ùħ ÙĪÙħ
identi fic
prÃ³ bÃ¡l
paÅ¡ vald
ÏĩÎ± ÏģÎ±
ÑģÑĥÑĢ Ð³ÑĥÑĥ
ìłĢ ìŀĳ
Ð±Ð¸Ð» Ð´Ð¸ÑĢ
komun ika
kommun ik
ÐķÐ²ÑĢÐ¾ Ð¿ÐµÐ¹
è§Ħ å®ļ
áĬĲáīł áĪŃ
éĸ¢ ä¿Ĥ
Ð¤ÑĢÐ°Ð½ ÑĨÑĥ
ëłĪ ìĬ¤
Ð´ÐµÑĢÐ¶Ð° Ð²
War sza
sud jel
ted y
tari x
vÃ¦r k
Ã¯ n
Ãİ n
âģ Ħ
èĺ Ń
éĭ ¼
éĲ µ
Ð¼ÑįÐ´ ÑįÑįÐ»
ÙħØ· Ø§ÙĦØ¹
rich ie
ãĥĵ ãĥ¥ãĥ¼
nau jien
Î¼Î¹ ÏĥÎ·
Ú©Ø´ ÙĪØ±
perso on
à¸¥à¸° à¹Ģà¸Ń
Î³Î½ Ïİ
Ø¦ÛĨ Øª
Ð¿ÑĢÐ¾ÑĦÐµ ÑģÐ¸Ð¾Ð½Ð°Ð»
ÑģÑĭÐ½Ð´Ð° ÒĵÑĭ
åķı é¡Į
ç¶ļ ãģį
ÑĤÐ²Ð¾ÑĢ ÑĩÐ°
---- ----
ëĶĶ ìĺ¤
Bun des
fah ren
hend ak
kult ur
nol Ã³g
sn itt
ÕĮ Õ¸ÖĤÕ½
ë´ ī
ëĳ Ĳ
ì¸ ¡
ì¸ ł
Ð°Ð¶Ð¸Ð» Ð»Ð°
à´ı à´¤
à´ı à´±
à´ĺ à´Ł
à®Ĵ à®©
resta ura
liet ot
liet uvi
omo ÅĽci
pozi ci
tec nolog
tava sti
Î¯Îº Î·
ÑİÑīÐµ Ð³Ð¾
å¤ī ãĤı
ä»· åĢ¼
modi fi
modi fic
Õ°Õ¡Õ½ Õ¡ÖĢÕ¡Õ¯
å°¼ æĸ¯
Ð¸Ð½ÑĦÐ¾ÑĢÐ¼Ð° ÑĨÐ¸Ð¾Ð½
áĥĳáĥł áĥ«
ì¶Ķ ì²ľ
àªĨàªª àª£
Universit et
à¥¨à¥¦ à¥Ń
Lat vi
Tu be
dog od
los sen
ous ly
svet ain
é¼ ĵ
ê» ĺ
ÐºÐ¾Ð»Ð¸ ÐºÐ¾
ÐºÐ¾Ð³Ð° ÑĪ
imp eg
ÏĢÏģÎ± Î³
ÏĢÏģÎ± Î³Î¼Î±
Î¼ÏĢÎ¿ ÏģÎ¿Ïį
prost ÅĻed
ØŃÙĤ ÙĬÙĤ
prend re
tren ut
ford ul
ÑĩÐ°ÑĤ ÐºÑĥ
dost ÄĻp
peÅĤ ni
kontr ol
ÑģÐµÐ´ Ð½Ð¸Ðº
åĮ» çĸĹ
yyÉĻ ti
ÕĪÕĴ Ô¹Õħ
bÄĽ r
fÃ¸r t
jÃ¡t sz
sr p
wni os
wÅĤ os
ÑĥÐ½Ð¸ Ð²ÐµÑĢÑģÐ¸
emplo y
à«¦ à«¦
Ã¶ff entlich
Ã¼nd en
Ã¼mÃ¼ z
ÑĢÐµÐ± ÐµÐ½
ÙģØ¶ ÙĦ
Ò¯Ð³ Ò¯
à®¤à®° à®µ
Ð·Ð°ÐºÐ¾Ð½Ð¾ Ð´Ð°Ð²
ÏħÏĢÎ¿ ÏĩÏģ
vec Äģ
áº± m
Ù¾Ûģ ÙĨÚĨ
Ð¾Ð±Ñı Ð·Ð°
×¤×§ ×Ļ×ĵ
çĶ³ ãģĹ
Õ½Õº Õ¡Õ½
Ð²ÑĸÐ¹ ÑģÑĮÐºÐ¾
åįĬ å¹´
Ð±ÐµÑĢÐµ ÑĤÐµ
intÃ© z
diril mÉĻsi
é¢Ĩ å¯¼
éļĽ ãģ«
çµĦ ãģ¿
foly am
foly amat
áĪĨáĬĲ áĭį
Is ra
PR ES
mj ese
sÄħ ly
ìį ¨
Ð°Ð´Ð°Ð¼ Ð´Ð°ÑĢ
ÑģÐ¼Ð° ÑĤÑĢÐ¸
ÑĥÐ´Ð¸ ÑĢÐ´
Ø³Ø³ Ø§Øª
áĥĶáĥ¨ áĥĺ
Ã¼gy i
ÑįÐºÐ¾Ð½Ð¾Ð¼Ð¸ ÐºÐ°
ÎºÏģÎ± ÏĦ
niec Ä«bas
sec und
Ð²Ð¸ÐºÐ¾ÑĢÐ¸ ÑģÑĤÐ¾Ð²Ñĥ
prog res
szem Ã©ly
áº© n
ØµÙģ ØŃ
Ð¿ÑĢÐµÐ´Ð¾ ÑģÑĤÐ°Ð²
Ð¿ÐµÑĢÐµÐ´ Ð±Ð°
ä¹ł è¿ĳå¹³
ÑĢÐ°Ð·Ñĥ Ð¼Ðµ
keres ked
ÏĢÎ±Î¹Î´ ÎµÏħ
zdrav stven
ÐºÐ¾Ð½ÑģÑĥ Ð»ÑĮ
Ð±Ð»Ð°Ð³Ð¾ Ð´Ð°ÑĢ
nÃ¼ ma
xwe y
zwy k
é® ®
ÑĤÓ©Ð» Ó©Ð²
Ð»ÑįÐ³ Ñĩ
Ð¿ÑĬÑĢ Ð²Ð¸
orig in
ÙĨØ§Ùħ Ùĩ
Ð±ÑĬ Ð´Ðµ
ÙĬÙĬ ÙĬÙĬ
adap t
Ø¨Ø±ÛĮ Ø¯
Ø§Ø¤ ÙĨ
naud oj
Ø§ÙĨØª Ø¸
odat Äĥ
×§×ķ×ŀ ×¢×Ł
bibli ot
áįķ áĪ®
áĬłáĭŃ áĭ°
áĥĻáĥķ áĥĺáĥł
è®¸ å¤ļ
è¨± å¤ļ
ë¦½ ëĭĪëĭ¤
Î¼ÎµÎ³ Î±Î»
áĥ¥áĥĲáĥļ áĥĲáĥ¥
Arbe it
çİ¯ å¢ĥ
Ä±ldÄ± ÄŁÄ±
ÑĨÑĭÐ¹ Ð½Ñĭ
Ð¦ÐµÐ½ ÑĤÑĢÐ°
ëįĶ ëĿ¼
profesi on
ìĻ¸ êµŃ
automat ic
ëķĮ ë¬¸
áĪĺáĬķáĮį áĪµ
áĪĺáĬķáĮį áĪ¥
Edu ca
gjen nom
hiz met
rhy w
incl ud
ÙĦØŃ Ø¸
Ã¡ri os
urnal ist
ÑĢÐµÐ´Ð° Ðº
proiz vod
jaw ab
Ð´Ð¾ÐºÑĥ Ð¼ÐµÐ½ÑĤÐ°
andin av
ÑģÑĤÐ°ÑĤÐ¸ ÑģÑĤÐ¸
accom pag
ÑĢÑĥÐºÐ¾ Ð²Ð¾Ð´Ð¸
Äħcy ch
hiri ki
ÑģÐ¸Ð³Ñĥ ÑĢ
áĥĴáĥķ áĥĶáĥł
exec u
áĬłáĪĽ áĪ«
mÉĻs ÉĻlÉĻ
è´£ ä»»
certi fic
malÄ± dÄ±r
Ð¾Ð´ÑĢ Ð¶Ð°
fany ika
áĥĶáĥķáĥł áĥĿáĥŀ
ØªÙĤØ¯ ÙĬÙħ
ÙħØ³Ø¦ ÙĪÙĦ
ÐľÐ¸Ð½Ð¸ ÑģÑĤÐµÑĢ
áĮĢáĪĺ áĪªáĭ«
Ð°Ð²ÑĤÐ¾Ð¼Ð¾ Ð±Ð¸
Ð½ÐµÐ¾Ð±ÑħÐ¾Ð´Ð¸ Ð¼Ð¾
Bla ck
ÐĦ Ð²ÑĢÐ¾
íĪ ¬
Ð°Ð¼ÐµÑĢÐ¸ ÐºÐ°Ð½
Ð¾Ð±Ð° Ð²Ðµ
ÐµÐºÐ¾Ð½Ð¾ Ð¼
ÐµÐºÐ¾Ð½Ð¾ Ð¼Ñĸ
ÐµÑĦÐµÐº ÑĤÐ¸Ð²
à®ĵ à®Ł
Ð´ÑįÐ½ ÑĤ
refle xi
oldu ÄŁ
ÑħÑįÐ¼ Ð¶ÑįÑį
Õ¸Õ¤ Õ¾Õ¡Õ®
decy z
ÑĢÐµÐ°Ð»Ð¸ Ð·Ð°
impin an
seben zi
pert son
ÑĨÐ¸Ð¾Ð½Ð° Ð»ÑĮÐ½Ð¾
Õ´Õ¥Õ¯ Õ¶
àºĻàº° àºĦàºŃàºĻ
comer cial
ÑģÐµÐº ÑģÑĥ
ãģ«ãģ¤ ãģĦãģ¦
trad ition
ãģ§ãģĹãĤĩãģĨ ãģĭ
Ð¸Ð½Ð´Ð¸ Ð²Ð¸Ð´Ñĥ
disponi bil
ÕºÕ¡Õ·Õ¿ Õ¸Õ¶
Ð¿ÑĥÐ½ Ðº
Õ¢Õ¶ Õ¡Õ¯
Õ¡Õ¼Õ¶ Õ¡Õ¬
cles ia
ÑĦÑĸÐ½Ð°Ð½ ÑģÐ¾
Respubli kas
Õ¶Õ¡ÕŃÕ¡Õ£ Õ¡Õ°
deÄŁiÅŁ ik
AzÉĻr baycan
uÄŁ ur
ë· °
ì³ Ĳ
Ð°ÑĪÐ¸ Ð³Ð»Ð°
erb jud
Ð²Ð·Ð° Ð¸Ð¼Ð¾
Ð²Ð½Ñĥ ÑĤÑĢÐµÐ½
Ð¿Ð¾ÐºÑĥ Ð¿Ð°
ÑĢÐµÐºÐ¾Ð¼ÐµÐ½ Ð´Ñĥ
Ã«sis ht
skÃ³ la
áº« n
prÃ¦ sent
Î³Ïħ Î½Î±
Î³Î³ ÎµÎ»
Ð¡ÑĤÑĢÐ° ÑĤÐµ
Ð¿Ð°Ð»Ñĸ ÑĤÑĭ
Ð¼ÐµÐºÑĤÐµ Ð¿
à¸ķà¸¥ à¸Ńà¸Ķ
áĥľáĥĺ áĥĶáĥł
Õ¡Õ¯Õ¥ÖĢ Õº
íķĦ ìļĶ
åĬ¹ æŀľ
áĪĿáĬŃ áĬķáĭ«
æĻº èĥ½
Ð¥ÐµÑĢ ÑĨÐµ
ÏĢÎ±ÏģÎ¿Ïħ ÏĥÎ¹Î¬
Î¼Î¿Ïģ ÏĨ
bash kÃ«
ÏĥÏħÎ³Îº ÎµÎºÏģÎ¹
njeg ov
druÅ¡t ven
Õ¡ÕºÕ¡Õ° Õ¸Õ¾
ÐµÐ²ÑĢÐ¾ Ð¿
ÖħÕ£Õ¿ Õ¡Õ£Õ¸ÖĢÕ®
áĥĴáĥĲáĥĽáĥĿáĥ §áĥĶáĥľ
Ð¼Ò¯Ð¼ ÐºÑĸÐ½
Î´ÏħÎ½Î± ÏĦÏĮ
Ð¾ÑĢÐ¾Ð» ÑĨÐ¾
kÃ©n t
knji Å¾
mÃ©n ÄĽ
spos ob
uÅ¼yt kow
ìª ½
ãģ² ãģ¨
stÃ¤n dig
ØªÛķØ± Ûķ
ÉĻmÉĻk daÅŁ
ÑħÓ©Ð´ Ó©Ð»
Ð¿Ð¾Ð»ÑĮÐ·Ð¾ Ð²Ð°
nabÃŃ d
Å¾up ani
áĢºáĢŃáĢ³ áĢ¸
Ð½ÐµÑĺ Ð·Ð¸
áĥłáĥª áĥĶáĥļ
áº³ ng
áĥ¡áĥĺáĥ¢ áĥ§áĥķ
Ð´ÐµÒ£ Ð³ÐµÐ¹
Õ´Õ· Õ¡Õ¯
à·ĥà¶§ à·Ħà¶±
Ð±Ð°ÒĵÑĭ ÑĤ
nyil vÃ¡n
Õ¯Õ¥Õ¶ Õ¿ÖĢÕ¸Õ¶
ÑģÐ¾ÑĤÑĢÑĥ Ð´Ð½Ð¸
ÑģÐ¸Ð»Ð° Ð½Ð½Ñı
Õ©Õ¾ Õ¡Õ¯Õ¡Õ¶
à¹ģà¸Ľ à¸¥à¸ĩ
guz ti
schn itt
ä¼Ļ ä¼´
Ð°ÑĢÐ³Ð° Ð½ÑĸÐ·Ð°
huom io
áĥ¨áĥĶáĥĵ áĥĶáĥĴ
à®ħà®³ à®µ
grÃ¶ ÃŁ
grÄģ mat
ãģķãģĽãģ¦ ãģĦãģŁãģł
ÎºÎ¿Î»Î¿Ïħ Î¸
à¸¨à¸²à¸ª à¸ķà¸£
ÏĥÏħÎ¼ Î¼Îµ
×Ļ×©×¨×Ĳ ×ľ
iÅŁti rak
âĺħ âĺħ
ãģĶãģĸ ãģĦãģ¾ãģĻ
Î¿ÏģÎ³ Î±Î½
à¦ĺà¦Ł à¦¨
áĥĽáĥ£áĥ¨ áĥĲáĥĿáĥĳ
Ð¼Ð°Ð³ÑĩÑĭ Ð¼Ð°
Î³Î½ÏīÏģÎ¯ Î¶
ãģĭãĤĤãģĹãĤĮ ãģ¾ãģĽãĤĵ
bent uk
citt ad
pami ÄĻ
vÃ¡s Ã¡r
wÅĤa ÅĽci
Ãĥ O
ÃĬ N
Ð½ÓĻ ÑĤÐ¸Ð¶Ðµ
inkl ud
alko hol
Ø±Ø§ÙĬ ÙĪÙĨ
pokra Äį
daf tar
à¸Ńà¸Ńà¸Ļ à¹Ħà¸¥à¸Ļ
Ð¼Ð°Ð°Ð»Ñĭ Ð¼Ð°ÑĤ
Õ¿Õ¾ ÕµÕ¡Õ¬
Ð¿ÑĢÐ¾ÑĤÐ¸ Ð²Ð¾
piem Äĵ
Î²ÎŃÏģ Î½Î·
ÑģÑĸÐ·Ð´Ñĸ Ðº
Ð¶ÐµÑĤÐµÐº ÑĩÐ¸
Ô±Õ· ÕŃ
áĬ¥áĮį áĭļ
besz Ã©l
adien Ä¯
ÙĬØ¯Ùī ØºØ§ÙĨ
áĥ§áĥĿáĥķ áĥĶáĥļ
foy dalan
áĥĿáĥłáĥĴáĥĲáĥľ áĥĺáĥĸ
èĳ£ äºĭ
áĥŀáĥłáĥĿáĥĴ áĥłáĥĲáĥĽ
uÄįin kov
rÉĻh bÉĻr
lÄ«dz ek
zabez pe
Ô¹Õ¸ÖĤÖĢ ÖĦÕ«
áĥ¨áĥĶáĥ¡áĥĲáĥ« áĥļáĥĶáĥĳ
Demok rat
mÃ¼nasi bÉĻt
vler Ã«
Ð²Ð½ÑĥÑĤ ÑĢÑĸ
posam ez
magy ar
Ð·Ð°ÑĺÐµ Ð´Ð½Ð¸
prevÃ¡ dz
Ð¼ÑĥÐ½Ð¸ÑĨÐ¸ Ð¿Ð°
ãģĬãģĻãģĻ ãĤģ
ÒĽÐ°ÑĥÑĸ Ð¿
ìĦľë¹Ħ ìĬ¤
Î´Î¹Î±ÏĨÎ¿Ïģ Îµ
ÕįÕ¡ÖĢÕ£ Õ½
à¹Ģà¸Ħà¸£à¸²à¸° à¸«
áĥ£áĥľáĥĺáĥķáĥĶáĥłáĥ¡ áĥĺáĥ¢áĥĶáĥ¢
Ø¦ÛĩÙĬØº ÛĩØ±
# #
& #
( (
+ +
4 00
7 5
8 2
8 5
8 9
9 4
9 6
< /
< <
> >
A A
A G
A H
A Q
A y
A z
A ar
A ri
A da
A va
A ud
A ber
A par
A ten
A sh
A ff
A th
A val
A ven
A go
A tt
A dd
A bra
A Ã§Ä±
A kh
A udi
A zer
A zad
A gent
B N
B it
B Ã©
B ad
B Ã¤
B li
B ig
B uk
B ele
B au
B all
B Å«
B AL
B akan
B ey
B att
B RE
B aga
B andar
C K
C L
C N
C P
C l
C in
C ad
C ul
C Ã³
C ic
C lo
C ele
C yn
C ard
C AR
C ES
C huy
D H
D V
D h
D or
D un
D ri
D ak
D ÃŃ
D Ã¼
D ut
D um
D ap
D id
D est
D ÄĽ
D av
D au
D isk
D oc
D ER
D AR
D ep
D ub
D RA
D zie
D uit
D aten
D rÅ¾
D PR
D odat
D istri
E E
E I
E t
E y
E z
E or
E ra
E ri
E ro
E si
E ff
E sto
E ile
E ks
E mil
E lis
E dit
E thi
E konom
F C
F R
F S
F T
F U
F en
F at
F al
F it
F as
F un
F em
F iz
F Åĳ
F eli
F eh
F red
F ei
F oc
F Ã¸r
F oto
F unk
F rÃ¥
F rant
F inal
F lug
F erien
G l
G on
G ad
G ed
G os
G ab
G ot
G iz
G ob
G ha
G est
G Ã¶r
G ali
G Ã¼n
G reg
G rat
G jer
G over
G RA
G lav
G lob
H T
H ur
H im
H iz
H ud
H ay
H aj
H Ã¤n
H ei
H ard
H ER
H ost
H vor
H IS
H ey
H oz
H jem
H off
H igh
H aus
H uman
I E
I V
I ta
I na
I sh
I gu
I TA
J P
J y
J ar
J as
J ul
J us
J im
J ab
J og
J ac
J ep
J aw
J eff
J ude
J ack
J ohn
K S
K un
K ro
K ÉĻ
K em
K Ä±
K Ã«
K ati
K Ã¸
K ho
K ara
K ind
K af
K az
K Ã©r
K Ã¡r
K lik
K ost
K ey
K Ã©sz
L C
L T
L es
L et
L om
L ic
L ud
L lo
L op
L ay
L ex
L av
L Ã¤n
L ow
L ei
L oc
L AM
L iter
L abor
L jubl
M H
M L
M M
M P
M U
M ut
M ang
M ig
M ie
M uk
M Ãº
M ec
M ÉĻr
M ali
M ai
M ill
M ani
M AN
M ach
M ER
M ong
M AR
M ost
M Å¯
M ura
M aan
M Å±
M ey
M itt
M att
M uu
N un
N Ã©
N ad
N ÉĻ
N os
N ab
N og
N Ãº
N ec
N Ã¥
N ation
N go
N ett
N ou
N ET
N IC
N ote
N jema
N kulunkulu
O F
O H
O K
O O
O P
O c
O f
O k
O ra
O fer
O kt
O rig
O LE
O yun
P N
P y
P in
P it
P il
P ut
P us
P ang
P ie
P ati
P Ãª
P lu
P ay
P ala
P lan
P Ã¤r
P Ã«r
P ou
P AR
P ey
P RA
P oz
P rÃ³
P RE
P RI
P aÅŁ
P rÃ¤
P ass
P last
Q ay
Q ua
Q ui
R y
R an
R is
R Ã¤
R Ã³
R ot
R og
R est
R end
R ay
R af
R eh
R ef
R ei
R oj
R AT
R ela
R oy
S N
S j
S m
S is
S es
S ed
S Ã¼
S Ã³
S us
S ka
S na
S ter
S iz
S pr
S ant
S he
S pi
S par
S co
S ah
S ell
S ex
S eri
S ven
S por
S pra
S ai
S up
S itu
S var
S und
S Ä°
S ky
S ach
S her
S tel
S ou
S Ã»
S ura
S kri
S pir
S olu
S nap
S tart
S icher
T S
T in
T it
T ro
T Ã¶
T ing
T eg
T Äģ
T ang
T ud
T ok
T ay
T ren
T ill
T ow
T ou
T ip
T AM
T RA
T oo
T rad
T uri
T Ãľ
T uy
U nd
U rz
V at
V re
V it
V es
V Ã¡
V as
V ent
V id
V est
V Ã¡l
V ej
V IS
V ene
V ide
V lad
V Å¡e
V ien
V Ã¤l
V eter
V oki
V Å¡et
V oraus
W N
W h
W or
W it
W est
W ana
W ah
W ell
W ill
W AN
W iki
W szy
W ider
X e
X o
X or
X id
X VI
X ukuum
Y m
Y ak
Y ay
Y az
Y EN
Y AK
Y hte
Z im
Z ap
Z ug
Z AT
] [
^ ^
a at
a um
a je
a ic
a ig
a Äĩ
a Å¥
a sto
a ciÃ³
a ast
a ith
a ÅĤa
a way
a consegu
b s
b ob
b ba
b ÅĤ
b be
b Äħ
b ari
b Åĳ
b ine
b Ã¡n
b ade
b ani
b Ã«r
b har
b aka
b ino
b Ã³l
b ede
b rig
b egy
b eda
b ps
b rik
b Äĥr
c m
c ch
c em
c si
c od
c ter
c sa
c ati
c ali
c ente
c all
c ser
c asi
c enti
c ami
c Å¯
c cio
c ens
c lim
c adh
c able
c tura
c une
c emento
d w
d li
d le
d te
d la
d vi
d ni
d vo
d Ä«
d Äĥ
d Ã¦
d Äħ
d Ãª
d lu
d ho
d Ã¥
d der
d Ã½
d ali
d ili
d ada
d ÅĻ
d ate
d hu
d ning
d isi
d ita
d Å³
d ale
d Ã¼l
d Ã¤r
d rit
d ann
d uni
d hal
d Ä±ÅŁ
d ys
d ami
d ret
d ash
d Ã¬
d á»ĭ
d Åº
d Å¾ia
d ulla
d Ã«sh
e u
e as
e ci
e em
e je
e ja
e id
e ie
e bi
e ind
e yn
e igen
e yay
e cido
e bilir
f ad
f Ä±
f ing
f ni
f ap
f Ã«
f ho
f ell
f ele
f res
f af
f rit
f let
f ys
f ura
f Å±
f eder
f jar
f rig
f Ã³r
f adh
f idh
f uld
f nod
f hÃ©
f lug
f Ã¤hr
g d
g ik
g ic
g iz
g ist
g og
g ga
g Ã°
g ÉĻr
g ali
g all
g isi
g Ã¤n
g Å«
g ala
g Ã¼l
g Ã¤r
g ÉĻn
g reg
g har
g tig
g ema
g dy
g roz
g uma
g ÅĤo
g ono
g elijk
g ÉĻlÉĻ
g Ã©p
g Ãºn
h n
h ent
h ni
h ob
h me
h ant
h Åĳ
h eri
h ale
h Ã¶n
h Ã¤r
h len
h ÉĻl
h Ã¡t
h Ãªn
h Ä±z
h ede
h nya
h á»į
h ÉĻlÉĻ
h jÃ¤r
h kÉĻ
h Ã¦t
h nut
h mot
h iss
h jÃ¤l
i at
i un
i us
i ya
i vo
i wa
i Ã³n
i ento
i fa
i bar
i ona
i ros
i Å¡k
j p
j te
j na
j ov
j ab
j id
j ok
j ana
j ari
j era
j art
j ama
j esi
j Ä¯
j aka
j Ã©n
j unt
j ski
j ukan
j oro
j apan
k vi
k ne
k ia
k iz
k ha
k no
k ati
k ten
k th
k Ä±n
k ina
k ini
k hu
k isi
k ita
k Ã©s
k jen
k ite
k itu
k und
k Ã¼n
k Ã¡r
k Ã¤r
k esi
k ami
k aka
k Ä¼
k Ã¥r
k Ä±nda
k Ã¼t
k obi
k Ã¡nÃŃ
k Ã½m
k huy
k rank
k szta
l f
l h
l il
l om
l ur
l od
l ko
l tu
l end
l Ãª
l Ã½
l Ã®
l ere
l ini
l isi
l Ã¤n
l Å«
l ade
l ata
l Ã¡r
l ise
l ett
l ato
l ako
l use
l Ã¢n
l ÃŃn
l Ã¡m
l ova
l atan
l itt
l umi
l ukan
l Ã³g
l Äĵm
l Ã½sing
m h
m n
m r
m Ä±
m li
m im
m je
m uk
m be
m pa
m pi
m ari
m one
m ation
m bl
m asi
m ica
m by
m bet
m ora
m uta
m Ä±z
m Ä«t
m Äģk
m nen
m obi
m lung
m wana
m Å«s
n k
n w
n z
n te
n ta
n ne
n no
n uk
n ant
n Äĵ
n do
n ÄĹ
n ten
n era
n ite
n ala
n ema
n ega
n Ã¥r
n ede
n oma
n Ã«n
n ande
n atuur
o er
o an
o po
o ja
o ca
o cz
o fi
o we
o ef
o czy
o wych
p f
p ti
p te
p ne
p est
p pa
p ant
p ali
p all
p ade
p tion
p Ã¤r
p yt
p Ã¡t
p tur
p ema
p pt
p ico
p eda
p apa
p Ã¡ly
p fli
q t
q at
q it
q ra
q ad
q ed
q ul
q ir
q ÉĻr
q ada
q Ä±r
q ÉĻt
q ÉĻl
q ish
q ida
q oy
r ni
r and
r Ã³n
r ina
r han
r ite
r und
r Ã¼n
r Ã¡t
r Ã»
r ÉĻs
r Ã¦Ã°
r Åĳl
s zi
s se
s ca
s ny
s mo
s ali
s ven
s ere
s ind
s all
s ser
s iti
s Å«
s ite
s ade
s Ã¤r
s Ã¸r
s ema
s unt
s ula
s my
s vÃ©
s ÅĤo
s ute
s nak
s Ã¦l
s api
s redi
s burg
s Ä«k
s ÄĹk
t le
t ja
t ÅĤ
t ke
t ku
t Ã®
t ente
t ty
t ara
t ind
t Ã¡n
t Ã¨
t Å«
t Ã¼n
t ÉĻn
t atu
t zen
t unt
t war
t Äģd
t ono
t ush
t ÅĻÃŃ
t Ã½m
t Å«ra
t annon
t Å«k
u Å¡
u ang
u hi
u Ã°
u ze
u zy
u red
u yor
u ille
u dia
u Äĩi
u veden
v em
v Ã¶
v Ã³
v im
v Ã«
v ju
v ell
v Ã¶r
v Å³
v Ã¡r
v Ã«r
v Ã¶l
v ato
v zÃ¡
v sem
v ÄĹs
v onal
w b
w d
w eg
w ig
w ok
w Äħ
w ada
w Ã¼n
w Ã¤r
w rit
w aka
w uj
w ith
w elt
w Ã³d
w sze
w prowad
w here
w Ã³j
x y
x er
x on
x il
x as
x Ã¼
x ic
x iz
x av
x ona
x ima
x imo
y p
y ad
y li
y Ã¶
y ka
y na
y iz
y og
y ba
y uk
y ki
y der
y ÉĻr
y asi
y asÄ±
y fir
y ester
y alar
y llÃ¤
y á»ĩn
y á»ģn
y wid
z m
z ol
z os
z da
z od
z zi
z ob
z ku
z Ã®
z ina
z ara
z we
z bo
z ug
z Ã¡r
z ama
z gar
z vÃ½
z bek
z asÄ±
z mÄĽ
z gor
z lep
z odpo
z kou
z wier
z robi
z jist
¨ áĥĺ
© ëĭĪëĭ¤
ª å¼ı
½ ŀ
¾ áī½
Â Ń
Ã Ĳ
Ã ķ
Ã Ŀ
Ä ĸ
Å µ
Å ·
Å Ĳ
Å ķ
Å ĺ
Î ĸ
Ò ĳ
Õ ģ
Ö µ
Ù İ
Ù ı
Ù Ĳ
Ú ¦
Ú ¼
á Ĳ
â ¬
â Ħ
â İ
ê ŀ
ë ¼
ì İ
ì Ĳ
î Į
î Ĺ
î ł
ï ı
ï ĵ
ï ½ŀ
ģ ÙĬ
į ëĭĪëĭ¤
ĵ ãĤ¹
Ķ ëĭ¤
Ļ æ±Ł
Ð° Ðµ
Ð° Ð½Ð¾
Ð° ÐºÐ°
Ð° ÐºÐ¾
Ð° Ð½Ðµ
Ð° Ð±Ð¾
Ð° ÐºÑĥ
Ð° Ð¿ÑĢÐµ
Ð° Ð·Ð¸
Ð° Ð³Ñĥ
Ð° ÑĤÑĢ
Ð° ÑģÐ½Ð¾
Ð° Ð³Ð¸Ð¹Ð½
Ð° Ð»ÑĭÐ½
Ð° ÑĵÐ°
Ð¾ ÑģÑĤ
Ð¾ ÐºÐ¾
Ð¾ ÑĤÐ°
Ð¾ Ð»Ð°
Ð¾ Ð»Ð¸
Ð¾ ÑĤÐ¸
Ð¾ Ð´Ð¸
Ð¾ Ð´Ðµ
Ð¾ Ð½Ñĭ
Ð¾ Ð¿ÑĢÐ¸
Ð¾ ÑĤÑĭ
Ð¾ ÑģÑĥ
Ð¾ ÐºÐ¾Ð½
Ð¾ ÑģÑĤÐ²Ð°
Ð¾ Ð»Ð°ÑĢ
Ð¾ Ð²Ñĥ
Ð¾ ÑģÑĤÑĢÐ¾
Ð¾ Ð¿Ð¸ÑģÐ°
Ð¾ Ð¹Ð»
Ð¾ Ð·Ð½Ð°ÑĩÐ°
Ð¾ ÑĩÑĸ
Ð¾ ÑĨÐµÐ½Ð¸
Ð¾ ÑģÑĤÐ°Ð½Ð½Ñĸ
Ð½ Ð³Ð°
Ð½ ÐºÑĥ
Ð½ Ð´Ñĭ
Ð½ ÑģÐºÐ°
Ð½ ÑįÑĢ
Ð½ ÑįÐ»
Ð½ Ó©Ó©
Ðµ Ñģ
Ðµ ÑĨ
Ðµ ÐºÐ¾
Ðµ ÑĤÐ°
Ðµ Ð³Ð¾
Ðµ ÐºÐ¸
Ðµ Ð¼Ð¸
Ðµ Ð»Ñĸ
Ðµ Ð¼Ñĥ
Ðµ Ð¶Ðµ
Ðµ ÑĢÐµÐº
Ðµ ÑĦÐ¸ÐºÐ°
Ð¸ Ðµ
Ð¸ ÑģÑĤ
Ð¸ Ð»Ð¸
Ð¸ ÑĩÐµ
Ð¸ Ð¹Ð½
Ð¸ ÑĽ
Ð¸ ÑĢÐ¾Ð²
à° ¢
à° Ĭ
à° ĵ
à° Ľ
à° ŀ
ÑĢ Ðº
ÑĢ Ó©
ÑĢ ÑĤÐ°Ð¹
ÑĤ Ð½Ð¸
ÑĤ ÐºÐ¾
ÑĤ Ñİ
ÑĤ ÐµÐ½Ð¸
ÑĤ ÑĢÑĭ
ÑĤ ÑĶ
ÑĤ Ò¯Ð½
ÑĤ Ð²ÑĢ
ÑĤ Ó©Ó©
ÑĤ ÑĢÑĭÐ¼Ð°
à² Ī
à² Ĭ
à² ĵ
en en
en or
en vi
en zi
en sa
en ca
en gan
en sam
en ena
en cji
en gah
en siklo
à¦ Ĳ
Ñģ Ð½Ñı
Ñģ Ð¼Ñĸ
Ñģ ÑĬÑĢ
Ñģ Ð¼Ñĭ
Ñģ Ò¯ÑĢ
Ñģ Ð²ÑĸÐ´
Ñģ Ò¯Ð¹
Ñģ Ó©Ð»
Ñģ ÑĨÐµÐ½
Ñģ Ð¼Ñı
Ñģ Ð²ÑĸÑĤ
Ñģ ÒĽÐ°Ð½
Ñģ ÑħÐµ
Ñģ ÑĩÐ°ÑģÑĤÑĮ
Ñģ ÑĺÐµÐ´
er y
er st
er at
er ra
er ja
er ag
er gi
er var
er ken
er ity
Ø§ ÙĬØ¯
Ø§ Ù¾ÛĮ
Ø§ Ù¹Ú¾
an ar
an as
an ni
an ter
an Äĥ
an Ãª
an ana
an Ä±n
an che
an nu
an mel
an ks
an ima
an lat
an imal
Ð» Ó©Ð»
Ð» ÒĵÐ°
Ð» Ð³Ð°Ð½
Ð» Ò¯Ò¯Ð»
à¶ ¤
à¶ µ
Ð² Ñį
Ð² ÐºÐ¸
Ð² ÑģÐ¸
Ð² ÑĤÐ¾ÑĢ
Ð² ÑĬÐ»
Ð² ÑĢÐ°ÑĤ
Ð² ÑĤÐ¾ÑĢÐ¸
Ð² Ð¿Ð»Ð¸
Ð² Ð¿ÐµÑĩÐ°ÑĤ
in q
in is
in em
in om
in us
in os
in ni
in ov
in zi
in ic
in tÃ¤
in vol
in chi
in Ä¯
in yar
in fan
in medi
in qui
in struk
in spira
in strument
ãģ ¸
ãģ ¼
ãģ ģ
ãģ ľ
Ðº Ð½Ñı
Ðº Ò¯ÑĢ
Ðº Ó©Ð»
Ðº ÑĢÑį
Ðº ÑĢÐ¾Ð²
Ðº Ð»ÐµÑĤ
Ðº ÑĢÑĬ
Ðº Ð»Ð¾Ð½
Ðº Ð»ÑĥÑĩ
Ðº ÑĢÑĥÐ¿
Ðº Ð¼Ó©ÑĤ
Ð´ Ð±Ð°
Ð´ ÑĨÐ°
Ð´ ÐµÐ½Ð¸Ðµ
Ð´ ÐµÐ½Ð¸Ñı
Ð´ Ð²Ñĥ
Ð´ ÑįÑħ
Ð´ ÑģÐ°Ð½
Ð´ Ó©Ó©
Ð´ ÑģÑįÐ½
Ð´ ÑįÑįÑĢ
Ð´ Ò¯Ò¯ÑĢ
áŀ į
à¬ ĥ
ar f
ar z
ar at
ar ÉĻ
ar di
ar ul
ar ing
ar ab
ar to
ar ca
ar do
ar ele
ar ran
ar chi
ar vu
ar dag
ar gent
st ing
st eg
st ir
st uk
st Ã¸
st are
st ation
st ry
st var
st und
st ica
st Ã¤r
st wo
st ora
st abil
st yk
st Ã¥r
st ico
st rek
st rem
st uden
st Ã¼ck
st Ã¡va
Ñĥ ÑĢÐµ
Ñĥ ÑĢÐ¸
Ñĥ ÑĤÐ¾
Ñĥ ÑģÐ°
Ñĥ ÑģÐµ
Ñĥ ÑĺÐµ
Ñĥ Ð½Ð´Ð°
Ñĥ Ð²Ð°Ð½Ð½Ñı
Ñĥ Ð½Ð¸ÐºÐ°
Ñĥ ÑĥÑĢ
Ñĥ Ð¿Ð¾ÑĤÑĢÐµ
Ñĥ Ð´Ð¾Ð²
Ñĥ ÑģÐ¿Ñĸ
Ñĥ Ð´Ð¾Ð²Ð¾
Ñĥ Ð¿Ð¾ÑĤÑĢÐµÐ±
Ñĥ ÑģÑĤÐ¾Ð¹
Ñĥ Ð²ÐµÑĢÐµÐ½
Ñĥ ÑģÑĤÑĢÐ¾Ð¹
Ñĥ Ð·Ð¸Ð¼Ð°
Ð¿ Ñį
Ð¿ ÐºÐ°
Ð¿ ÑĪÑĤÐ¸
Ð¿ ÑĢÑĬ
à¨ ¢
à¨ Ķ
Ð¼ ÑĪÐ°
Ð¼ ÑĺÐµ
Ð¼ Ó©ÑĢ
Ð¼ Ð»Ð°Ð´Ð¸
at al
at as
at ro
at ic
at ja
at ve
at tu
at eri
at bil
at lan
at kar
at Ã§Ä±
at sak
at koz
at ely
at bild
al j
al in
al at
al on
al te
al ni
al ne
al lo
al du
al Ã®
al gu
al ada
al ikan
al nya
al lah
al ahan
al low
on at
on de
on ni
on ce
on lar
on ali
on ica
on ym
on omi
re en
re in
re ch
re ka
re se
re je
re ko
re kom
re go
re mar
re col
re kt
re ken
re tur
re fu
re cent
re stri
re kre
re cen
re bro
re iro
re cep
re prÃ©s
re trou
re coÃ±
Ø± Øª
Ø± ÙĤ
Ø± Ø¹
Ø± Ø©
Ø± Ø³Øª
Ø± Ø§Ø¯
Ø± Ø§ÛĮ
Ø± Ø§Ø¡
Ø± Ø§Ú
Ø± Ø§Ø¬
Ø± ØªØ¨
Ø± Ø§Ù¾
Ø± Ø§Ø¨Ø·
ÙĦ Øµ
ÙĦ Ø§Ø¯
ÙĦ Ø§ÛĮ
ÙĦ Ø¥
ÙĦ Ø§Ø²
ÙĦ ÙĪØ¯
ÙĦ ÙĪÛĮ
ÙĦ ÙĬÙĦ
ÙĦ Ø§Ø«
ÙĦ Ø¦ÛĴ
ÙĦ Ø§Ø´Øª
ÙĦ ÙĨÚ©
à¹ Ĳ
el m
el an
el te
el da
el uk
el ah
el iti
el Ã©r
el abor
el abora
or al
or ra
or ri
or to
or ado
or tam
or ÃŃa
Ñĸ Ð´
Ñĸ Ð³
Ñĸ Ð½Ð¾
Ñĸ Ð½Ðµ
Ñĸ Ð´Ðµ
Ñĸ Ð½Ñĭ
Ñĸ Ò£
Ñĸ Ð´Ñį
Ñĸ ÑģÑĤÐ¾ÑĢÑĸ
Ð³ Ð½Ð°
Ð³ ÑĢÐµ
Ð³ ÑĬÑĢ
Ð³ ÐµÐº
Ð³ ÑįÑħ
Ð³ Ò¯Ð·
Ð³ ÑĢÐµÐ±
ÙĨ ÙĦ
ÙĨ ÙĨ
ÙĨ Ø§Ø±
ÙĨ Ø¦
ÙĨ ÙĪØ±
ÙĨ ÙĪÙĨ
ÙĨ Ø§Ø¹
ÙĨ Ø§Ø²
ÙĨ Ø§Ú©
ÙĨ Ú¯ÛĮ
ÙĨ Úģ
ÙĨ Ø³Ø¨
ÙĨ Ø¨Ø§Ø´
it in
it is
it si
it ÃŃ
it ek
it vi
it ter
it to
it ati
it tu
it ari
it zen
it tele
it zak
it zar
it ario
it tÃ¤Ã¤
it uksen
à¤¾ à¤ĥ
Ð· Ð½
Ð· Ð¼Ð°
Ð· Ð»Ð¾
Ð· Ð²Ðµ
Ð· Ð½Ñı
Ð· Ð¼ÐµÐ½
Ð· Ó©ÑĢ
Ð· Ð´Ð°ÑĢ
Ð· Ð¼Ñı
Ð· Ð±Ð¾ÑĢ
Ð· ÑĢÐ¾Ð±
Ð· Ð³Ð¾Ð»Ðµ
Ùħ Øº
Ùħ ÙĪÙħ
Ùħ ÙħÙĨ
Ùħ Ø³ÛĮ
Ùħ ÙīÙĨ
Ùħ Ø¯Ø§Ø±
Ùħ ÛķÙĨ
Ùħ Ø§Ú»
Ùħ ÙĥÙĨ
ÙĪ Ûģ
ÙĪ Ø§Ø¯
ÙĪ Ø§ÛĮ
ÙĪ ÙĬÙĨ
ÙĪ Ø§Ø´
ÙĪ Ø§Ú
ÙĪ ÙĬØ¯
ÙĪ Ø§Ø¬
ÙĪ Ø³ÙĦ
ÙĪ Ø³ÛĮ
ÙĪ Ø§Ù¾
ÙĪ Ø¡
ÙĪ ØºÙĬØ±
Ñĭ ÑĤ
Ñĭ Ðº
Ñĭ ÑĢÐ°
Ñĭ ÒĽ
Ñĭ Ò£
Ñĭ Ð½Ð´Ð°
Ñĭ Ò£ÑĭÐ·
Ð± Ð»Ð¾
Ð± ÑįÑĢ
Ð± ÑĢÐ¾Ð½
Ð± ÑįÐ»ÑĤ
is l
is ir
is me
is ku
is ki
is ho
is que
is ert
is yon
is chen
is ering
is eksi
is klju
is simo
es o
es or
es ent
es ni
es ia
es ist
es for
es Å¥
es cor
es cri
es clu
es cr
es quer
es senti
Øª Ø§ÙĨ
Øª Ûģ
Øª Ø¦
Øª Ø³Øª
Øª Ø§Ø¦
Øª ÙĨØ¯
Øª Ø±ÙĪ
Øª ÙĪÙħ
Øª Ø¸
Øª ÙħØ¹
Øª Úĵ
Øª Ø§Ú©
Øª Ú«
Øª Ø¬Ùĩ
Øª Ø§Ø±ÛĮ
Øª Ø§Ø«
Øª Ø®ØµØµ
et ur
et im
et ap
et ate
et ako
et kin
ra un
ra zi
ra sta
ra ga
ra mi
ra kt
ra hat
ra ich
ra dio
ra eth
ra ison
ra ient
il j
il m
il et
il um
il im
il ang
il ÉĻn
il ish
il angan
il lah
il yen
áĪ £
áĪ ¦
áĪ ĵ
Ñı Ðº
Ñı Ð³
Ñı Ñĩ
Ñı Ð½Ð°
Ñı ÑĤÑĮ
Ñı ÑīÐ¸
Ñı ÑĤÑį
Ñı Ð²Ð°Ð½Ðµ
Ã¡ le
Ã¡ ig
Ã¡ tu
Ã¡ tor
Ã¡ tt
Ã¡ vanie
as is
as ad
as ÃŃ
as ed
as ka
as eg
as se
as ha
as sz
as sin
as sol
as aan
as sum
ÛĮ Ø¨
ÛĮ Ûģ
ÛĮ ÙĪÙĨ
ch st
ch el
ch is
ch em
ch ed
ch ut
ch ov
ch ap
ch ung
ch sen
ch cia
ch ste
ch Ã¨
ch sel
ch ron
ÙĬ Ø§Ùħ
ÙĬ ÙĬÙĨ
ÙĬ ÙĪÙħ
ÙĬ Ø¤
ÑģÑĤ ÐµÐ½
ÑģÑĤ Ñį
ÑģÑĤ ÑĢÑĭ
ãĤ ¼
ãĤ ĩ
un ti
un ik
un ha
un tu
un ki
un ty
un cia
un aan
Ã© f
Ã© j
Ã© ch
Ã© si
Ã© ma
Ã© se
Ã© tu
Ã© tr
Ã© vel
Ã© let
Ã© sia
Ã© tica
áĥĺ áĥĶáĥłáĥĹ
ol s
ol ak
ol ur
ol ik
ol va
ol Ã¡s
ol tre
ol ema
ol fan
ol duk
ol muÅŁ
ol impi
ol maya
Ø¯ Øª
Ø¯ Ø³
Ø¯ Ø§Øª
Ø¯ Ø§Ø¦
Ø¯ ÛĴ
Ø¯ Ø±ÙĬ
Ø¯ ÙĬÙĨ
Ø¯ Ø§Ø¡
Ø¯ ÙĨÛĮ
Ø¯ ÙĩÙħ
Ø¯ ÛķÙĨ
Ø¯ ÙĤÛĮ
ad ver
ad av
ad van
ad ult
ad qui
ad vers
ad resse
à¤° à¤¬
à¤° à¤¹à¤°
à¤° à¤ªà¤¤
ri on
ri re
ri Ã°
ri mo
ri bu
ri kt
ri ye
ri cor
ri jk
ri voj
ri conos
am p
am al
am el
am Ã©
am ak
am us
am Äģ
am ia
am man
am ry
am mat
am ise
am pla
am atan
am bul
am bah
Ã¤ re
Ã¤ te
Ã¤ tÃ¤
Ã¤ Å¥
Ã¤ Ã¤r
Ã¤ ksi
ÑĢÐ° Ð³
ÑĢÐ° Ð½Ðµ
ÑĢÐ° Ð¶Ð°
ÑĢÐ° ÑģÐº
ÑĢÐ° ÑĩÑĥ
ÑĢÐ° ÑģÑĤÐµ
ÑĢÐ° ÑĤÑĭÐ½
ro h
ro on
ro de
ro va
ro ko
ro me
ro bu
ro dy
ro din
Î± ÏĦ
Î± Î¼
Î± Î´
Î± ÎµÏģ
Î± ÏģÎ¹
Î± ÏĢÎ±ÏģÎ±
Î± ÏĨÎ®
Î± ÎºÎ¿Ïį
Ñĩ Ó©Ð»
Ñĩ Ð¾Ð³Ð¾
Ñĩ ÑĢÐµÐ·
ci k
ci an
ci st
ci re
ci ut
ci id
ci ÅĤ
ci kl
ci jel
ci fic
ci eka
ci endo
×ķ ×ķ×Ĺ
ti j
ti o
ti an
ti et
ti em
ti vi
ti ka
ti ÄŁ
ti ga
ti mi
ti do
ti den
ti jel
ti ks
ti iv
ti ques
ti zim
ÉĻ ti
ÉĻ ÅŁ
ÉĻ ks
ÉĻ raz
ÉĻ bÉĻ
ÉĻ traf
ÉĻ vvÉĻl
di x
di el
di et
di ad
di um
di kan
di min
di go
di kt
di del
di ken
di rit
di chi
di yor
di dat
di rig
di rek
di vers
di rektor
em d
em it
em be
em isi
em pel
em ple
Ä± s
Ä± da
Ä± ÄŁÄ±nÄ±
li an
li es
li Å¡
li da
li ka
li ca
li der
li do
li Å³
li ht
li hat
li dh
li eto
li yin
li bert
li jke
li elÄģ
áĥĲáĥ §
áĥĲáĥ Ł
Î¿ ÏĢ
Î¿ Î³
Î¿ Î½Î¿
Î¿ Î´Î¿
ÐµÐ½ ÑĤÐ°
ÐµÐ½ ÑĨÐ¸
ÐµÐ½ Ð½Ñı
Ø³ Ûģ
Ø³ ÙĪÙĨ
Ø³ Ø±ÙĬ
Ø³ Ø±Ø¯
Ø³ ÛĨ
Ø³ ÙĨØ¬
Ø³ ÛĪØ±
Ø³ Ø§Ø®Øª
Ø¨ Ùī
Ø¨ Ø©
Ø¨ Ûĩ
Ø¨ Ø§Ø¨
Ø¨ Ø§Ø¹
Ø¨ Ø§ÙĤ
Ø¨ ÙĦÛĮ
Ø¨ Ø³ÛĮ
Ø¨ Ø³ÙĬ
Ø¨ Ø§ÙĦÙĤ
Ø¨ ÛķØª
Ø¨ ÙĬÙħ
Ø¨ ÙĨÙĬ
Ø¨ Ø§ÙĨÛĮ
Ø¨ ÙĦØ§
Ø¨ Úĳ
Ø¨ ÙĦÙĪ
Ø¨ ÙĪØª
Ø¨ ÙīÙĦ
Ø¨ ÚĳÚ¾
áŁ ĸ
à« ī
Îµ Ïĥ
Îµ Î¼Î²
om n
om eter
om ogu
om ogoÄį
ÑĨ Ð²Ðµ
ÑĨ Ð¾Ð¼
ÑĨ ÑĨÑĳ
Ø§ÙĦ Ø¶
Ø§ÙĦ Ø§Ø´
Ø§ÙĦ Ø§ØŃ
Ø§ÙĦ Ø³Ø±
Ø§ÙĦ ÙĨÙĩ
Ø§ÙĦ ÙĦÙĩ
Ø§ÙĦ ÙĬØ§
Ø§ÙĦ ÛĮØ§
Ø§ÙĦ ÙĪØ·
Ø§ÙĦ ØªØ±Ùĥ
Ø§ÙĦ Ø§Ø¬ØªÙħØ§Ø¹
Ø§ÙĦ Ø§ÙĤØªØµ
Ð¶ Ð´Ðµ
Ð¶ Ð±Ð°
Ð¶ Ð½Ñı
Ð¶ Ð¾Ñģ
Ð¶ Ð½ÑĭÑħ
Ð¶ Ð¾Ð³Ð¾
Ð¶ Ð»Ð¸Ð¹Ð½
Ð¶ ÐµÐ½Ð¸Ð¹
ÑĮ Ñı
ÑĮ Ð¾ÑĢ
Ð¹ Ð½Ð¾
Ð¹ Ð´Ðµ
Ð¹ ÑģÑı
Ð¹ Ð´Ñĭ
Ð¹ ÐµÐ»
Ð¹ ÑĪÐ¾Ñŀ
ak Ä±
ak ka
ak ati
ak ty
ak tion
ak kor
ak ukan
ent ro
ent end
ent ado
ent ren
ent ukan
ent sprech
Î¹ ÏĥÎ·
Î¹ Î´Î¹Î±
Î¹ ÏĩÎ½
Ð½Ð° Ð²Ð°
Ð½Ð° ÑĢÐµ
Ð½Ð° ÐºÐ¾
Ð½Ð° ÑĦ
Ð½Ð° Ð»Ðµ
Ð½Ð° Ð¼Ð¸
Ð½Ð° ÑģÐ¸
Ð½Ð° Ð¿Ð¸
Ð½Ð° ÑĪÐ¸
Ð½Ð° ÑĪÐµ
Ð½Ð° Ð¹Ñĭ
Ð½Ð° Ð¼ÐµÑĢ
Ð½Ð° ÑģÐ»ÐµÐ´
Ð½Ð° ÑıÐ²
Ð½Ð° ÑĪÐ¾
Ð½Ð° ÑĥÑĩ
Ð½Ð° ÑĨÑĭÑıÐ½Ð°
àŃ ©
àŃ «
áī ·áĪį
si er
si ch
si us
si ir
si va
si kan
si mu
si cu
si bil
si ker
si oni
si kring
Ñħ Ñı
Ñħ ÑĤÐ¾
Ñħ Ó©ÑĢ
Ñħ Ó©ÑĤ
Ñħ Ð²Ð°ÑĤÐ¸
Ñħ ÑĢÐ²Ð°ÑĤ
Ñħ Ð»Ð¾Ð¿
à¸² à¸Ľ
à¸² à¸ŀ
à¸² à¹Ģà¸£
ÃŃ c
ÃŃ d
ÃŃ as
ÃŃ ta
ÃŃ os
ÃŃ do
ÃŃ cia
ÃŃ cio
ÃŃ fica
ÃŃ omh
ÃŃ bÃº
ÑĪ Ñį
ÑĪ Ð»Ð°
ÑĪ Ð½Ñı
ÑĪ ÑĤÑĭ
ÑĪ Ð»Ñı
ÑĪ Ð¾Ð³Ð¾
ÑĪ Ð³Ò¯Ð¹
ÑĪ ÑĤÐ²Ð°
ÑĪ ÑļÐ¸
ÑĪ ÑĤÐµÐ½
ÑĪ ÑĩÑį
ed s
ed ar
ed el
ed ell
ed ere
ed Ã¬
ed inte
ed ral
Ð²Ð° Ðµ
Ð²Ð° Ð²
Ð²Ð° Ñĩ
Ð²Ð° Ñİ
Ð²Ð° Ð»ÑĮ
Ð²Ð° ÑĪÐ¸
Ð²Ð° Ð³Ñĸ
Ð²Ð° Ð¶ÐµÐ½
Ð²Ð° ÑİÑĤ
Ð²Ð° Ð¶Ð½Ð¾
Ð²Ð° ÑĢÐ¾ÑĤ
Ð²Ð° Ð½Ð¸Ð¸
Ð²Ð° Ð·Ð´Ñĥ
ÖĢ Õ¥Õ¶
ÖĢ Õ¥Öģ
ÖĢ Õ¡Õ¶ÖĦ
ÖĢ Õ¸ÖĤÕµÖģ
ãĥ ¨
ãĥ ĺ
×Ļ× ¥
à¤¨ à¤ª
áĥĶáĥ ŀ
áĥĶáĥ Ł
áĥĶáĥ Ń
áĭ ¬
áĭ Ĳ
Ïģ ÏĦ
Ïģ ÎµÎ¹
Ïģ ÎµÎ¯Î±
po c
po i
po vi
po sz
po tr
po tri
po hod
po Å¼y
po vz
po ÅĤÄħcz
po vaÅ¾
po ÅĽred
po puli
po Å¡kod
po chop
ÏĦ ÏģÎ¹
ÏĦ Î¿ÏħÏĤ
ÏĦ Î¹ÏĥÎ¼ÏĮ
Ã¶ i
Ã¶ st
Ã¶ ne
Ã¶ nd
Ã¶ vl
Ã¶ gon
ur n
ur en
ur ar
ur at
ur us
ur te
ur ta
ur me
ur gi
ur ism
ur usan
à¤ķ à¤¥
à¤¤ à¤¦
à¤¤ à¤¥
ul at
ul as
ul ad
ul ang
ul Ã¡s
ul tim
ul ette
Ã¼ ne
Ã¼ sÃ¼
à¤¿ à¤ĥ
ek te
ek zi
ek tor
ek ben
ek tiv
ek ster
ek uwa
Ùĩ Ø¨
Ùĩ Ø§ÙĨ
Ùĩ Øº
Ùĩ ÛĲ
Ùĩ Úª
Ùĩ ÙĬÙĨ
Ùĩ ÙĪØ¯
Ùĩ ÙħØ§ÙĨ
Ùĩ Ø±Ø¨
Ùĩ ÙĦÙĬ
Ùĩ Úħ
Õ¸ ÖĦ
Õ¸ Õ©
áĬ ¾
áĬ ħ
Ñį Ð¶
Ñį ÐºÐ°
Ñį ÑĤÐ°
Ñį Ð»Ð¸
Ñį ÑĤÐ¸
Ñį Ð½Ðµ
Ñį Ð¼Ð¾
Ñį Ð»ÐµÐº
Ñį ÐºÐ°Ð½Ð°
Ñį ÑĤÐ¾Ð¼Ñĥ
Ð½Ð¾ Ð³Ð¸
Ã³ b
Ã³ ta
Ã³ Ã°
Ã³ rio
Ã³ rico
Î½ Î´
Î½ Ïī
Î½ Î¯Î±
Î½ ÎµÏĤ
ut z
ut ti
ut Ã³
ut up
ut vik
us er
us ch
us us
us se
us ha
us lu
us unda
us pje
Ð½Ð¸ ÑĢ
Ð½Ð¸ Ñģ
Ð½Ð¸ Ð²
Ð½Ð¸ Ð·
Ð½Ð¸ ÐºÐ¸
Ð½Ð¸ Ð¼Ð¸
Ð½Ð¸ ÑĤÑĮ
Ð½Ð¸ ÐºÐ¾Ð²
Ð½Ð¸ ÑĨÑĤÐ²Ð°
áĥĺáĥ ¤
áĥĺáĥ ¯
áĥĺáĥ Ń
Ð¿Ð¾ Ð¼
Ð¿Ð¾ ÑĤÐµ
Ð¿Ð¾ ÑħÐ¾
Ð¿Ð¾ ÑģÑĤÐ¸
Ð¿Ð¾ ÑĻ
Ð¿Ð¾ ÑĤÐµÑĢ
Ð¿Ð¾ ÑģÐ»Ñĥ
Ð¿Ð¾ ÑģÐ¾Ð±
Ð¿Ð¾ ÑģÑĤÐ°Ð½Ð¾Ð²
Ð¿Ð¾ ÑĩÐµÑĤ
Ð¿Ð¾ ÐºÐ°Ð·
Ð¿Ð¾ ÑĢÐ¾Ð´Ð¸
Ð¿Ð¾ Ð¼Ð¸Ð½Ð°
Ð¿Ð¾ Ð¼Ð°Ð³Ð°
Ð¿Ð¾ Ð²Ð¸Ð½
Ð¿Ð¾ Ð¼Ð½Ð¸
Ð¿Ð¾ Ð¿ÐµÑĢÐµÐ´
Ð¿Ð¾ ÑģÐ»ÐµÐ´Ð¸
Ð¿Ð¾ ÑģÐ¸Ð»Ð°Ð½Ð½Ñı
à´ķ à´ļ
à¤¸ à¤¹à¤°
à¤¸ à¤Ĺà¤³
ik en
ik on
ik um
le b
le e
le o
le v
le ar
le st
le di
le ik
le gen
le ye
le cti
le ction
le diÄŁi
le hek
ÑĢÐ¾ Ð¾
ÑĢÐ¾ ÑĢ
ÑĢÐ¾ ÑĪÐµÐ½
ÑĢÐ¾ Ð¿ÑĢÐ¸Ñı
de g
de o
de u
de x
de di
de ut
de vi
de va
de ver
de ber
de por
de jav
de ithas
à¸Ļ à¸ģ
à¸Ļ à¸¡
à¸Ļ à¸ģà¸²à¸£
à¸Ļ à¸²à¸Ļ
à¸Ļ à¸²à¸ĩ
à¸Ļ à¸Ńà¸¢
à¸Ļ à¹Ģà¸Ķ
à¸Ļ à¸Ńà¸ģ
à¸Ļ à¹Ģà¸ķà¸Ńà¸£
ing ton
ing inkan
à¸£ à¸Ķ
à¸£ à¸ª
à¸£ à¸«
à¸£ à¸²à¸¡
à¸£ à¸§à¸Ķ
te i
te j
te o
te v
te z
te in
te et
te ad
te Å¾
te va
te ig
te ck
te ita
te ore
la i
la an
la it
la ch
la us
la Ã°
la hat
la ub
la pis
la gun
la ÅŁÄ±
la ps
la yÄ±b
ä¸ °
ä¸ Ī
Å¡ el
Å¡ ti
Å¡ im
Å¡ lo
Å¡ ali
Å¡ ina
Å¡ Äįi
Å¡ nji
Å¡ enie
Å¡ Äįa
Å¡ taj
Ïĥ Î®
Ïĥ Î¼Î±
Ïĥ Ïİ
Ïĥ Î¼ÏĮ
ÑĢÐµ Ð°
ÑĢÐµ ÑģÑĤ
ÑĢÐµ ÑĨ
ÑĢÐµ Ð¹
ÑĢÐµ Ð»Ð°
ÑĢÐµ ÑģÐ°
ÑĢÐµ ÑĴ
ÑĢÐµ Ð°Ð»ÑĮÐ½Ð¾
ÑĢÐµ ÑĨÐµÐ¿
ÑĢÐµ Ð¼ÐµÐ½Ð½Ð¾
ÑĢÐµ ÐºÐ¾Ð½ÑģÑĤÑĢÑĥÐº
ta al
ta ÅŁ
ta ot
ta Äĩ
ta val
ta ciÃ³n
ta vol
ta get
os kop
um p
um is
um ul
um za
um bi
um lu
um ani
um pul
ÐºÐ° Ð¾
ÐºÐ° Ð´Ð°
ÐºÐ° Ð¼Ð¸
ÐºÐ° ÑĤÑĭ
ÐºÐ° Ð¼Ñĸ
ÐºÐ° Ð·Ð½Ð°
ÐºÐ° Ð½Ð°Ð»
ÐºÐ° Ð·Ñĭ
ÐºÐ° Ð·ÑĭÐ²Ð°
ÐºÐ° ÑĤÑĭÑĪ
ÐºÐ¾ Ð²Ñĸ
ÐºÐ¾ Ð¾ÑĢ
ÐºÐ¾ Ð²Ñĭ
ÐºÐ¾ Ð¶Ð½Ð¾
ÐºÐ¾ Ð¾Ð¼
ÐºÐ¾ ÑĢÐ¾ÑĤ
ÐºÐ¾ Ð¼ÐµÐ½ÑĤÐ°
ÐºÐ¾ Ð³Ð´Ð°
ÐºÐ¾ Ð²Ð¸ÑĽ
ÐºÐ¾ Ð²Ð¸Ñħ
ÐºÐ¾ Ð¼Ð°Ð½Ð´Ð°
im it
im un
im se
im par
im ana
im Å³
im iy
im enti
im mag
im enta
im peri
im assa
im prov
im edia
ÑĤÐ° Ñĥ
ÑĤÐ° Ñı
ÑĤÐ° ÐºÐ°
ÑĤÐ° Ð»ÑĮ
ÑĤÐ° ÐºÐ¸
ÑĤÐ° ÐºÑĸ
ÑĤÐ° ÑĨÐ¸Ñı
ÑĤÐ° Ð±Ð»Ð¸
ÑĤÐ° ÐºÑĤ
da ad
da va
da ag
da ga
da gen
da fi
da gan
da go
da Å¥
da van
da Ä¼
da ble
da uer
ÙĤ Ø¹
ÙĤ Ûķ
ÙĤ Ûĩ
ÙĤ Ø§Ø²
ÙĤ ØªÙī
ÙĤ Ø³Ùħ
ÙĤ ÙĩØ±
à¤® à¤®
à¤® à¤¯
ÑĢÐ¸ Ñģ
ÑĢÐ¸ ÑģÑĤ
ÑĢÐ¸ ÐºÐ°
ÑĢÐ¸ ÑĺÐµ
ÑĢÐ¸ ÑĩÐ½Ð¾
Ð»Ð° Ð´Ð°
Ð»Ð° Ð½Ñĥ
Ð»Ð° Ð°ÑĢ
Ð»Ð° Ð°Ð½
Ð»Ð° ÑĪÐ°
Ð»Ð° Ð¹Ð½
Ð»Ð° Ð³ÑĭÐ½
×Ķ ×ķ
×Ķ ×ķ×ľ
×Ķ ×ķ×ĵ
×Ķ ×¢×¨
×Ķ ×Ļ×ľ
×Ķ ×ĳ×¨
×Ķ ×ķ×¤
×Ķ ×ķ×¦
×Ķ ×ĳ×Ĳ
×Ķ ×§×¨
×Ķ ×Ľ×ľ
×Ķ ×ĺ×ķ×ĳ
Äį an
Äį ar
Äį el
Äį ka
Äį ist
Äį kov
Äį lov
Äį nosti
Äį ÃŃs
à¤² à¤°
à¤² à¤¸
ÑĤÐµ Ñģ
ÑĤÐµ Ñĥ
ÑĤÐµ Ð¶
ÑĤÐµ ÐºÑĥ
ÑĤÐµ Ð»Ð¾ÑĤ
vi u
vi ra
vi em
vi ed
vi ga
vi ven
vi Å³
vi br
vi zu
vi dÃ©
vi ena
vi ens
vi eto
ka v
ka ap
ka Ã§
ka za
ka sta
ka pas
ka pal
ka inen
Îº ÏĦ
Îº ÎŃ
Îº ÎµÏģ
Îº Î»Î¿
Îº ÏģÎ¯
Îº Î¹Î½Î®
Îº ÎµÎ½ÏĦÏģ
Õ¶ Õ¡Õ¯
Õ¶ Õ¡Õ½
Õ¶ Õ¡Õ´
Õ¶ Õ¯Õ¡ÖĢ
Õ¶ ÕµÕ¸ÖĤÕ©
Ð´Ð° ÑĤÑĮ
Ð´Ð° ÐºÑĥ
Ð´Ð° ÐµÑĤ
Ð´Ð° Ð¼Ñĥ
Ð´Ð° Ð²Ð½Ð¾
Ð´Ð° Ð¹Ñĭ
Ð´Ð° ÑĢÑĭÐ½
Ð´Ð° Ð¹ÑĭÐ½
Ùī Ø³
Ùī Ø¯Ûĩ
Ùī ÙħÙīØ²
à¤¯ à¤¸à¤®
à¤¯ à¤¸à¤ķ
ni ed
ni us
ni Å¾
ni je
ni za
ni sta
ni vel
ni cy
ni ekt
eg l
eg al
eg el
eg ung
eg aan
eg ym
eg gia
Ø¹ Ø²
Ø¹ Ø§ÙĦÙħ
Ø¹ ÙĦÙī
Ø¹ Ø¸
Ø¹ ÙĨØ§
Ø¹ ÙħØ¯
Ø¹ ÙħØ§ÙĦ
Ø¹ Ø§Ø¯Ø©
na a
na an
na ye
na ast
na ved
na veg
na vig
na viga
ir g
ir at
ir Ã¡
ir ani
à¶± à¶Ń
à¶± à¶ľ
×¨ ×Ļ
×¨ ×Ķ
×¨ ×¡
×¨ ×Ł
×¨ ×ķ×Ł
×¨ ×Ļ×©
×¨ ×ķ×¡
×¨ ×ĳ×ķ×ª
Ùģ Ø§
Ùģ Ø§ÙĦ
Ùģ ØŃ
Ùģ ÙĨØ¯
Ùģ Ø¥
Ùģ Ø§Ø¹
Ùģ ÙĬØ¯
Ùģ Ø§Ø¬
Ùģ Ø§Ø¶
Ùģ ÙĤÛĮ
Ò¯ ÑģÑĤ
Ò¯ Ñħ
ÏĢ ÎŃ
ÏĢ Î»Î¿
ÏĢ Î¬Ïģ
ÏĢ Î»ÎŃ
ÏĢ Î·Î³
ÏĢ Î»Î¿Ïį
ÅŁ it
ÅŁ am
ÅŁ ti
ÅŁ im
ÅŁ lar
ÅŁ Ã®
ÅŁ ah
ÅŁ art
ÅŁ larÄ±
ÅŁ Ã¶bÉĻ
ÅŁ irkÉĻt
à¸Ń à¸ģà¸²à¸£
à¸Ń à¸ĸ
Î¼ Ïį
Î¼ Î¼Î±
Î¼ Î¯Î±
Î¼ Î¼Î±ÏĦÎ±
Î¼ ÏīÏĤ
Î¼ ÎµÎ¯ÏĤ
ma f
ma is
ma ch
ma ak
ma ge
ma and
ma af
ma hal
ma inten
ma stur
à¤ª à¤¸
à¤ª à¤ł
à°° à°²
à°° à°¯à°¤
Î» ÏĮ
Î» Î»Î±
Î» Î»Î¿Î³
Î» ÏīÏĥÎ·
Î» Î»Î¿Î½
ov ar
ov as
ov ni
ov no
ov ati
ov ac
ov ine
ov Ã½ch
Ø´ ÙĦ
Ø´ ÙĤ
Ø´ Ùĥ
Ø´ ÙĪØ±
Ø´ Ø§ÛĮ
Ø´ Ø±ÙĪ
Ø´ Úª
Ø´ Ø§Ø¹
Ø´ ÙĪÛĮ
Ø´ Ø§Ø®
Ø´ Ø§Ûģ
Ø´ ÙħØ§ÙĦ
Ø´ ÙīØ±
Ø´ Ø¹Ø¨
×ŀ ×ķ×ŀ
×ŀ ×ļ
×ŀ ×ķ×¤
×ŀ ×ľ×Ĺ
×ŀ ×¤×ª
à¸ģ à¸Ķ
à¸ģ à¸ª
à¸ģ à¸Ńà¸ĩ
à¸ģ à¸²à¸¢
à¸ģ à¸Ħà¸£
à¸ģ à¹Ĩ
à¸ģ à¸ĩà¸²à¸Ļ
à¸ģ à¸İ
Ú© Ù¹
Ú© ÙĪÙħ
Ú© ÙĪØ¯
Ø§ÙĨ Ø¬
Ø§ÙĨ Ø§Øª
Ø§ÙĨ ÙĪÙĨ
Ø§ÙĨ ÚĪ
Ø§ÙĨ Ù¹Ø±
Ø§ÙĨ ØªØ®
ab u
ab er
ab et
ab ay
ab stra
ab ier
Õ« Õ¸Õ¶
Ð»Ð¸ ÑĪ
Ð»Ð¸ ÑĤÑĮ
[...]
